<pad>	0
<s>	0
</s>	0
<unk>	0
▁t	-0
▁T	-1
me	-2
st	-3
▁th	-4
▁a	-5
▁the	-6
nt	-7
RO	-8
at	-9
er	-10
▁F	-11
▁S	-12
CT	-13
ame	-14
in	-15
▁A	-16
▁c	-17
ECT	-18
EL	-19
ROM	-20
ELECT	-21
▁FROM	-22
id	-23
or	-24
▁SELECT	-25
name	-26
▁W	-27
▁=	-28
▁AS	-29
1.	-30
re	-31
on	-32
ou	-33
of	-34
de	-35
ER	-36
2.	-37
▁O	-38
IN	-39
▁of	-40
an	-41
it	-42
es	-43
▁p	-44
ar	-45
ct	-46
ount	-47
HER	-48
HERE	-49
▁WHERE	-50
▁J	-51
ion	-52
ro	-53
▁m	-54
OIN	-55
▁JOIN	-56
▁B	-57
▁ON	-58
▁name	-59
▁w	-60
nd	-61
▁BY	-62
ic	-63
ho	-64
▁f	-65
al	-66
▁,	-67
▁Wh	-68
▁s	-69
le	-70
▁d	-71
▁count	-72
▁"	-73
▁and	-74
▁What	-75
is	-76
ust	-77
▁in	-78
▁are	-79
ist	-80
▁b	-81
la	-82
▁e	-83
▁h	-84
ome	-85
um	-86
ment	-87
ing	-88
▁st	-89
ed	-90
▁L	-91
▁G	-92
omer	-93
(*	-94
(*)	-95
ll	-96
ustomer	-97
ge	-98
ve	-99
▁1	-100
ac	-101
art	-102
mp	-103
▁D	-104
ber	-105
ation	-106
▁n	-107
ode	-108
lo	-109
▁OR	-110
00	-111
UP	-112
ir	-113
ROUP	-114
▁GROUP	-115
▁C	-116
ID	-117
▁ha	-118
uct	-119
ate	-120
se	-121
DER	-122
▁ORDER	-123
pe	-124
3.	-125
il	-126
▁names	-127
▁is	-128
rod	-129
▁de	-130
ers	-131
▁H	-132
roduct	-133
ri	-134
ith	-135
umber	-136
▁all	-137
ol	-138
ity	-139
ude	-140
▁'	-141
▁or	-142
udent	-143
code	-144
ye	-145
▁LI	-146
ss	-147
▁with	-148
▁number	-149
ot	-150
▁who	-151
▁that	-152
ind	-153
our	-154
ce	-155
IT	-156
et	-157
ra	-158
▁customer	-159
ES	-160
▁have	-161
MIT	-162
▁LIMIT	-163
any	-164
▁Find	-165
ype	-166
▁av	-167
ff	-168
oc	-169
ESC	-170
der	-171
▁re	-172
▁DESC	-173
▁for	-174
▁P	-175
▁2	-176
part	-177
ach	-178
▁>	-179
us	-180
ur	-181
pt	-182
ow	-183
how	-184
▁student	-185
▁R	-186
irst	-187
om	-188
▁product	-189
IS	-190
partment	-191
Name	-192
ub	-193
ice	-194
op	-195
age	-196
act	-197
ument	-198
IST	-199
▁id	-200
ent	-201
ch	-202
▁many	-203
mplo	-204
ig	-205
ost	-206
ore	-207
ry	-208
mploye	-209
ies	-210
im	-211
customer	-212
en	-213
▁Show	-214
ut	-215
last	-216
▁me	-217
ocument	-218
▁ma	-219
INCT	-220
ISTINCT	-221
▁How	-222
▁l	-223
omp	-224
▁than	-225
▁St	-226
ip	-227
lay	-228
ran	-229
▁each	-230
ong	-231
▁order	-232
ND	-233
▁AND	-234
ort	-235
▁g	-236
ich	-237
ul	-238
ad	-239
am	-240
▁by	-241
▁(	-242
ail	-243
orm	-244
▁most	-245
count	-246
▁first	-247
type	-248
ect	-249
aff	-250
est	-251
▁List	-252
ress	-253
as	-254
▁employe	-255
▁IN	-256
▁customers	-257
ors	-258
NT	-259
ourse	-260
iv	-261
dress	-262
igh	-263
▁department	-264
▁lo	-265
erage	-266
▁average	-267
year	-268
▁avg	-269
▁pro	-270
sc	-271
▁students	-272
ING	-273
▁last	-274
port	-275
ast	-276
ay	-277
itle	-278
▁E	-279
▁city	-280
lub	-281
▁r	-282
▁has	-283
ject	-284
▁max	-285
▁DISTINCT	-286
OU	-287
SELECT	-288
ance	-289
▁play	-290
▁3	-291
room	-292
▁sc	-293
▁COU	-294
AV	-295
▁HAV	-296
▁comp	-297
▁HAVING	-298
▁document	-299
mber	-300
rice	-301
ap	-302
▁wh	-303
ive	-304
hip	-305
ie	-306
▁te	-307
▁di	-308
otal	-309
▁ac	-310
ople	-311
ding	-312
product	-313
ult	-314
▁COUNT	-315
▁M	-316
one	-317
tail	-318
ions	-319
▁Which	-320
king	-321
te	-322
ess	-323
▁200	-324
ON	-325
▁products	-326
▁part	-327
rt	-328
▁at	-329
ations	-330
▁dist	-331
ver	-332
▁not	-333
eople	-334
▁more	-335
oo	-336
▁N	-337
▁code	-338
ION	-339
out	-340
uth	-341
▁whose	-342
▁le	-343
urn	-344
ary	-345
▁employees	-346
▁member	-347
scri	-348
ft	-349
▁total	-350
tails	-351
ates	-352
▁type	-353
em	-354
▁an	-355
▁bu	-356
ating	-357
▁song	-358
ks	-359
▁air	-360
int	-361
▁min	-362
qu	-363
hool	-364
▁cla	-365
▁date	-366
ddress	-367
all	-368
▁do	-369
rtist	-370
▁<	-371
▁as	-372
▁ids	-373
ain	-374
OT	-375
▁v	-376
script	-377
▁to	-378
el	-379
▁5	-380
ian	-381
ffer	-382
rac	-383
str	-384
alary	-385
vie	-386
fferent	-387
▁course	-388
date	-389
ard	-390
ark	-391
ours	-392
▁different	-393
res	-394
▁Ret	-395
AR	-396
▁ph	-397
▁en	-398
▁Return	-399
ight	-400
▁year	-401
and	-402
ble	-403
ilm	-404
nding	-405
▁country	-406
erv	-407
erg	-408
rom	-409
000	-410
▁loc	-411
os	-412
▁al	-413
▁ch	-414
erson	-415
atus	-416
▁sum	-417
first	-418
DISTINCT	-419
▁Student	-420
ERS	-421
ition	-422
scription	-423
red	-424
olle	-425
▁people	-426
imum	-427
ilding	-428
ine	-429
▁Count	-430
cending	-431
ated	-432
inct	-433
▁distinct	-434
▁age	-435
▁artist	-436
staff	-437
ices	-438
▁INT	-439
ere	-440
ob	-441
ERSECT	-442
▁INTERSECT	-443
pro	-444
amp	-445
"?	-446
▁account	-447
ont	-448
pen	-449
city	-450
ph	-451
ities	-452
▁there	-453
end	-454
stu	-455
▁20	-456
club	-457
▁least	-458
▁Y	-459
EP	-460
raft	-461
▁title	-462
▁school	-463
▁>=	-464
rans	-465
mount	-466
ction	-467
ampus	-468
▁high	-469
gan	-470
dept	-471
▁from	-472
▁NOT	-473
ician	-474
ory	-475
▁j	-476
acult	-477
ransact	-478
▁which	-479
▁salary	-480
▁address	-481
St	-482
rof	-483
ergy	-484
roll	-485
▁us	-486
▁staff	-487
EAR	-488
▁any	-489
AT	-490
▁Give	-491
ical	-492
▁party	-493
address	-494
details	-495
EPT	-496
uID	-497
ure	-498
arket	-499
craft	-500
aculty	-501
ayment	-502
".	-503
yp	-504
struct	-505
▁Customer	-506
XC	-507
ag	-508
▁EXC	-509
▁club	-510
▁EXCEPT	-511
ime	-512
gion	-513
▁their	-514
▁ASC	-515
▁room	-516
ourist	-517
▁project	-518
▁employee	-519
▁be	-520
▁auth	-521
hop	-522
▁class	-523
▁price	-524
ollege	-525
cust	-526
▁film	-527
tt	-528
up	-529
oth	-530
ders	-531
order	-532
▁YEAR	-533
▁airport	-534
ient	-535
olic	-536
▁ge	-537
istic	-538
4.	-539
title	-540
ill	-541
course	-542
▁se	-543
ypes	-544
▁man	-545
▁amount	-546
Id	-547
ubl	-548
▁he	-549
▁res	-550
▁Name	-551
ue	-552
▁U	-553
▁100	-554
riend	-555
▁building	-556
un	-557
▁ho	-558
▁members	-559
▁trac	-560
form	-561
nder	-562
alance	-563
river	-564
aract	-565
▁ship	-566
KE	-567
iz	-568
▁LIKE	-569
ec	-570
▁V	-571
▁we	-572
ovie	-573
▁Re	-574
▁on	-575
aracter	-576
vent	-577
▁act	-578
▁dorm	-579
▁player	-580
ab	-581
role	-582
ourses	-583
get	-584
blem	-585
cla	-586
its	-587
▁rac	-588
ranch	-589
aracteristic	-590
vis	-591
rect	-592
▁list	-593
og	-594
▁19	-595
ines	-596
mployee	-597
▁o	-598
uf	-599
ufact	-600
▁state	-601
olor	-602
▁phone	-603
▁ordered	-604
▁Customers	-605
oint	-606
ATION	-607
▁both	-608
▁station	-609
ud	-610
▁maximum	-611
av	-612
▁10	-613
▁201	-614
▁Person	-615
les	-616
rict	-617
▁cities	-618
description	-619
▁teach	-620
▁payment	-621
to	-622
rade	-623
vo	-624
ase	-625
gest	-626
▁songs	-627
ufactur	-628
▁I	-629
num	-630
amen	-631
▁company	-632
▁players	-633
OC	-634
loc	-635
ateg	-636
▁tw	-637
opul	-638
led	-639
document	-640
▁instruct	-641
ilo	-642
▁per	-643
ly	-644
apt	-645
icip	-646
▁boo	-647
▁ran	-648
▁team	-649
▁authors	-650
▁Document	-651
omm	-652
pon	-653
▁documents	-654
ish	-655
▁ex	-656
Type	-657
▁courses	-658
anies	-659
ant	-660
alog	-661
atalog	-662
ign	-663
▁campus	-664
SS	-665
ames	-666
arty	-667
play	-668
▁des	-669
▁job	-670
stuid	-671
th	-672
ale	-673
cor	-674
▁LOC	-675
▁wor	-676
ervice	-677
▁rating	-678
▁LOCATION	-679
ars	-680
pre	-681
▁county	-682
▁descending	-683
are	-684
rant	-685
▁types	-686
▁problem	-687
";	-688
ng	-689
▁4	-690
Att	-691
fname	-692
ution	-693
amount	-694
ys	-695
▁highest	-696
ced	-697
abet	-698
▁alph	-699
▁alphabet	-700
ENT	-701
LA	-702
adqu	-703
ganis	-704
▁named	-705
adquart	-706
▁lar	-707
ational	-708
bum	-709
▁dept	-710
▁role	-711
custid	-712
▁enroll	-713
▁details	-714
ransaction	-715
cent	-716
rain	-717
▁For	-718
ivers	-719
number	-720
▁dates	-721
comp	-722
▁open	-723
driver	-724
dvis	-725
▁cont	-726
▁does	-727
ategory	-728
oom	-729
dorm	-730
view	-731
rofess	-732
ircraft	-733
▁accounts	-734
characteristic	-735
rs	-736
anc	-737
ssign	-738
opulation	-739
driverid	-740
item	-741
price	-742
▁polic	-743
station	-744
ysician	-745
project	-746
RA	-747
hi	-748
als	-749
▁med	-750
▁mus	-751
▁one	-752
ments	-753
▁direct	-754
ann	-755
lim	-756
ilot	-757
▁aff	-758
Count	-759
ination	-760
▁status	-761
▁Documents	-762
▁ascending	-763
iss	-764
▁invo	-765
▁location	-766
aper	-767
atch	-768
▁did	-769
▁time	-770
respon	-771
▁ta	-772
▁cor	-773
▁two	-774
ang	-775
ler	-776
ram	-777
Attra	-778
▁what	-779
artist	-780
▁correspon	-781
▁comm	-782
▁train	-783
▁tracks	-784
hod	-785
apac	-786
class	-787
▁claim	-788
▁airports	-789
ull	-790
ason	-791
▁gre	-792
▁orders	-793
LASS	-794
Tourist	-795
apacity	-796
ganisation	-797
ven	-798
student	-799
emp	-800
▁un	-801
gist	-802
▁ele	-803
ident	-804
lname	-805
ountain	-806
▁description	-807
EN	-808
▁Pro	-809
▁had	-810
▁races	-811
▁low	-812
▁CLASS	-813
▁StuID	-814
▁start	-815
▁largest	-816
-0	-817
mail	-818
▁publ	-819
▁college	-820
▁profess	-821
▁manufactur	-822
ia	-823
ath	-824
ose	-825
auth	-826
song	-827
▁rank	-828
▁Apartment	-829
▁alphabetical	-830
oun	-831
own	-832
StuID	-833
light	-834
redit	-835
iversity	-836
▁Product	-837
▁faculty	-838
ded	-839
mID	-840
riv	-841
ries	-842
ross	-843
▁ent	-844
▁codes	-845
▁gender	-846
department	-847
▁companies	-848
ai	-849
vest	-850
▁try	-851
▁card	-852
▁were	-853
▁market	-854
▁minimum	-855
▁classroom	-856
▁departments	-857
PE	-858
▁8	-859
Code	-860
thod	-861
▁how	-862
aving	-863
▁chec	-864
dget	-865
tend	-866
▁sub	-867
▁they	-868
▁used	-869
▁budget	-870
if	-871
▁att	-872
▁off	-873
▁2000	-874
▁Comp	-875
▁tryout	-876
ial	-877
jor	-878
ists	-879
kings	-880
country	-881
ication	-882
Re	-883
li	-884
ges	-885
hib	-886
▁ST	-887
▁Te	-888
songid	-889
balance	-890
zy	-891
zip	-892
zyme	-893
▁tit	-894
▁made	-895
▁sort	-896
People	-897
▁saving	-898
▁titles	-899
we	-900
ganiz	-901
clubid	-902
dormid	-903
ission	-904
status	-905
▁advis	-906
▁region	-907
way	-908
▁ab	-909
Price	-910
estiv	-911
▁inst	-912
osition	-913
▁result	-914
ransactions	-915
▁Ref	-916
items	-917
amenity	-918
▁Faculty	-919
▁Project	-920
▁catalog	-921
▁checking	-922
▁corresponding	-923
ym	-924
▁was	-925
annel	-926
▁locations	-927
%"	-928
eid	-929
rip	-930
come	-931
color	-932
ccount	-933
llergy	-934
ssigned	-935
▁branch	-936
▁person	-937
▁addresses	-938
fore	-939
team	-940
Party	-941
OR	-942
YPE	-943
▁ap	-944
ages	-945
oints	-946
▁driv	-947
campus	-948
outcome	-949
▁review	-950
ex	-951
he	-952
ne	-953
▁ol	-954
▁pr	-955
fter	-956
▁acc	-957
▁after	-958
▁email	-959
▁problems	-960
▁apartment	-961
▁headquart	-962
▁physician	-963
ett	-964
acID	-965
andid	-966
▁trip	-967
▁album	-968
etition	-969
▁drivers	-970
ationality	-971
-2	-972
ator	-973
state	-974
ctions	-975
▁Rating	-976
▁aircraft	-977
▁particip	-978
▁projects	-979
crs	-980
▁In	-981
▁TYPE	-982
▁Movie	-983
venue	-984
▁some	-985
▁match	-986
▁higher	-987
tendance	-988
▁savings	-989
UD	-990
▁9	-991
ourn	-992
▁zip	-993
UDENT	-994
region	-995
▁pilot	-996
company	-997
▁STUDENT	-998
Attraction	-999
▁instructor	-1000
chn	-1001
olu	-1002
ymn	-1003
rest	-1004
ustry	-1005
▁host	-1006
▁less	-1007
ymnast	-1008
chnician	-1009
▁countries	-1010
WE	-1011
▁K	-1012
INE	-1013
ide	-1014
ove	-1015
▁18	-1016
angu	-1017
▁ban	-1018
▁2010	-1019
▁Room	-1020
▁WINE	-1021
uration	-1022
▁balance	-1023
▁contain	-1024
io	-1025
▁)	-1026
aid	-1027
urch	-1028
▁rooms	-1029
▁sorted	-1030
pr	-1031
ered	-1032
odel	-1033
▁pap	-1034
▁top	-1035
ature	-1036
itions	-1037
season	-1038
▁medic	-1039
▁movie	-1040
▁papers	-1041
▁policy	-1042
▁district	-1043
log	-1044
upp	-1045
aila	-1046
▁capt	-1047
ournal	-1048
▁captain	-1049
▁campuses	-1050
▁election	-1051
%'	-1052
ET	-1053
ond	-1054
pel	-1055
rol	-1056
▁liv	-1057
ported	-1058
salary	-1059
▁store	-1060
▁Account	-1061
▁artists	-1062
▁mountain	-1063
organisation	-1064
ov	-1065
nit	-1066
▁"%	-1067
▁sh	-1068
gram	-1069
▁shop	-1070
atient	-1071
▁event	-1072
▁common	-1073
▁enrollment	-1074
ew	-1075
ook	-1076
ute	-1077
cord	-1078
paper	-1079
▁loan	-1080
▁hours	-1081
ervices	-1082
istrict	-1083
paperid	-1084
employee	-1085
')	-1086
'?	-1087
▁6	-1088
ick	-1089
0000	-1090
neur	-1091
▁Age	-1092
olume	-1093
repre	-1094
uppli	-1095
▁full	-1096
uilding	-1097
repreneur	-1098
▁entrepreneur	-1099
De	-1100
fo	-1101
ium	-1102
man	-1103
▁50	-1104
▁He	-1105
ETWE	-1106
laim	-1107
▁voc	-1108
layer	-1109
▁1000	-1110
ETWEEN	-1111
▁candid	-1112
▁BETWEEN	-1113
gh	-1114
gre	-1115
rou	-1116
Date	-1117
etwe	-1118
rodu	-1119
etween	-1120
vestor	-1121
▁Staff	-1122
▁above	-1123
▁produ	-1124
▁storm	-1125
▁wines	-1126
▁between	-1127
ater	-1128
atest	-1129
inter	-1130
branch	-1131
▁manag	-1132
▁scient	-1133
▁manufacturers	-1134
OS	-1135
SA	-1136
ock	-1137
prof	-1138
ivity	-1139
▁score	-1140
olution	-1141
▁capacity	-1142
co	-1143
▁u	-1144
rib	-1145
wor	-1146
▁ind	-1147
adium	-1148
outes	-1149
▁book	-1150
▁home	-1151
▁Accounts	-1152
ood	-1153
alue	-1154
irth	-1155
ning	-1156
emale	-1157
▁grade	-1158
ailable	-1159
▁director	-1160
▁invoices	-1161
▁'%	-1162
▁1;	-1163
ence	-1164
mith	-1165
▁bed	-1166
laint	-1167
ports	-1168
store	-1169
▁been	-1170
Friend	-1171
Country	-1172
allergy	-1173
estival	-1174
▁routes	-1175
Aircraft	-1176
lastname	-1177
▁organiz	-1178
▁assigned	-1179
ke	-1180
nre	-1181
▁UN	-1182
▁sex	-1183
▁UNION	-1184
▁volume	-1185
hibition	-1186
location	-1187
▁publish	-1188
▁schools	-1189
▁stations	-1190
▁technician	-1191
▁transaction	-1192
igin	-1193
roup	-1194
ures	-1195
▁199	-1196
istory	-1197
player	-1198
▁major	-1199
▁albums	-1200
▁flight	-1201
▁origin	-1202
category	-1203
ee	-1204
cis	-1205
ward	-1206
▁TRA	-1207
games	-1208
iated	-1209
▁times	-1210
itution	-1211
▁height	-1212
▁College	-1213
▁channel	-1214
▁teachers	-1215
by	-1216
▁*	-1217
med	-1218
cont	-1219
iles	-1220
mper	-1221
otes	-1222
ship	-1223
▁Res	-1224
ative	-1225
kshop	-1226
authid	-1227
▁Rooms	-1228
▁track	-1229
▁years	-1230
mission	-1231
▁numbers	-1232
mperature	-1233
▁complaint	-1234
▁instructors	-1235
▁PersonFriend	-1236
▁30	-1237
▁la	-1238
ovies	-1239
school	-1240
▁wrest	-1241
▁enzyme	-1242
▁friend	-1243
▁medicine	-1244
au	-1245
▁y	-1246
ery	-1247
ght	-1248
low	-1249
rID	-1250
row	-1251
isit	-1252
sent	-1253
stars	-1254
pelation	-1255
strument	-1256
ear	-1257
ize	-1258
ses	-1259
ased	-1260
inst	-1261
ettle	-1262
▁before	-1263
▁allergy	-1264
▁greater	-1265
▁gymnast	-1266
▁position	-1267
RE	-1268
ert	-1269
▁15	-1270
▁its	-1271
party	-1272
▁user	-1273
antity	-1274
▁where	-1275
▁recent	-1276
▁record	-1277
interact	-1278
classroom	-1279
transaction	-1280
eld	-1281
▁sm	-1282
▁Who	-1283
ected	-1284
▁colle	-1285
▁lowest	-1286
niversity	-1287
20	-1288
IC	-1289
pa	-1290
mer	-1291
apid	-1292
itor	-1293
rate	-1294
ster	-1295
town	-1296
polic	-1297
▁clim	-1298
▁show	-1299
Artist	-1300
amenid	-1301
rating	-1302
regist	-1303
▁State	-1304
▁Country	-1305
▁located	-1306
▁parties	-1307
▁Apartments	-1308
He	-1309
for	-1310
oll	-1311
oot	-1312
set	-1313
▁bel	-1314
CTION	-1315
▁bank	-1316
method	-1317
▁affil	-1318
▁belong	-1319
ddresses	-1320
▁journal	-1321
▁stadium	-1322
▁produced	-1323
▁professor	-1324
▁scientists	-1325
▁ne	-1326
ales	-1327
film	-1328
ores	-1329
trac	-1330
nited	-1331
▁ever	-1332
ounded	-1333
raceid	-1334
▁games	-1335
▁author	-1336
▁Allergy	-1337
▁affected	-1338
▁population	-1339
peed	-1340
ither	-1341
point	-1342
▁race	-1343
▁langu	-1344
▁advisor	-1345
▁musical	-1346
▁patient	-1347
▁results	-1348
▁colleges	-1349
▁transactions	-1350
'.	-1351
11	-1352
AC	-1353
▁Or	-1354
ware	-1355
▁ass	-1356
▁Team	-1357
▁game	-1358
orders	-1359
redits	-1360
▁those	-1361
present	-1362
▁vocals	-1363
firstname	-1364
ppelation	-1365
attendance	-1366
▁institution	-1367
idu	-1368
card	-1369
dest	-1370
ping	-1371
▁but	-1372
▁log	-1373
▁ref	-1374
ividu	-1375
lease	-1376
lines	-1377
start	-1378
▁dest	-1379
CTIONS	-1380
Product	-1381
▁either	-1382
formance	-1383
▁candidate	-1384
UM	-1385
publ	-1386
udio	-1387
▁end	-1388
▁pre	-1389
County	-1390
aurant	-1391
friend	-1392
Service	-1393
▁credit	-1394
mployees	-1395
▁greatest	-1396
▁services	-1397
▁buildings	-1398
▁instrument	-1399
▁competition	-1400
")	-1401
Ch	-1402
ays	-1403
ser	-1404
▁no	-1405
ault	-1406
ball	-1407
udget	-1408
▁ships	-1409
service	-1410
▁driver	-1411
▁movies	-1412
▁program	-1413
formation	-1414
▁counties	-1415
▁University	-1416
Al	-1417
oh	-1418
lat	-1419
vel	-1420
▁hi	-1421
ideo	-1422
prov	-1423
rand	-1424
▁Fin	-1425
▁dev	-1426
ances	-1427
cName	-1428
entry	-1429
storm	-1430
▁star	-1431
▁below	-1432
▁color	-1433
▁never	-1434
account	-1435
▁female	-1436
Employee	-1437
▁invoice	-1438
▁Products	-1439
▁professors	-1440
US	-1441
Comp	-1442
lish	-1443
grees	-1444
mester	-1445
▁Party	-1446
▁category	-1447
▁Addresses	-1448
▁membership	-1449
▁resolution	-1450
19	-1451
yc	-1452
Pos	-1453
alt	-1454
hot	-1455
ons	-1456
▁Ch	-1457
Song	-1458
band	-1459
claim	-1460
▁2009	-1461
▁form	-1462
▁live	-1463
instid	-1464
▁cName	-1465
▁Player	-1466
clubname	-1467
▁revenue	-1468
▁Aircraft	-1469
▁duration	-1470
▁Employees	-1471
▁authorship	-1472
▁information	-1473
od	-1474
leg	-1475
▁Al	-1476
▁buil	-1477
market	-1478
ribute	-1479
▁every	-1480
▁prices	-1481
▁regist	-1482
▁climber	-1483
▁manager	-1484
▁semester	-1485
▁exhibition	-1486
▁headquarters	-1487
UL	-1488
sh	-1489
Age	-1490
ORD	-1491
ern	-1492
ger	-1493
game	-1494
mate	-1495
uest	-1496
ught	-1497
▁attra	-1498
▁votes	-1499
▁points	-1500
▁proced	-1501
▁taught	-1502
bandmate	-1503
building	-1504
quantity	-1505
scriptions	-1506
▁available	-1507
▁university	-1508
In	-1509
per	-1510
ree	-1511
inem	-1512
rape	-1513
▁gas	-1514
celer	-1515
irect	-1516
phone	-1517
▁cost	-1518
▁held	-1519
roller	-1520
▁music	-1521
▁States	-1522
▁method	-1523
▁played	-1524
▁founded	-1525
sa	-1526
tr	-1527
pID	-1528
Auth	-1529
OSIT	-1530
Room	-1531
ince	-1532
land	-1533
▁dis	-1534
FacID	-1535
pring	-1536
▁5000	-1537
▁elim	-1538
SongId	-1539
budget	-1540
member	-1541
▁POSIT	-1542
▁three	-1543
rolment	-1544
▁across	-1545
▁opened	-1546
▁POSITION	-1547
interaction	-1548
▁submission	-1549
▁descriptions	-1550
5.	-1551
ask	-1552
arri	-1553
asse	-1554
▁can	-1555
▁fam	-1556
ather	-1557
ngers	-1558
ories	-1559
cident	-1560
upport	-1561
▁genre	-1562
▁Please	-1563
▁living	-1564
▁settle	-1565
assengers	-1566
▁policies	-1567
▁procedures	-1568
Det	-1569
REC	-1570
ULT	-1571
ily	-1572
ite	-1573
kes	-1574
roy	-1575
▁<=	-1576
▁ID	-1577
▁it	-1578
▁op	-1579
ents	-1580
itte	-1581
petr	-1582
▁VOT	-1583
Claim	-1584
Market	-1585
RECORD	-1586
▁clubs	-1587
▁lower	-1588
Address	-1589
irector	-1590
▁Sports	-1591
▁VOTING	-1592
▁detail	-1593
outcomes	-1594
reported	-1595
▁Tourist	-1596
▁perpetr	-1597
▁tourist	-1598
▁temperature	-1599
▁characteristic	-1600
MP	-1601
ns	-1602
eet	-1603
ins	-1604
ken	-1605
sex	-1606
arch	-1607
ones	-1608
over	-1609
▁300	-1610
aster	-1611
olors	-1612
ource	-1613
▁find	-1614
▁word	-1615
ancial	-1616
upplier	-1617
capacity	-1618
resident	-1619
omination	-1620
▁distance	-1621
En	-1622
Ph	-1623
VG	-1624
boo	-1625
ile	-1626
yst	-1627
▁12	-1628
▁An	-1629
▁CH	-1630
▁Ma	-1631
ails	-1632
away	-1633
essa	-1634
gine	-1635
info	-1636
lock	-1637
ntal	-1638
with	-1639
▁AVG	-1640
▁apt	-1641
Title	-1642
awayn	-1643
ertif	-1644
total	-1645
track	-1646
urnit	-1647
▁hire	-1648
anessa	-1649
illing	-1650
public	-1651
▁actor	-1652
▁assoc	-1653
▁birth	-1654
▁cinem	-1655
▁films	-1656
▁prere	-1657
Details	-1658
booking	-1659
district	-1660
▁Employee	-1661
▁Projects	-1662
▁Sportsinfo	-1663
▁Nationality	-1664
Or	-1665
▁0	-1666
San	-1667
fer	-1668
irc	-1669
ody	-1670
ote	-1671
Year	-1672
▁Red	-1673
▁don	-1674
ondon	-1675
rtwor	-1676
ystem	-1677
▁base	-1678
▁main	-1679
irport	-1680
▁users	-1681
estaurant	-1682
▁airlines	-1683
▁associated	-1684
▁headquarter	-1685
▁organization	-1686
Sc	-1687
-01	-1688
ony	-1689
ISIT	-1690
Ship	-1691
enre	-1692
mong	-1693
reen	-1694
▁Has	-1695
Event	-1696
hours	-1697
icial	-1698
oston	-1699
royed	-1700
scrib	-1701
▁Fran	-1702
▁Stoc	-1703
▁male	-1704
▁mill	-1705
▁rece	-1706
▁VISIT	-1707
▁playl	-1708
▁Flight	-1709
▁listed	-1710
▁billing	-1711
▁display	-1712
▁weather	-1713
celerator	-1714
ufacturer	-1715
▁Students	-1716
▁contains	-1717
Appelation	-1718
▁Financial	-1719
▁Stockings	-1720
▁languages	-1721
▁registered	-1722
Th	-1723
arm	-1724
ety	-1725
rit	-1726
wim	-1727
▁ed	-1728
cess	-1729
fety	-1730
road	-1731
▁198	-1732
▁reg	-1733
grade	-1734
itude	-1735
▁post	-1736
▁took	-1737
United	-1738
people	-1739
rowser	-1740
▁value	-1741
ertific	-1742
ocation	-1743
▁Status	-1744
▁events	-1745
▁degrees	-1746
▁without	-1747
locations	-1748
▁apartments	-1749
▁complaints	-1750
▁destination	-1751
Wor	-1752
ats	-1753
ina	-1754
job	-1755
oal	-1756
ohn	-1757
alid	-1758
host	-1759
ises	-1760
logy	-1761
▁con	-1762
cisco	-1763
grant	-1764
omine	-1765
roups	-1766
▁Song	-1767
▁body	-1768
▁size	-1769
safety	-1770
viewer	-1771
▁Fname	-1772
▁decor	-1773
▁expen	-1774
▁files	-1775
▁theme	-1776
Allergy	-1777
▁states	-1778
▁flights	-1779
▁service	-1780
▁Reviewer	-1781
▁personal	-1782
▁Francisco	-1783
▁represent	-1784
CH	-1785
LE	-1786
ma	-1787
NSA	-1788
ROL	-1789
men	-1790
ous	-1791
▁25	-1792
from	-1793
imed	-1794
ycle	-1795
econd	-1796
ember	-1797
▁amen	-1798
▁over	-1799
▁rate	-1800
county	-1801
iation	-1802
illion	-1803
▁purch	-1804
▁TRANSA	-1805
▁access	-1806
▁oldest	-1807
province	-1808
▁friends	-1809
▁activity	-1810
▁nationality	-1811
▁TRANSACTIONS	-1812
RS	-1813
br	-1814
cl	-1815
00?	-1816
ACT	-1817
ICS	-1818
bus	-1819
off	-1820
ral	-1821
Shop	-1822
oney	-1823
rama	-1824
ACTER	-1825
Genre	-1826
Staff	-1827
Types	-1828
cards	-1829
ittee	-1830
▁CHAR	-1831
▁Date	-1832
▁lett	-1833
▁them	-1834
Course	-1835
ISTICS	-1836
author	-1837
credit	-1838
enzyme	-1839
inning	-1840
rolled	-1841
urname	-1842
▁deleg	-1843
▁fname	-1844
▁lname	-1845
▁older	-1846
latform	-1847
▁claims	-1848
icipates	-1849
▁appoint	-1850
▁credits	-1851
Enrolment	-1852
▁enrolled	-1853
▁reported	-1854
employeeid	-1855
erformance	-1856
▁CHARACTER	-1857
▁Companies	-1858
▁aircrafts	-1859
transactions	-1860
▁attractions	-1861
▁manufacturer	-1862
▁organisation	-1863
▁CHARACTERISTICS	-1864
ces	-1865
ury	-1866
ible	-1867
turn	-1868
▁ear	-1869
▁fre	-1870
▁inj	-1871
itect	-1872
▁farm	-1873
inated	-1874
▁grant	-1875
▁stock	-1876
ookings	-1877
registr	-1878
▁letter	-1879
▁phones	-1880
▁return	-1881
▁roller	-1882
urniture	-1883
▁classes	-1884
▁teaches	-1885
▁recently	-1886
▁participated	-1887
mi	-1888
▁k	-1889
att	-1890
▁ar	-1891
-211	-1892
Boot	-1893
Vote	-1894
lers	-1895
▁Ind	-1896
Fname	-1897
Smith	-1898
aller	-1899
altim	-1900
facID	-1901
geles	-1902
laims	-1903
other	-1904
▁2008	-1905
▁Band	-1906
Bootup	-1907
colors	-1908
enroll	-1909
ubject	-1910
▁Smith	-1911
▁among	-1912
▁frequ	-1913
▁model	-1914
▁visit	-1915
ometown	-1916
problem	-1917
▁Baltim	-1918
▁Claims	-1919
▁active	-1920
▁cinema	-1921
director	-1922
▁Angeles	-1923
▁Baltimore	-1924
▁mountains	-1925
▁wrestlers	-1926
Attractions	-1927
▁elimination	-1928
▁entrepreneurs	-1929
characteristics	-1930
0.	-1931
60	-1932
NO	-1933
OM	-1934
ck	-1935
Pro	-1936
ata	-1937
▁1)	-1938
▁bi	-1939
▁co	-1940
alle	-1941
cast	-1942
line	-1943
▁Eng	-1944
▁Pri	-1945
oalie	-1946
▁2002	-1947
▁Part	-1948
▁cust	-1949
▁long	-1950
allest	-1951
dvisor	-1952
▁broad	-1953
isecond	-1954
▁actors	-1955
Customer	-1956
ervations	-1957
▁wrestler	-1958
▁broadcast	-1959
10	-1960
AM	-1961
Ma	-1962
fe	-1963
no	-1964
ok	-1965
00.	-1966
hol	-1967
ved	-1968
Host	-1969
ived	-1970
▁cre	-1971
inery	-1972
▁ages	-1973
gender	-1974
gineer	-1975
office	-1976
policy	-1977
▁COURS	-1978
▁Video	-1979
▁asset	-1980
catalog	-1981
ividual	-1982
▁family	-1983
Workshop	-1984
duration	-1985
uppliers	-1986
▁contact	-1987
▁regions	-1988
▁smaller	-1989
▁working	-1990
physician	-1991
▁industry	-1992
▁workshop	-1993
lag	-1994
vol	-1995
MENT	-1996
ared	-1997
mode	-1998
oung	-1999
▁big	-2000
▁pos	-2001
▁wee	-2002
ested	-2003
ollow	-2004
range	-2005
score	-2006
utors	-2007
▁mean	-2008
▁unit	-2009
wimmer	-2010
▁invol	-2011
▁shops	-2012
▁taken	-2013
▁trips	-2014
contact	-2015
quested	-2016
▁allerg	-2017
▁follow	-2018
▁office	-2019
▁rental	-2020
iseconds	-2021
▁Industry	-2022
ertificate	-2023
▁Headquart	-2024
▁attribute	-2025
▁positions	-2026
▁affiliation	-2027
CK	-2028
oe	-2029
9-0	-2030
DNO	-2031
Mus	-2032
Res	-2033
SSN	-2034
TOM	-2035
gpa	-2036
udi	-2037
▁CV	-2038
▁ra	-2039
lace	-2040
▁CUS	-2041
▁enr	-2042
▁lat	-2043
▁stu	-2044
Heilo	-2045
actid	-2046
isits	-2047
oeing	-2048
value	-2049
▁Dest	-2050
▁Prix	-2051
▁flag	-2052
▁head	-2053
Points	-2054
anding	-2055
istics	-2056
ominee	-2057
▁10000	-2058
▁Grand	-2059
▁Order	-2060
▁TRACK	-2061
▁dorms	-2062
▁lives	-2063
ardware	-2064
channel	-2065
imation	-2066
▁CUSTOM	-2067
▁Studio	-2068
▁invest	-2069
Bookings	-2070
atistics	-2071
policies	-2072
▁Advisor	-2073
▁booking	-2074
▁opening	-2075
▁percent	-2076
▁volumes	-2077
▁frequent	-2078
▁gymnasts	-2079
▁involved	-2080
▁received	-2081
▁delegates	-2082
▁publisher	-2083
▁alphabetic	-2084
▁appointment	-2085
▁technicians	-2086
Ed	-2087
Le	-2088
Te	-2089
cre	-2090
oin	-2091
tel	-2092
ues	-2093
▁Sc	-2094
▁few	-2095
icket	-2096
ility	-2097
laced	-2098
model	-2099
▁Tell	-2100
▁jobs	-2101
▁work	-2102
arrier	-2103
etball	-2104
ettled	-2105
rtwork	-2106
History	-2107
ventory	-2108
▁festiv	-2109
Location	-2110
▁Payment	-2111
▁seating	-2112
▁trained	-2113
▁bookings	-2114
▁branches	-2115
▁directed	-2116
▁festival	-2117
▁smallest	-2118
▁festivals	-2119
▁instruments	-2120
';	-2121
bu	-2122
ELL	-2123
Get	-2124
Mar	-2125
day	-2126
enr	-2127
hic	-2128
oft	-2129
orn	-2130
ten	-2131
ton	-2132
uid	-2133
▁As	-2134
City	-2135
alar	-2136
ancy	-2137
inda	-2138
ruct	-2139
utes	-2140
▁INV	-2141
▁Pop	-2142
▁cal	-2143
▁deb	-2144
▁fou	-2145
▁spe	-2146
▁won	-2147
Order	-2148
There	-2149
amera	-2150
ancel	-2151
event	-2152
ilder	-2153
ilway	-2154
langu	-2155
overn	-2156
▁bask	-2157
▁oper	-2158
▁pPos	-2159
ustral	-2160
▁items	-2161
▁level	-2162
▁salar	-2163
▁sales	-2164
▁share	-2165
▁speed	-2166
Airport	-2167
GenreId	-2168
icipant	-2169
oftware	-2170
subject	-2171
▁COURSE	-2172
ArtistId	-2173
forename	-2174
structor	-2175
▁Courses	-2176
▁devices	-2177
▁enzymes	-2178
▁railway	-2179
▁Population	-2180
▁affiliated	-2181
▁assignedto	-2182
▁basketball	-2183
▁postseason	-2184
participates	-2185
▁Performance	-2186
▁publication	-2187
0?	-2188
5?	-2189
ole	-2190
ally	-2191
cept	-2192
ised	-2193
ying	-2194
▁"19	-2195
▁Ran	-2196
▁own	-2197
ators	-2198
▁2004	-2199
▁Sort	-2200
▁item	-2201
ECTION	-2202
leased	-2203
search	-2204
▁Major	-2205
▁hosts	-2206
▁popul	-2207
▁short	-2208
▁under	-2209
organiz	-2210
▁County	-2211
▁bigger	-2212
register	-2213
▁allergies	-2214
▁directors	-2215
organization	-2216
▁organizations	-2217
-1	-2218
NY	-2219
OY	-2220
ld	-2221
su	-2222
▁-	-2223
200	-2224
ART	-2225
Can	-2226
ORS	-2227
cri	-2228
enn	-2229
ork	-2230
son	-2231
▁Ph	-2232
ATCH	-2233
atab	-2234
gree	-2235
ican	-2236
ircu	-2237
kill	-2238
pose	-2239
▁bal	-2240
▁crs	-2241
▁out	-2242
▁use	-2243
Album	-2244
Grape	-2245
block	-2246
cript	-2247
cross	-2248
genre	-2249
level	-2250
olice	-2251
▁Jose	-2252
▁arch	-2253
▁area	-2254
▁days	-2255
▁prov	-2256
▁stay	-2257
London	-2258
Spring	-2259
ention	-2260
penses	-2261
▁2010?	-2262
▁Award	-2263
▁MATCH	-2264
▁Songs	-2265
▁along	-2266
▁built	-2267
▁gtype	-2268
▁other	-2269
▁young	-2270
Musical	-2271
atabase	-2272
merican	-2273
revenue	-2274
surname	-2275
▁Height	-2276
▁device	-2277
▁fewest	-2278
▁injury	-2279
▁pilots	-2280
▁scores	-2281
▁weight	-2282
District	-2283
Mountain	-2284
activity	-2285
industry	-2286
ommittee	-2287
▁SECTION	-2288
▁bedType	-2289
ategories	-2290
statement	-2291
▁CUSTOMER	-2292
▁balances	-2293
▁hometown	-2294
▁roomName	-2295
▁salaries	-2296
Population	-2297
▁allergytype	-2298
▁perpetrator	-2299
▁Reservations	-2300
1?	-2301
Sp	-2302
ass	-2303
let	-2304
win	-2305
Team	-2306
arge	-2307
qual	-2308
rank	-2309
rime	-2310
▁gen	-2311
hotos	-2312
match	-2313
ntern	-2314
pened	-2315
speed	-2316
Boston	-2317
achine	-2318
atible	-2319
cision	-2320
vation	-2321
▁atten	-2322
▁cards	-2323
▁hotel	-2324
▁stars	-2325
▁teams	-2326
▁tweet	-2327
escript	-2328
▁photos	-2329
▁season	-2330
▁shared	-2331
ividuals	-2332
profiles	-2333
addresses	-2334
available	-2335
▁investor	-2336
▁released	-2337
▁architect	-2338
▁furniture	-2339
▁president	-2340
▁published	-2341
▁physicians	-2342
▁participant	-2343
HS	-2344
LB	-2345
PP	-2346
CCT	-2347
USA	-2348
ics	-2349
lan	-2350
▁11	-2351
LBUM	-2352
head	-2353
heme	-2354
hite	-2355
loor	-2356
pPos	-2357
ract	-2358
size	-2359
unch	-2360
▁APP	-2361
▁DEP	-2362
▁RES	-2363
▁emp	-2364
▁hap	-2365
▁lon	-2366
Lname	-2367
email	-2368
inten	-2369
types	-2370
uests	-2371
voice	-2372
▁band	-2373
▁chip	-2374
▁when	-2375
Author	-2376
Player	-2377
Region	-2378
School	-2379
Tutors	-2380
string	-2381
▁ALBUM	-2382
▁Lname	-2383
▁about	-2384
▁books	-2385
ARTMENT	-2386
Authors	-2387
Gymnast	-2388
astName	-2389
essment	-2390
ootball	-2391
▁APPELL	-2392
▁Course	-2393
▁RESULT	-2394
▁VISITS	-2395
▁compet	-2396
▁genres	-2397
▁storms	-2398
Hometown	-2399
ancelled	-2400
irstName	-2401
▁English	-2402
▁Nominee	-2403
▁created	-2404
▁longest	-2405
▁offered	-2406
ification	-2407
intenance	-2408
resolution	-2409
▁substring	-2410
accelerator	-2411
temperature	-2412
▁DEPARTMENT	-2413
▁correspond	-2414
▁frequently	-2415
▁settlement	-2416
▁APPELLATION	-2417
▁Certificate	-2418
▁participate	-2419
▁competitions	-2420
6?	-2421
ah	-2422
so	-2423
OST	-2424
ada	-2425
cup	-2426
ils	-2427
nts	-2428
rid	-2429
▁40	-2430
▁De	-2431
nter	-2432
sive	-2433
uter	-2434
▁600	-2435
▁Den	-2436
▁Man	-2437
▁ROL	-2438
▁San	-2439
▁nur	-2440
wards	-2441
▁HOST	-2442
▁York	-2443
anking	-2444
▁ROLES	-2445
▁sport	-2446
unction	-2447
▁Market	-2448
▁church	-2449
▁editor	-2450
▁larger	-2451
▁screen	-2452
Descript	-2453
standing	-2454
supplier	-2455
▁founder	-2456
▁popular	-2457
▁ratings	-2458
▁younger	-2459
▁musician	-2460
ssignments	-2461
▁amenities	-2462
▁expensive	-2463
▁Restaurant	-2464
▁candidates	-2465
nternational	-2466
▁settlements	-2467
registrations	-2468
▁Headquarters	-2469
00"	-2470
Bad	-2471
ELS	-2472
Hop	-2473
How	-2474
Med	-2475
OUR	-2476
Sub	-2477
TRA	-2478
Top	-2479
ack	-2480
bel	-2481
eng	-2482
fee	-2483
onn	-2484
ref	-2485
▁94	-2486
Hopk	-2487
Made	-2488
ULTY	-2489
area	-2490
eeks	-2491
fees	-2492
food	-2493
lays	-2494
onth	-2495
raph	-2496
reat	-2497
▁FAC	-2498
▁GRA	-2499
▁HOT	-2500
▁Off	-2501
▁Sex	-2502
▁Wen	-2503
▁csu	-2504
▁day	-2505
▁got	-2506
▁mid	-2507
▁old	-2508
▁web	-2509
Alice	-2510
Phone	-2511
actor	-2512
angla	-2513
arole	-2514
earch	-2515
isher	-2516
lands	-2517
ounge	-2518
share	-2519
▁3000	-2520
▁Club	-2521
▁Hall	-2522
▁When	-2523
▁file	-2524
▁test	-2525
▁well	-2526
▁youn	-2527
Attrib	-2528
Sawayn	-2529
arship	-2530
idents	-2531
iology	-2532
nterpr	-2533
onnage	-2534
orning	-2535
person	-2536
placed	-2537
quisit	-2538
▁12000	-2539
▁50000	-2540
▁Plays	-2541
▁money	-2542
▁video	-2543
Company	-2544
Hopkins	-2545
Janessa	-2546
Payment	-2547
Settled	-2548
english	-2549
ickname	-2550
ientist	-2551
restler	-2552
▁100000	-2553
▁Amount	-2554
▁HOTELS	-2555
▁Lounge	-2556
▁Sawayn	-2557
▁called	-2558
▁minist	-2559
▁prereq	-2560
▁source	-2561
▁trains	-2562
Badlands	-2563
Festival	-2564
contents	-2565
expenses	-2566
investor	-2567
▁Enterpr	-2568
▁FACULTY	-2569
▁Janessa	-2570
▁playing	-2571
holarship	-2572
▁captains	-2573
▁climbers	-2574
▁latitude	-2575
▁quantity	-2576
▁starting	-2577
▁supplier	-2578
▁youngest	-2579
Attributes	-2580
Department	-2581
enrollment	-2582
estimation	-2583
exhibition	-2584
▁basePrice	-2585
▁playlists	-2586
▁purchased	-2587
ganisations	-2588
▁journalist	-2589
▁Competition	-2590
▁Enterprises	-2591
▁prerequisit	-2592
▁APPELLATIONS	-2593
50	-2594
Ta	-2595
Cla	-2596
cmi	-2597
mid	-2598
org	-2599
▁cl	-2600
YEAR	-2601
book	-2602
iana	-2603
lens	-2604
▁bus	-2605
▁est	-2606
▁fee	-2607
agent	-2608
asure	-2609
ename	-2610
fault	-2611
ptime	-2612
vehic	-2613
▁Less	-2614
▁bike	-2615
▁park	-2616
Number	-2617
owment	-2618
▁Drama	-2619
▁Price	-2620
▁activ	-2621
▁exhib	-2622
▁fault	-2623
▁vocal	-2624
▁Member	-2625
▁United	-2626
▁camera	-2627
reatment	-2628
▁Carrier	-2629
▁Lessons	-2630
▁browser	-2631
▁history	-2632
▁laptime	-2633
▁swimmer	-2634
customers	-2635
▁Investor	-2636
▁forename	-2637
▁musicals	-2638
▁patients	-2639
▁research	-2640
population	-2641
▁elevation	-2642
▁endowment	-2643
▁firstname	-2644
▁inventory	-2645
▁statement	-2646
Description	-2647
▁attendance	-2648
▁exhibitions	-2649
▁performance	-2650
DA	-2651
Fe	-2652
RT	-2653
WN	-2654
be	-2655
uc	-2656
EMP	-2657
Los	-2658
Man	-2659
OIC	-2660
ley	-2661
min	-2662
rim	-2663
yes	-2664
Cont	-2665
Fall	-2666
John	-2667
King	-2668
WNER	-2669
ager	-2670
apan	-2671
high	-2672
ives	-2673
ivis	-2674
null	-2675
ound	-2676
pair	-2677
park	-2678
time	-2679
▁ART	-2680
▁get	-2681
ATTRA	-2682
China	-2683
Cycle	-2684
Model	-2685
Store	-2686
actID	-2687
bname	-2688
ences	-2689
guest	-2690
nderg	-2691
▁John	-2692
▁TOUR	-2693
▁kind	-2694
▁prem	-2695
-01-01	-2696
Agents	-2697
Groups	-2698
ferred	-2699
goalie	-2700
played	-2701
▁OWNER	-2702
▁entry	-2703
▁label	-2704
▁login	-2705
▁range	-2706
▁trade	-2707
Banking	-2708
athroom	-2709
billion	-2710
browser	-2711
builder	-2712
invoice	-2713
ivision	-2714
lection	-2715
overnor	-2716
program	-2717
scribed	-2718
▁ARTIST	-2719
▁INVOIC	-2720
▁People	-2721
▁Settle	-2722
▁groups	-2723
▁hotels	-2724
▁perfor	-2725
▁repair	-2726
▁stores	-2727
Shipping	-2728
festival	-2729
ominated	-2730
position	-2731
▁Catalog	-2732
▁TOURIST	-2733
▁hosting	-2734
▁started	-2735
▁subject	-2736
destroyed	-2737
scientist	-2738
▁advisors	-2739
▁attended	-2740
▁official	-2741
▁payments	-2742
▁playlist	-2743
EmployeeID	-2744
Passengers	-2745
Restaurant	-2746
individual	-2747
▁Marketing	-2748
▁investors	-2749
ATTRACTIONS	-2750
allergytype	-2751
illiseconds	-2752
▁medication	-2753
▁passengers	-2754
manufacturer	-2755
presentative	-2756
▁Settlements	-2757
▁Denomination	-2758
▁perpetrators	-2759
▁alphabetically	-2760
▁representative	-2761
▁characteristics	-2762
.'	-2763
18	-2764
84	-2765
IM	-2766
-26	-2767
ele	-2768
ner	-2769
▁1.	-2770
▁90	-2771
▁Be	-2772
▁Sh	-2773
Part	-2774
aths	-2775
ided	-2776
ngth	-2777
olum	-2778
▁Can	-2779
▁pit	-2780
▁rel	-2781
Color	-2782
Graph	-2783
Theme	-2784
amous	-2785
erved	-2786
itors	-2787
pilot	-2788
▁Rank	-2789
▁incl	-2790
▁subm	-2791
atives	-2792
detail	-2793
ilshot	-2794
onthly	-2795
▁Total	-2796
▁cycle	-2797
coaster	-2798
issions	-2799
percent	-2800
vehicle	-2801
▁charge	-2802
▁format	-2803
▁launch	-2804
▁tweets	-2805
shipping	-2806
▁outcome	-2807
▁perform	-2808
▁records	-2809
▁support	-2810
▁language	-2811
▁mailshot	-2812
▁provided	-2813
▁reviewer	-2814
▁shortest	-2815
▁reviewers	-2816
▁activities	-2817
▁commission	-2818
▁representatives	-2819
3"	-2820
34	-2821
EB	-2822
EE	-2823
MA	-2824
_1	-2825
bi	-2826
ey	-2827
rc	-2828
Eng	-2829
Jer	-2830
LOY	-2831
Met	-2832
alk	-2833
api	-2834
aya	-2835
dst	-2836
iel	-2837
ilk	-2838
ior	-2839
old	-2840
ops	-2841
pes	-2842
ris	-2843
the	-2844
▁EN	-2845
▁Ro	-2846
▁oc	-2847
ACCT	-2848
Tenn	-2849
apit	-2850
cost	-2851
data	-2852
dern	-2853
ernh	-2854
fend	-2855
ford	-2856
less	-2857
male	-2858
page	-2859
▁Air	-2860
▁EMP	-2861
▁den	-2862
▁gra	-2863
▁mID	-2864
▁wed	-2865
LOYEE	-2866
advis	-2867
bikes	-2868
icine	-2869
odern	-2870
pName	-2871
purch	-2872
rants	-2873
ridge	-2874
ustin	-2875
▁1989	-2876
▁1990	-2877
▁2001	-2878
▁2005	-2879
▁9410	-2880
▁ACCT	-2881
▁City	-2882
▁Elim	-2883
▁Publ	-2884
▁Shop	-2885
▁left	-2886
▁make	-2887
▁once	-2888
Events	-2889
Height	-2890
RoomId	-2891
Status	-2892
Tennis	-2893
astest	-2894
bility	-2895
degree	-2896
events	-2897
gameid	-2898
incent	-2899
record	-2900
ypical	-2901
▁appel	-2902
▁block	-2903
▁circu	-2904
▁loans	-2905
▁paper	-2906
▁point	-2907
▁rated	-2908
▁rates	-2909
▁using	-2910
AlbumId	-2911
Claimed	-2912
advisor	-2913
ayaking	-2914
college	-2915
ernhard	-2916
patient	-2917
scribes	-2918
tention	-2919
▁Grants	-2920
▁Winery	-2921
▁accept	-2922
▁attend	-2923
▁oppose	-2924
Building	-2925
Platform	-2926
Position	-2927
Wrestler	-2928
assigned	-2929
engineer	-2930
inations	-2931
medicine	-2932
▁editors	-2933
▁wedding	-2934
documents	-2935
structure	-2936
unctional	-2937
▁EMPLOYEE	-2938
▁LastName	-2939
▁Services	-2940
▁Software	-2941
▁VISITORS	-2942
▁interact	-2943
▁lastname	-2944
▁nickname	-2945
CustomerId	-2946
Submission	-2947
technician	-2948
▁followers	-2949
▁sportname	-2950
competition	-2951
▁Appelation	-2952
▁containing	-2953
▁accelerator	-2954
▁appelations	-2955
▁enrollments	-2956
▁Organisations	-2957
AL	-2958
At	-2959
UK	-2960
New	-2961
Reg	-2962
VEL	-2963
que	-2964
▁Sp	-2965
Film	-2966
Rock	-2967
ader	-2968
tary	-2969
ving	-2970
ylan	-2971
▁500	-2972
▁par	-2973
Total	-2974
ircul	-2975
ivery	-2976
loors	-2977
oupon	-2978
▁Open	-2979
▁also	-2980
▁data	-2981
▁give	-2982
▁prof	-2983
▁writ	-2984
Canada	-2985
Editor	-2986
source	-2987
system	-2988
▁2000?	-2989
▁banks	-2990
▁coach	-2991
▁media	-2992
▁spent	-2993
▁weeks	-2994
Austral	-2995
▁Boston	-2996
▁London	-2997
▁debate	-2998
▁having	-2999
▁report	-3000
▁ticket	-3001
American	-3002
latforms	-3003
rofessor	-3004
▁formats	-3005
▁include	-3006
▁markets	-3007
▁visited	-3008
Cancelled	-3009
▁builders	-3010
▁regional	-3011
irculation	-3012
▁districts	-3013
▁nominated	-3014
▁requested	-3015
▁scientist	-3016
▁percentage	-3017
▁publishers	-3018
▁individuals	-3019
▁performances	-3020
1'	-3021
4"	-3022
59	-3023
DE	-3024
DU	-3025
EM	-3026
198	-3027
Cat	-3028
LED	-3029
NUM	-3030
ROY	-3031
Rep	-3032
Rob	-3033
ash	-3034
cot	-3035
cum	-3036
eck	-3037
lno	-3038
ped	-3039
qui	-3040
ron	-3041
ual	-3042
use	-3043
▁14	-3044
▁23	-3045
▁ro	-3046
ENRE	-3047
Good	-3048
RODU	-3049
Unit	-3050
ccup	-3051
dist	-3052
held	-3053
lack	-3054
list	-3055
ored	-3056
ured	-3057
vice	-3058
▁10.	-3059
▁Act	-3060
▁All	-3061
▁FDA	-3062
▁Har	-3063
▁Los	-3064
▁MIN	-3065
▁Rob	-3066
▁SUM	-3067
▁eid	-3068
▁lot	-3069
Colum	-3070
LName	-3071
Linda	-3072
Pilot	-3073
RepId	-3074
Weeks	-3075
acher	-3076
birth	-3077
cumin	-3078
endar	-3079
floor	-3080
obile	-3081
orses	-3082
▁'198	-3083
▁1500	-3084
▁join	-3085
▁prim	-3086
▁stud	-3087
▁week	-3088
▁wine	-3089
Amount	-3090
Member	-3091
ROLLED	-3092
ailway	-3093
client	-3094
fender	-3095
letion	-3096
ndergo	-3097
opened	-3098
sesame	-3099
vision	-3100
▁Asset	-3101
▁GENRE	-3102
▁Paper	-3103
▁carri	-3104
▁often	-3105
▁place	-3106
▁studi	-3107
Account	-3108
Support	-3109
Winning	-3110
cessing	-3111
faculty	-3112
history	-3113
journal	-3114
teacher	-3115
uantity	-3116
▁Number	-3117
▁Police	-3118
▁Report	-3119
▁Visits	-3120
▁emails	-3121
▁grapes	-3122
▁latest	-3123
▁public	-3124
▁sports	-3125
▁themes	-3126
Contents	-3127
andidate	-3128
channels	-3129
decision	-3130
distance	-3131
playlist	-3132
▁Compute	-3133
▁amenity	-3134
▁belongs	-3135
Buildings	-3136
Marketing	-3137
Professor	-3138
Requested	-3139
languages	-3140
treatment	-3141
▁ENROLLED	-3142
▁Research	-3143
▁carriers	-3144
▁circuits	-3145
▁clubname	-3146
▁engineer	-3147
▁outcomes	-3148
▁programs	-3149
▁shipping	-3150
▁stadiums	-3151
categories	-3152
gradepoint	-3153
▁described	-3154
Manufacturer	-3155
SupportRepId	-3156
▁Participant	-3157
▁journalists	-3158
▁participants	-3159
Representative	-3160
2"	-3161
GT	-3162
Mi	-3163
No	-3164
▁?	-3165
-06	-3166
IME	-3167
Pen	-3168
com	-3169
erm	-3170
ged	-3171
han	-3172
her	-3173
iew	-3174
ird	-3175
lot	-3176
oud	-3177
por	-3178
▁1?	-3179
▁45	-3180
▁Ed	-3181
▁Ge	-3182
▁Th	-3183
▁US	-3184
▁fi	-3185
Fail	-3186
foot	-3187
ique	-3188
prop	-3189
ular	-3190
▁111	-3191
▁New	-3192
▁Sci	-3193
▁cmi	-3194
amage	-3195
asing	-3196
elect	-3197
eries	-3198
imate	-3199
mploy	-3200
train	-3201
▁'200	-3202
▁1850	-3203
▁2014	-3204
▁6000	-3205
▁TIME	-3206
▁rest	-3207
▁sect	-3208
active	-3209
result	-3210
venues	-3211
▁Alice	-3212
▁Title	-3213
▁cloud	-3214
▁exist	-3215
▁gross	-3216
College	-3217
ructure	-3218
stadium	-3219
udience	-3220
working	-3221
▁famous	-3222
▁goalie	-3223
▁hosted	-3224
▁system	-3225
▁unique	-3226
Graphics	-3227
accident	-3228
creasing	-3229
▁Company	-3230
▁amounts	-3231
▁bedroom	-3232
▁mission	-3233
▁operate	-3234
▁Building	-3235
▁Payments	-3236
▁incident	-3237
▁managers	-3238
▁minister	-3239
▁premises	-3240
▁railways	-3241
compatible	-3242
▁hometowns	-3243
▁medicines	-3244
▁performed	-3245
▁acceptance	-3246
▁restaurant	-3247
▁submissions	-3248
▁prerequisite	-3249
-8	-3250
5"	-3251
DP	-3252
Ex	-3253
On	-3254
bb	-3255
sk	-3256
yo	-3257
zz	-3258
AME	-3259
CON	-3260
Clo	-3261
Con	-3262
Day	-3263
Her	-3264
LOC	-3265
Sol	-3266
Ste	-3267
TER	-3268
Tur	-3269
alo	-3270
ana	-3271
ara	-3272
bal	-3273
bed	-3274
con	-3275
cur	-3276
dle	-3277
fir	-3278
ids	-3279
nth	-3280
ocr	-3281
rad	-3282
raz	-3283
ros	-3284
src	-3285
ssn	-3286
syc	-3287
ulu	-3288
urg	-3289
▁"6	-3290
▁At	-3291
▁Co	-3292
▁EV	-3293
▁LE	-3294
▁im	-3295
Club	-3296
ENTS	-3297
Herb	-3298
LOCK	-3299
NAME	-3300
Time	-3301
Town	-3302
alif	-3303
asks	-3304
atic	-3305
atte	-3306
avid	-3307
base	-3308
berg	-3309
erem	-3310
hoto	-3311
ieut	-3312
imal	-3313
jing	-3314
jors	-3315
lara	-3316
llow	-3317
mers	-3318
okyo	-3319
onol	-3320
post	-3321
rton	-3322
star	-3323
veig	-3324
▁10;	-3325
▁20.	-3326
▁GDP	-3327
▁Gam	-3328
▁dur	-3329
▁gpa	-3330
-211'	-3331
-211?	-3332
Diana	-3333
Grade	-3334
Group	-3335
Japan	-3336
alter	-3337
amber	-3338
ample	-3339
chain	-3340
cores	-3341
cotte	-3342
enant	-3343
ornia	-3344
stops	-3345
sycho	-3346
ulian	-3347
white	-3348
▁1999	-3349
▁8000	-3350
▁Alto	-3351
▁Came	-3352
▁Invo	-3353
▁Road	-3354
▁View	-3355
▁Wall	-3356
▁earn	-3357
▁food	-3358
Confir	-3359
Dayana	-3360
Method	-3361
Spices	-3362
gether	-3363
height	-3364
idship	-3365
legate	-3366
nament	-3367
ticket	-3368
tracks	-3369
winner	-3370
▁2000.	-3371
▁2010.	-3372
▁Coast	-3373
▁FacID	-3374
▁Grape	-3375
▁LName	-3376
▁Linda	-3377
▁Robel	-3378
▁Shark	-3379
▁bikes	-3380
▁cross	-3381
▁draft	-3382
▁drama	-3383
▁gname	-3384
▁group	-3385
▁nurse	-3386
▁takes	-3387
▁these	-3388
▁white	-3389
Artwork	-3390
Railway	-3391
Solveig	-3392
Vincent	-3393
degrees	-3394
eremony	-3395
example	-3396
headers	-3397
itional	-3398
machine	-3399
ocratic	-3400
onolulu	-3401
rtworks	-3402
ruction	-3403
troller	-3404
ustries	-3405
▁EVENTS	-3406
▁Gaming	-3407
▁Guests	-3408
▁Harris	-3409
▁Select	-3410
▁Spring	-3411
▁facult	-3412
▁length	-3413
▁majors	-3414
Computer	-3415
Election	-3416
Hardware	-3417
amberton	-3418
language	-3419
personal	-3420
postcode	-3421
rollment	-3422
▁Cameron	-3423
▁Credits	-3424
▁Finance	-3425
▁artwork	-3426
▁matches	-3427
▁related	-3428
▁studios	-3429
▁teacher	-3430
▁typical	-3431
▁undergo	-3432
▁univers	-3433
▁vehicle	-3434
Committee	-3435
Confirmed	-3436
alifornia	-3437
attribute	-3438
basePrice	-3439
blockcode	-3440
campusfee	-3441
candidate	-3442
idshipman	-3443
ieutenant	-3444
ournament	-3445
purchased	-3446
ssignment	-3447
sychology	-3448
▁10000000	-3449
▁Activity	-3450
▁Airlines	-3451
▁Category	-3452
▁District	-3453
▁Invoices	-3454
▁Official	-3455
▁accessed	-3456
▁artworks	-3457
▁bathroom	-3458
▁channels	-3459
▁database	-3460
▁hardware	-3461
▁pitstops	-3462
▁reviewed	-3463
▁shipment	-3464
▁statuses	-3465
▁studying	-3466
▁together	-3467
▁training	-3468
Accounting	-3469
Authorised	-3470
Instructor	-3471
Statistics	-3472
blockfloor	-3473
▁FirstName	-3474
▁faculties	-3475
▁shipments	-3476
▁suppliers	-3477
▁assessment	-3478
▁attraction	-3479
▁individual	-3480
▁industries	-3481
registration	-3482
▁interaction	-3483
▁denomination	-3484
▁universities	-3485
▁International	-3486
16	-3487
Ap	-3488
PA	-3489
To	-3490
UR	-3491
Un	-3492
py	-3493
yn	-3494
3-1	-3495
ROF	-3496
dom	-3497
els	-3498
ida	-3499
lax	-3500
▁);	-3501
▁80	-3502
▁On	-3503
▁UK	-3504
▁tr	-3505
Pass	-3506
acct	-3507
alls	-3508
ctor	-3509
doll	-3510
full	-3511
hire	-3512
loss	-3513
ritt	-3514
shop	-3515
sure	-3516
umid	-3517
▁112	-3518
▁120	-3519
▁50.	-3520
▁GPA	-3521
▁Wor	-3522
▁bou	-3523
Herbs	-3524
Paper	-3525
actly	-3526
eight	-3527
opies	-3528
skill	-3529
▁100?	-3530
▁King	-3531
▁born	-3532
▁paid	-3533
▁rent	-3534
▁sing	-3535
achers	-3536
asters	-3537
enator	-3538
female	-3539
rental	-3540
ystems	-3541
▁audio	-3542
▁brand	-3543
▁crime	-3544
▁earli	-3545
▁equal	-3546
▁happy	-3547
▁owned	-3548
▁roles	-3549
▁secre	-3550
▁venue	-3551
hibitor	-3552
illions	-3553
payment	-3554
rittany	-3555
umidity	-3556
▁Assets	-3557
▁bought	-3558
▁lesson	-3559
▁manage	-3560
Document	-3561
Football	-3562
Investor	-3563
ferences	-3564
▁Austral	-3565
▁Kingdom	-3566
▁Systems	-3567
▁budgets	-3568
▁exactly	-3569
▁grouped	-3570
▁lessons	-3571
▁reviews	-3572
▁written	-3573
▁Teachers	-3574
▁catalogs	-3575
▁expenses	-3576
▁purchase	-3577
▁useracct	-3578
▁conferred	-3579
▁elections	-3580
▁platforms	-3581
▁secretary	-3582
▁structure	-3583
Participant	-3584
institution	-3585
nationality	-3586
▁Circulation	-3587
▁Maintenance	-3588
▁milliseconds	-3589
Ad	-3590
OF	-3591
Se	-3592
TV	-3593
pi	-3594
▁i	-3595
AMI	-3596
BAL	-3597
CTS	-3598
Del	-3599
Dem	-3600
Mon	-3601
Nok	-3602
PES	-3603
acc	-3604
ago	-3605
cip	-3606
eag	-3607
edu	-3608
ell	-3609
fin	-3610
hav	-3611
isa	-3612
itz	-3613
len	-3614
lin	-3615
not	-3616
pan	-3617
pct	-3618
put	-3619
rea	-3620
ter	-3621
uck	-3622
van	-3623
war	-3624
▁"2	-3625
▁"4	-3626
▁60	-3627
▁Ex	-3628
▁Fe	-3629
▁HS	-3630
▁TV	-3631
▁mp	-3632
Book	-3633
CONV	-3634
Card	-3635
Publ	-3636
Test	-3637
back	-3638
ears	-3639
erty	-3640
itid	-3641
long	-3642
mean	-3643
reas	-3644
sett	-3645
▁"20	-3646
▁195	-3647
▁Cor	-3648
▁Cre	-3649
▁IDs	-3650
▁his	-3651
▁pet	-3652
▁rID	-3653
Close	-3654
David	-3655
Email	-3656
Media	-3657
Nokia	-3658
Polic	-3659
Score	-3660
Taken	-3661
Tests	-3662
White	-3663
asset	-3664
force	-3665
natch	-3666
nders	-3667
press	-3668
useum	-3669
uthor	-3670
▁"199	-3671
▁100.	-3672
▁1998	-3673
▁2003	-3674
▁2011	-3675
▁2016	-3676
▁Book	-3677
▁Days	-3678
▁Fall	-3679
▁Rock	-3680
▁appe	-3681
▁back	-3682
▁done	-3683
▁flno	-3684
▁king	-3685
▁line	-3686
▁only	-3687
▁page	-3688
▁poll	-3689
▁qual	-3690
Carole	-3691
DECONV	-3692
Device	-3693
ERSION	-3694
TypeId	-3695
Walter	-3696
access	-3697
atures	-3698
cities	-3699
coupon	-3700
havior	-3701
idence	-3702
ington	-3703
intern	-3704
lement	-3705
master	-3706
points	-3707
proved	-3708
warded	-3709
weight	-3710
▁80000	-3711
▁Album	-3712
▁Birth	-3713
▁CName	-3714
▁China	-3715
▁LEVEL	-3716
▁PRODU	-3717
▁Start	-3718
▁pName	-3719
▁pages	-3720
▁prote	-3721
▁reach	-3722
▁refer	-3723
▁stage	-3724
▁twice	-3725
-01-01"	-3726
Biology	-3727
acility	-3728
artford	-3729
ccredit	-3730
gineers	-3731
manager	-3732
measure	-3733
reports	-3734
support	-3735
swimmer	-3736
▁Artist	-3737
▁Author	-3738
▁Carole	-3739
▁Corpor	-3740
▁GRAPES	-3741
▁assets	-3742
▁bridge	-3743
▁floors	-3744
▁guests	-3745
▁longer	-3746
▁offers	-3747
▁police	-3748
▁promin	-3749
▁winery	-3750
Columbus	-3751
Policies	-3752
aircraft	-3753
roomName	-3754
sections	-3755
visional	-3756
▁Airport	-3757
▁banking	-3758
▁claimed	-3759
▁debates	-3760
▁monthly	-3761
▁morning	-3762
▁offices	-3763
▁origins	-3764
▁primary	-3765
▁surname	-3766
▁tonnage	-3767
FirstName	-3768
President	-3769
UnitPrice	-3770
architect	-3771
committee	-3772
enrolment	-3773
finitions	-3774
headquart	-3775
publisher	-3776
▁Hometown	-3777
▁INVOICES	-3778
▁Location	-3779
▁PRODUCTS	-3780
▁coasters	-3781
▁invested	-3782
▁laptimes	-3783
▁software	-3784
▁teaching	-3785
assignment	-3786
journalist	-3787
processing	-3788
settlement	-3789
▁Destroyed	-3790
▁GRADECONV	-3791
▁Publisher	-3792
▁committee	-3793
▁engineers	-3794
▁longitude	-3795
▁marketing	-3796
Assignments	-3797
MediaTypeId	-3798
assignments	-3799
gamesplayed	-3800
outstanding	-3801
scholarship	-3802
▁Statements	-3803
▁categories	-3804
▁classrooms	-3805
▁compatible	-3806
▁prescribes	-3807
Milliseconds	-3808
ccreditation	-3809
notification	-3810
▁Corporation	-3811
▁Destruction	-3812
▁constructor	-3813
▁scholarship	-3814
headquartered	-3815
▁Participants	-3816
▁clublocation	-3817
▁GRADECONVERSION	-3818
).	-3819
Ar	-3820
Sh	-3821
ea	-3822
pl	-3823
ta	-3824
Den	-3825
GTH	-3826
Log	-3827
MiB	-3828
NYC	-3829
Num	-3830
RES	-3831
cil	-3832
den	-3833
eve	-3834
ise	-3835
▁2;	-3836
▁32	-3837
▁3;	-3838
▁5.	-3839
▁LA	-3840
▁MA	-3841
eape	-3842
enue	-3843
outh	-3844
▁150	-3845
▁180	-3846
▁And	-3847
▁LEN	-3848
▁lap	-3849
▁new	-3850
▁sch	-3851
▁yes	-3852
ResID	-3853
illed	-3854
kills	-3855
leted	-3856
theme	-3857
thing	-3858
▁4000	-3859
▁Film	-3860
▁Info	-3861
▁Park	-3862
▁aged	-3863
▁beds	-3864
▁fall	-3865
▁stop	-3866
▁this	-3867
Visits	-3868
booked	-3869
eapest	-3870
ouncil	-3871
ration	-3872
screen	-3873
▁Fault	-3874
▁cover	-3875
▁filed	-3876
▁grape	-3877
▁kinds	-3878
▁ranks	-3879
▁tests	-3880
▁Bangla	-3881
▁Famous	-3882
▁LENGTH	-3883
▁advise	-3884
▁availa	-3885
▁booked	-3886
▁except	-3887
▁models	-3888
▁served	-3889
▁starts	-3890
▁taking	-3891
contract	-3892
incident	-3893
▁donator	-3894
▁machine	-3895
▁measure	-3896
▁overall	-3897
Australia	-3898
inhibitor	-3899
struction	-3900
▁Division	-3901
▁bedrooms	-3902
▁cheapest	-3903
▁decision	-3904
▁happened	-3905
▁launched	-3906
▁operated	-3907
▁residents	-3908
Provisional	-3909
▁architects	-3910
▁nomination	-3911
▁prominence	-3912
International	-3913
-3	-3914
64	-3915
An	-3916
By	-3917
CA	-3918
CE	-3919
CO	-3920
CV	-3921
Co	-3922
FA	-3923
HA	-3924
HH	-3925
IA	-3926
IR	-3927
KG	-3928
MI	-3929
OK	-3930
PS	-3931
Ro	-3932
SF	-3933
bo	-3934
cy	-3935
ek	-3936
lu	-3937
rn	-3938
ru	-3939
sy	-3940
xt	-3941
-08	-3942
-12	-3943
0-3	-3944
ALA	-3945
Add	-3946
Bob	-3947
CLA	-3948
Dan	-3949
Deb	-3950
Der	-3951
EMS	-3952
EST	-3953
Goo	-3954
IFA	-3955
Jul	-3956
MAN	-3957
NEB	-3958
OOK	-3959
OTE	-3960
Off	-3961
PEG	-3962
PUR	-3963
Tex	-3964
USD	-3965
WEA	-3966
aco	-3967
ado	-3968
ael	-3969
atw	-3970
ave	-3971
azz	-3972
bba	-3973
cal	-3974
chi	-3975
cra	-3976
eno	-3977
ens	-3978
gle	-3979
hor	-3980
ico	-3981
ied	-3982
ini	-3983
iny	-3984
irm	-3985
ker	-3986
lap	-3987
las	-3988
lex	-3989
lsa	-3990
max	-3991
nta	-3992
odr	-3993
oma	-3994
osc	-3995
ren	-3996
ric	-3997
ski	-3998
tah	-3999
tal	-4000
uch	-4001
uke	-4002
vat	-4003
vil	-4004
▁"8	-4005
▁46	-4006
▁5?	-4007
▁84	-4008
▁85	-4009
▁93	-4010
▁NY	-4011
▁PH	-4012
-220	-4013
5964	-4014
8-06	-4015
8484	-4016
Fast	-4017
Game	-4018
Home	-4019
INGS	-4020
Milk	-4021
OYER	-4022
PROF	-4023
Priv	-4024
SALE	-4025
Till	-4026
Tony	-4027
VOTE	-4028
amie	-4029
aney	-4030
atem	-4031
atry	-4032
cred	-4033
ereq	-4034
erge	-4035
erve	-4036
ewis	-4037
flax	-4038
hori	-4039
iang	-4040
ider	-4041
illa	-4042
ings	-4043
iram	-4044
itut	-4045
join	-4046
lett	-4047
mark	-4048
nick	-4049
onor	-4050
orth	-4051
osco	-4052
oute	-4053
pera	-4054
piad	-4055
puty	-4056
rist	-4057
rown	-4058
rows	-4059
stic	-4060
stin	-4061
task	-4062
ucky	-4063
udie	-4064
ults	-4065
urer	-4066
used	-4067
walk	-4068
week	-4069
work	-4070
▁188	-4071
▁190	-4072
▁193	-4073
▁196	-4074
▁50?	-4075
▁CMI	-4076
▁Cup	-4077
▁Dan	-4078
▁Ern	-4079
▁Med	-4080
▁Mus	-4081
▁NEB	-4082
▁Num	-4083
▁RAM	-4084
▁Sub	-4085
▁Tur	-4086
▁cat	-4087
▁fly	-4088
▁her	-4089
▁iss	-4090
▁tax	-4091
▁win	-4092
-12-2	-4093
340-3	-4094
Balls	-4095
Coach	-4096
Crime	-4097
DName	-4098
IDENT	-4099
ITEMS	-4100
James	-4101
Latte	-4102
Money	-4103
Nancy	-4104
Occup	-4105
Place	-4106
Robin	-4107
Rylan	-4108
Sales	-4109
acros	-4110
activ	-4111
ailed	-4112
album	-4113
amily	-4114
attra	-4115
award	-4116
cherv	-4117
circu	-4118
codes	-4119
cover	-4120
edule	-4121
gress	-4122
hosts	-4123
ianne	-4124
icago	-4125
ients	-4126
ijing	-4127
ineer	-4128
inese	-4129
itzer	-4130
lanta	-4131
login	-4132
movie	-4133
olupt	-4134
onent	-4135
onoma	-4136
riker	-4137
ruber	-4138
shley	-4139
stage	-4140
strid	-4141
sychi	-4142
trade	-4143
ville	-4144
ysics	-4145
▁"200	-4146
▁BOOK	-4147
▁Crew	-4148
▁FIFA	-4149
▁Gall	-4150
▁Gatw	-4151
▁Hill	-4152
▁Host	-4153
▁apid	-4154
▁cell	-4155
▁didn	-4156
▁five	-4157
▁good	-4158
▁hall	-4159
▁hand	-4160
▁kids	-4161
▁milk	-4162
▁mode	-4163
▁pets	-4164
▁swim	-4165
▁take	-4166
▁walk	-4167
605964	-4168
9-09-0	-4169
Approp	-4170
Austin	-4171
ESTORS	-4172
Famous	-4173
Female	-4174
GameID	-4175
Google	-4176
Horses	-4177
Orders	-4178
Volume	-4179
ancini	-4180
apitan	-4181
athrow	-4182
buying	-4183
curred	-4184
deaths	-4185
eaghan	-4186
ending	-4187
entral	-4188
ermany	-4189
ichael	-4190
illage	-4191
ittees	-4192
iulian	-4193
lesson	-4194
modern	-4195
native	-4196
odrick	-4197
prereq	-4198
quired	-4199
ristop	-4200
stores	-4201
ufacte	-4202
uilder	-4203
urgery	-4204
yellow	-4205
▁"1994	-4206
▁1000.	-4207
▁18000	-4208
▁2004?	-4209
▁DName	-4210
▁James	-4211
▁Nancy	-4212
▁Range	-4213
▁Reign	-4214
▁Sales	-4215
▁Tasks	-4216
▁Where	-4217
▁World	-4218
▁agent	-4219
▁award	-4220
▁brows	-4221
▁check	-4222
▁death	-4223
▁estim	-4224
▁heads	-4225
▁hired	-4226
▁notes	-4227
▁offer	-4228
▁owner	-4229
▁parks	-4230
▁serve	-4231
▁works	-4232
AlbumID	-4233
Awarded	-4234
Billion	-4235
Edwards	-4236
Feature	-4237
GenreID	-4238
Jeramie	-4239
Journal	-4240
Morning	-4241
Private	-4242
Regular	-4243
Shipped	-4244
Tillman	-4245
Univers	-4246
acrosse	-4247
chervil	-4248
crastin	-4249
credits	-4250
entucky	-4251
ergrade	-4252
fastest	-4253
ference	-4254
formats	-4255
ielberg	-4256
iuliano	-4257
jobcode	-4258
lerical	-4259
million	-4260
omestic	-4261
ominees	-4262
onsider	-4263
seating	-4264
section	-4265
tourist	-4266
▁Austin	-4267
▁Ernser	-4268
▁Heaney	-4269
▁Office	-4270
▁Orders	-4271
▁Scores	-4272
▁copies	-4273
▁degree	-4274
▁ending	-4275
▁joined	-4276
▁lasted	-4277
▁middle	-4278
▁minute	-4279
▁modern	-4280
▁nurses	-4281
▁spring	-4282
▁yearid	-4283
Appropri	-4284
Bernhard	-4285
Canoeing	-4286
Defender	-4287
Delegate	-4288
Incident	-4289
Kayaking	-4290
Marianne	-4291
Official	-4292
Payments	-4293
RESIDENT	-4294
approved	-4295
calendar	-4296
irmative	-4297
itutions	-4298
lapspeed	-4299
millions	-4300
portName	-4301
reasurer	-4302
▁'1989-0	-4303
▁Biology	-4304
▁Destiny	-4305
▁Edwards	-4306
▁Gallery	-4307
▁Gatwick	-4308
▁INVOICE	-4309
▁Kapitan	-4310
▁Tonnage	-4311
▁builder	-4312
▁cinemas	-4313
▁fastest	-4314
▁follows	-4315
▁genders	-4316
▁handled	-4317
▁heights	-4318
▁produce	-4319
▁reached	-4320
Addresses	-4321
Furniture	-4322
Occupancy	-4323
Suppliers	-4324
Universal	-4325
authorder	-4326
circuitid	-4327
detention	-4328
inventory	-4329
manufacte	-4330
oluptatem	-4331
ssignedTo	-4332
structors	-4333
suppliers	-4334
sychiatry	-4335
▁American	-4336
▁BOOKINGS	-4337
▁Bernhard	-4338
▁Canoeing	-4339
▁Director	-4340
▁Engineer	-4341
▁Governor	-4342
▁Kayaking	-4343
▁Mountain	-4344
▁Starting	-4345
▁certific	-4346
▁creation	-4347
▁earliest	-4348
▁national	-4349
▁nominees	-4350
▁schedule	-4351
▁sections	-4352
▁swimmers	-4353
6059648484	-4354
Additional	-4355
EmployeeId	-4356
University	-4357
attraction	-4358
bandmateid	-4359
completion	-4360
functional	-4361
ufacturers	-4362
▁INVESTORS	-4363
▁LOCATIONS	-4364
▁campusfee	-4365
▁destroyed	-4366
▁detention	-4367
▁reference	-4368
Performance	-4369
individuals	-4370
lettergrade	-4371
▁AssignedTo	-4372
▁Eliminated	-4373
▁Statistics	-4374
▁appelation	-4375
▁committees	-4376
▁decreasing	-4377
▁estimation	-4378
▁management	-4379
DepartmentID	-4380
milliseconds	-4381
▁Elimination	-4382
▁Headquarter	-4383
▁destruction	-4384
▁memberships	-4385
international	-4386
▁Participates	-4387
▁availability	-4388
▁certificates	-4389
▁constructors	-4390
▁institutions	-4391
Appropriations	-4392
▁Accreditation	-4393
▁Manufacturers	-4394
▁nationalities	-4395
▁onscholarship	-4396
▁qualification	-4397
fastestlapspeed	-4398
06	-4399
2?	-4400
33	-4401
Am	-4402
La	-4403
ix	-4404
-11	-4405
Aff	-4406
And	-4407
Ind	-4408
MPU	-4409
OTS	-4410
ham	-4411
lor	-4412
udy	-4413
▁0.	-4414
▁3.	-4415
▁8.	-4416
▁8?	-4417
▁Ar	-4418
▁CO	-4419
▁Ve	-4420
▁go	-4421
▁po	-4422
Init	-4423
Rate	-4424
anny	-4425
ases	-4426
desh	-4427
feet	-4428
ortg	-4429
side	-4430
taly	-4431
ucas	-4432
unit	-4433
▁10?	-4434
▁30.	-4435
▁30?	-4436
▁Lab	-4437
▁ROY	-4438
▁alt	-4439
▁del	-4440
-03-1	-4441
Cross	-4442
Night	-4443
Notes	-4444
Tokyo	-4445
brand	-4446
coach	-4447
icers	-4448
orgia	-4449
rieve	-4450
▁1996	-4451
▁mach	-4452
▁side	-4453
▁spec	-4454
▁then	-4455
Credit	-4456
Engine	-4457
MPUTER	-4458
apital	-4459
camera	-4460
church	-4461
hicles	-4462
lorida	-4463
uccess	-4464
▁1000?	-4465
▁15000	-4466
▁2002?	-4467
▁5000?	-4468
▁Draft	-4469
▁Rylan	-4470
▁Third	-4471
▁Venue	-4472
▁climb	-4473
▁ended	-4474
▁farms	-4475
▁image	-4476
▁lines	-4477
▁lived	-4478
▁occup	-4479
▁round	-4480
▁route	-4481
▁trust	-4482
Initial	-4483
ibility	-4484
monthly	-4485
▁200000	-4486
▁colors	-4487
▁damage	-4488
▁depart	-4489
▁employ	-4490
▁furnit	-4491
▁grants	-4492
▁medals	-4493
▁placed	-4494
▁ranges	-4495
▁single	-4496
▁studio	-4497
▁tutors	-4498
▁venues	-4499
▁worked	-4500
Audience	-4501
▁acceler	-4502
▁advises	-4503
▁airline	-4504
▁earning	-4505
▁managed	-4506
▁methods	-4507
▁parking	-4508
▁profits	-4509
▁protein	-4510
▁settled	-4511
▁tryouts	-4512
Engineers	-4513
▁Heathrow	-4514
▁Retrieve	-4515
▁Vehicles	-4516
▁accredit	-4517
▁altitude	-4518
▁browsers	-4519
▁budgeted	-4520
▁churches	-4521
▁division	-4522
▁machines	-4523
▁openning	-4524
▁reserved	-4525
Attendance	-4526
References	-4527
Tournament	-4528
voluptatem	-4529
▁Spielberg	-4530
▁addressed	-4531
▁belonging	-4532
▁mailshots	-4533
▁ministers	-4534
maintenance	-4535
▁Australian	-4536
▁California	-4537
▁accounting	-4538
▁eliminated	-4539
▁furnitures	-4540
▁certificate	-4541
▁accelerators	-4542
▁publications	-4543
▁reservations	-4544
▁accreditation	-4545
▁prerequisites	-4546
),	-4547
01	-4548
09	-4549
1"	-4550
30	-4551
54	-4552
68	-4553
AS	-4554
BK	-4555
Da	-4556
Em	-4557
FL	-4558
IL	-4559
LG	-4560
NG	-4561
OL	-4562
So	-4563
TE	-4564
bl	-4565
ty	-4566
yl	-4567
zm	-4568
201	-4569
ATE	-4570
Art	-4571
BER	-4572
CID	-4573
CLE	-4574
CTV	-4575
Est	-4576
Fac	-4577
ICE	-4578
RAM	-4579
SEL	-4580
Sch	-4581
Yes	-4582
ama	-4583
ans	-4584
bec	-4585
cen	-4586
dew	-4587
dex	-4588
dob	-4589
eds	-4590
hur	-4591
nau	-4592
ows	-4593
phy	-4594
sen	-4595
sur	-4596
thi	-4597
uly	-4598
uss	-4599
▁02	-4600
▁16	-4601
▁24	-4602
▁33	-4603
▁34	-4604
▁36	-4605
▁56	-4606
▁5;	-4607
▁BK	-4608
▁En	-4609
▁SC	-4610
▁up	-4611
Area	-4612
CCTV	-4613
Cash	-4614
Days	-4615
ENCE	-4616
East	-4617
Emma	-4618
Glen	-4619
Heme	-4620
Male	-4621
Mark	-4622
Mary	-4623
OTOS	-4624
Open	-4625
Palo	-4626
Sony	-4627
Ueno	-4628
chip	-4629
even	-4630
lete	-4631
nsyl	-4632
oles	-4633
osse	-4634
pons	-4635
radu	-4636
ssue	-4637
test	-4638
ther	-4639
uary	-4640
urse	-4641
velo	-4642
wins	-4643
▁(*)	-4644
▁160	-4645
▁20?	-4646
▁90.	-4647
▁Art	-4648
▁Ass	-4649
▁Att	-4650
▁Bob	-4651
▁Det	-4652
▁Dis	-4653
▁MAX	-4654
▁MEM	-4655
▁Mar	-4656
▁Pre	-4657
▁aid	-4658
▁clo	-4659
▁det	-4660
▁dst	-4661
▁fin	-4662
▁our	-4663
▁run	-4664
-800"	-4665
Black	-4666
CName	-4667
Check	-4668
Clara	-4669
Facil	-4670
Glenn	-4671
Green	-4672
Hours	-4673
Ohori	-4674
Orton	-4675
Turon	-4676
Visit	-4677
allow	-4678
atent	-4679
decor	-4680
dults	-4681
erman	-4682
ertzm	-4683
ffect	-4684
forms	-4685
hurst	-4686
ilver	-4687
iness	-4688
jured	-4689
lists	-4690
llars	-4691
olicy	-4692
oming	-4693
orphy	-4694
place	-4695
ponse	-4696
racts	-4697
riter	-4698
rival	-4699
romin	-4700
shops	-4701
ultip	-4702
ussia	-4703
vania	-4704
▁"198	-4705
▁1121	-4706
▁1961	-4707
▁1980	-4708
▁200?	-4709
▁2012	-4710
▁2018	-4711
▁4500	-4712
▁Also	-4713
▁CCTV	-4714
▁Good	-4715
▁July	-4716
▁Mark	-4717
▁Mart	-4718
▁Palo	-4719
▁Sony	-4720
▁Time	-4721
▁cult	-4722
▁four	-4723
▁lead	-4724
▁lens	-4725
▁lots	-4726
▁mate	-4727
▁much	-4728
▁news	-4729
▁prop	-4730
▁same	-4731
▁text	-4732
▁town	-4733
▁vice	-4734
Boeing	-4735
Budget	-4736
Debate	-4737
Deputy	-4738
Master	-4739
Monaco	-4740
Movies	-4741
Public	-4742
Result	-4743
Season	-4744
Steven	-4745
Studio	-4746
Weight	-4747
animal	-4748
assess	-4749
bangla	-4750
became	-4751
celand	-4752
cessed	-4753
charge	-4754
damage	-4755
employ	-4756
footed	-4757
latest	-4758
minute	-4759
mobile	-4760
oppose	-4761
ransit	-4762
report	-4763
stages	-4764
▁"2010	-4765
▁2001?	-4766
▁2005?	-4767
▁2008?	-4768
▁2009?	-4769
▁2016?	-4770
▁30000	-4771
▁Among	-4772
▁Check	-4773
▁Clara	-4774
▁Fosse	-4775
▁Japan	-4776
▁Lewis	-4777
▁MINOR	-4778
▁March	-4779
▁Money	-4780
▁Occup	-4781
▁Orton	-4782
▁STATE	-4783
▁Score	-4784
▁Weeks	-4785
▁Years	-4786
▁bname	-4787
▁floor	-4788
▁forms	-4789
▁given	-4790
▁guest	-4791
▁issue	-4792
▁meter	-4793
▁parts	-4794
▁reign	-4795
▁requi	-4796
English	-4797
Meaghan	-4798
Patient	-4799
Rodrick	-4800
Senator	-4801
Village	-4802
albumid	-4803
allowed	-4804
bedroom	-4805
claimed	-4806
content	-4807
dollars	-4808
overall	-4809
perweek	-4810
surance	-4811
ubjects	-4812
winning	-4813
▁Albums	-4814
▁Boeing	-4815
▁Canada	-4816
▁Kertzm	-4817
▁MEMBER	-4818
▁Movies	-4819
▁PHOTOS	-4820
▁Points	-4821
▁Policy	-4822
▁Region	-4823
▁RoomId	-4824
▁School	-4825
▁Skills	-4826
▁Stores	-4827
▁actual	-4828
▁animal	-4829
▁counts	-4830
▁dormid	-4831
▁during	-4832
▁faults	-4833
▁horses	-4834
▁labels	-4835
▁multip	-4836
▁museum	-4837
▁postal	-4838
▁rented	-4839
Brittany	-4840
Delivery	-4841
Estimate	-4842
Honolulu	-4843
LastName	-4844
Research	-4845
Turcotte	-4846
actories	-4847
allation	-4848
ationals	-4849
bathroom	-4850
ceremony	-4851
employer	-4852
humidity	-4853
iliation	-4854
mountain	-4855
ocations	-4856
ortgages	-4857
research	-4858
services	-4859
velocity	-4860
▁Builder	-4861
▁Founded	-4862
▁Germany	-4863
▁History	-4864
▁Science	-4865
▁coaches	-4866
▁coaster	-4867
▁culture	-4868
▁dollars	-4869
▁entries	-4870
▁granted	-4871
▁injured	-4872
▁minutes	-4873
▁nominee	-4874
▁release	-4875
▁shipped	-4876
▁special	-4877
Americano	-4878
Lamberton	-4879
ashington	-4880
nsylvania	-4881
plication	-4882
rominence	-4883
standings	-4884
struments	-4885
▁Behavior	-4886
▁Computer	-4887
▁Election	-4888
▁Honolulu	-4889
▁Subjects	-4890
▁Turcotte	-4891
▁audience	-4892
▁calendar	-4893
▁ceremony	-4894
▁complete	-4895
▁delegate	-4896
▁delivery	-4897
▁facility	-4898
▁football	-4899
▁governor	-4900
▁includes	-4901
▁revenues	-4902
▁wineries	-4903
Australian	-4904
Democratic	-4905
Enrollment	-4906
Facilities	-4907
Medication	-4908
Midshipman	-4909
Psychology	-4910
medication	-4911
membership	-4912
passengers	-4913
researcher	-4914
▁Attribute	-4915
▁Detention	-4916
▁Kertzmann	-4917
▁Lamberton	-4918
▁Nationals	-4919
▁PRESIDENT	-4920
▁Residence	-4921
▁STATEMENT	-4922
▁accidents	-4923
▁departure	-4924
▁distances	-4925
▁durations	-4926
▁forenames	-4927
▁processed	-4928
▁undergoes	-4929
Definitions	-4930
assessments	-4931
▁Assessment	-4932
▁Enrollment	-4933
▁Lieutenant	-4934
▁Medication	-4935
▁Midshipman	-4936
▁Occupation	-4937
▁Prescribes	-4938
▁Psychology	-4939
▁completion	-4940
▁employment	-4941
▁tracklists	-4942
▁undergoing	-4943
departmentID	-4944
hoursperweek	-4945
▁Comptroller	-4946
▁Instruments	-4947
▁Publication	-4948
▁estimations	-4949
▁Manufacturer	-4950
▁appointments	-4951
▁departmentID	-4952
▁destinations	-4953
▁international	-4954
)?	-4955
3?	-4956
5'	-4957
9?	-4958
Be	-4959
ED	-4960
SU	-4961
Up	-4962
gg	-4963
-19	-4964
Cle	-4965
IAT	-4966
Kim	-4967
Lif	-4968
NTH	-4969
Tax	-4970
ank	-4971
apa	-4972
bad	-4973
bit	-4974
col	-4975
del	-4976
ful	-4977
ict	-4978
ifi	-4979
mph	-4980
ots	-4981
tax	-4982
umm	-4983
xas	-4984
yle	-4985
▁)"	-4986
▁4;	-4987
▁Am	-4988
▁Ap	-4989
▁Go	-4990
▁MO	-4991
▁if	-4992
▁qu	-4993
,000	-4994
6-11	-4995
West	-4996
dees	-4997
erms	-4998
good	-4999
gust	-5000
home	-5001
hour	-5002
izes	-5003
lass	-5004
ocks	-5005
ommo	-5006
oper	-5007
ouis	-5008
oved	-5009
▁1.8	-5010
▁301	-5011
▁40.	-5012
▁800	-5013
▁90?	-5014
▁CSU	-5015
▁Cle	-5016
▁Jun	-5017
▁Pen	-5018
▁UID	-5019
▁USD	-5020
▁fem	-5021
▁len	-5022
▁red	-5023
Birth	-5024
Bosco	-5025
Brown	-5026
Parts	-5027
Texas	-5028
arget	-5029
atter	-5030
cinem	-5031
pende	-5032
photo	-5033
right	-5034
short	-5035
stock	-5036
▁200.	-5037
▁2006	-5038
▁300?	-5039
▁500?	-5040
▁600.	-5041
▁LOTS	-5042
▁brid	-5043
▁come	-5044
▁goal	-5045
▁hold	-5046
▁hour	-5047
▁logs	-5048
▁null	-5049
▁pass	-5050
▁poss	-5051
▁runs	-5052
▁sang	-5053
▁task	-5054
▁vote	-5055
▁wifi	-5056
6-11-1	-5057
Ashley	-5058
ailure	-5059
cinema	-5060
corded	-5061
dollar	-5062
etwork	-5063
floors	-5064
length	-5065
proval	-5066
▁1996?	-5067
▁20000	-5068
▁Class	-5069
▁Donor	-5070
▁Group	-5071
▁MONTH	-5072
▁Parts	-5073
▁Pilot	-5074
▁Store	-5075
▁Texas	-5076
▁Theme	-5077
▁Tokyo	-5078
▁Votes	-5079
▁black	-5080
▁journ	-5081
▁leave	-5082
▁local	-5083
▁mills	-5084
▁night	-5085
▁photo	-5086
▁quant	-5087
▁sizes	-5088
▁terms	-5089
8-06-26	-5090
Beijing	-5091
Denmark	-5092
Indiana	-5093
Upgrade	-5094
founded	-5095
weather	-5096
▁Credit	-5097
▁Steven	-5098
▁Weight	-5099
▁Writer	-5100
▁awards	-5101
▁buying	-5102
▁deaths	-5103
▁images	-5104
▁master	-5105
▁snatch	-5106
▁staffs	-5107
▁stocks	-5108
▁titled	-5109
▁unsure	-5110
▁visits	-5111
▁weekly	-5112
▁within	-5113
Christop	-5114
Colorado	-5115
Hartford	-5116
aracters	-5117
ommodate	-5118
property	-5119
▁Georgia	-5120
▁advised	-5121
▁arrival	-5122
▁bridges	-5123
▁females	-5124
▁nations	-5125
▁premise	-5126
▁receive	-5127
▁section	-5128
▁senator	-5129
▁staying	-5130
▁stories	-5131
▁winning	-5132
Companies	-5133
activitor	-5134
operating	-5135
▁Bookings	-5136
▁Brittany	-5137
▁COMPUTER	-5138
▁Football	-5139
▁Hartford	-5140
▁Kentucky	-5141
▁approval	-5142
▁humidity	-5143
▁journals	-5144
▁managing	-5145
▁millions	-5146
▁occurred	-5147
▁produces	-5148
▁property	-5149
▁resident	-5150
▁tourists	-5151
California	-5152
conference	-5153
ominations	-5154
▁Cancelled	-5155
▁Residents	-5156
▁attendees	-5157
▁bathrooms	-5158
▁contacted	-5159
▁musicians	-5160
▁nicknames	-5161
▁performer	-5162
▁preferred	-5163
▁treatment	-5164
56059648484	-5165
▁Attendance	-5166
▁Membership	-5167
▁authorised	-5168
▁characters	-5169
▁increasing	-5170
▁quantities	-5171
▁accommodate	-5172
▁measurement	-5173
▁outstanding	-5174
▁Pennsylvania	-5175
▁eliminations	-5176
▁interactions	-5177
▁participates	-5178
▁registration	-5179
.4	-5180
.5	-5181
1)	-5182
12	-5183
13	-5184
25	-5185
28	-5186
31	-5187
49	-5188
51	-5189
52	-5190
62	-5191
8"	-5192
90	-5193
96	-5194
99	-5195
AB	-5196
AF	-5197
AI	-5198
AK	-5199
AW	-5200
AY	-5201
As	-5202
BI	-5203
BS	-5204
CP	-5205
CR	-5206
CW	-5207
Cy	-5208
DC	-5209
Ew	-5210
FJ	-5211
GV	-5212
HE	-5213
HR	-5214
LR	-5215
MG	-5216
ML	-5217
OP	-5218
Of	-5219
SN	-5220
SY	-5221
Su	-5222
Sw	-5223
TW	-5224
VD	-5225
We	-5226
ae	-5227
do	-5228
dp	-5229
eu	-5230
fi	-5231
iy	-5232
kb	-5233
nb	-5234
sn	-5235
uk	-5236
uv	-5237
vb	-5238
▁X	-5239
-23	-5240
-24	-5241
AKW	-5242
ARR	-5243
ARY	-5244
AWA	-5245
Aar	-5246
Ack	-5247
Air	-5248
Ala	-5249
BIG	-5250
CAC	-5251
CHI	-5252
CIS	-5253
CTO	-5254
CWS	-5255
Car	-5256
Cho	-5257
Cut	-5258
Cyt	-5259
Dup	-5260
ECR	-5261
Eli	-5262
FJA	-5263
Fin	-5264
Fla	-5265
For	-5266
GRA	-5267
Gym	-5268
HOU	-5269
Har	-5270
Hum	-5271
INA	-5272
IRK	-5273
IRP	-5274
Ite	-5275
Jan	-5276
Kne	-5277
LEY	-5278
Led	-5279
Mat	-5280
Mob	-5281
Mur	-5282
NYY	-5283
Nan	-5284
ORT	-5285
PCP	-5286
Pac	-5287
Per	-5288
Pop	-5289
RAD	-5290
RIS	-5291
ROT	-5292
Red	-5293
Sex	-5294
Sig	-5295
Tai	-5296
Teq	-5297
Tho	-5298
Tok	-5299
Ats	-5300
Feb	-5301
HHH	-5302
HKG	-5303
Roy	-5304
SMA	-5305
THA	-5306
Tri	-5307
ULL	-5308
VIN	-5309
ait	-5310
alg	-5311
amb	-5312
ams	-5313
amu	-5314
atn	-5315
aug	-5316
aut	-5317
avp	-5318
ban	-5319
bia	-5320
box	-5321
bra	-5322
cel	-5323
che	-5324
clo	-5325
dam	-5326
dar	-5327
ecl	-5328
edy	-5329
eel	-5330
elg	-5331
elp	-5332
emy	-5333
eni	-5334
enj	-5335
ese	-5336
esk	-5337
ext	-5338
fan	-5339
fgh	-5340
fur	-5341
gue	-5342
hai	-5343
hea	-5344
hej	-5345
hou	-5346
ibb	-5347
ica	-5348
ift	-5349
ipt	-5350
isg	-5351
key	-5352
ldw	-5353
lyn	-5354
mon	-5355
nis	-5356
now	-5357
ohu	-5358
oka	-5359
ona	-5360
osh	-5361
ple	-5362
quo	-5363
rau	-5364
ray	-5365
rem	-5366
rep	-5367
ria	-5368
riz	-5369
rum	-5370
sea	-5371
ska	-5372
tev	-5373
tot	-5374
try	-5375
uba	-5376
uhi	-5377
umf	-5378
und	-5379
ung	-5380
unk	-5381
uto	-5382
uzz	-5383
wan	-5384
xon	-5385
▁"0	-5386
▁"9	-5387
▁13	-5388
▁2?	-5389
▁31	-5390
▁35	-5391
▁42	-5392
▁63	-5393
▁Bi	-5394
▁Cl	-5395
▁El	-5396
▁Kn	-5397
▁Ox	-5398
▁RO	-5399
ABO	-5400
AIB	-5401
UNG	-5402
▁Se	-5403
▁Sw	-5404
▁TO	-5405
▁We	-5406
▁fe	-5407
▁je	-5408
▁so	-5409
▁sy	-5410
▁ye	-5411
-05'	-5412
1896	-5413
3-16	-5414
4-24	-5415
5-08	-5416
6-08	-5417
Alex	-5418
Amal	-5419
Arip	-5420
Bern	-5421
Best	-5422
Bill	-5423
Bind	-5424
Bren	-5425
CODE	-5426
Call	-5427
Cath	-5428
Cong	-5429
Cows	-5430
Dest	-5431
Duke	-5432
Dumm	-5433
EROM	-5434
Ebba	-5435
Elsa	-5436
Eric	-5437
Fate	-5438
Flat	-5439
Full	-5440
Hand	-5441
Jask	-5442
Jazz	-5443
Kars	-5444
Kats	-5445
Kyle	-5446
Lang	-5447
Last	-5448
Life	-5449
MPEG	-5450
Math	-5451
Mike	-5452
Move	-5453
Noel	-5454
ORIA	-5455
OTHA	-5456
Olin	-5457
Play	-5458
Prim	-5459
Prof	-5460
Rain	-5461
SWEA	-5462
Sois	-5463
Span	-5464
Stay	-5465
Taiz	-5466
Temp	-5467
Trac	-5468
UCLA	-5469
Utah	-5470
VICE	-5471
Ward	-5472
Yale	-5473
acey	-5474
acks	-5475
adic	-5476
ahan	-5477
aily	-5478
aler	-5479
alon	-5480
alta	-5481
amin	-5482
anda	-5483
andw	-5484
ange	-5485
anie	-5486
anne	-5487
anto	-5488
arah	-5489
ardo	-5490
atin	-5491
aton	-5492
ayam	-5493
ayur	-5494
bert	-5495
bury	-5496
call	-5497
came	-5498
catn	-5499
cEw	-5500
Item	-5501
Knee	-5502
cell	-5503
ches	-5504
cise	-5505
cour	-5506
desc	-5507
done	-5508
ecre	-5509
elic	-5510
ency	-5511
erey	-5512
eros	-5513
esis	-5514
eter	-5515
ewal	-5516
eyer	-5517
fame	-5518
fast	-5519
fiel	-5520
file	-5521
flno	-5522
fort	-5523
furt	-5524
gent	-5525
hold	-5526
hoon	-5527
iams	-5528
iber	-5529
ichi	-5530
icho	-5531
ield	-5532
ieme	-5533
iest	-5534
ilie	-5535
imon	-5536
inez	-5537
ison	-5538
isul	-5539
itty	-5540
iyah	-5541
ized	-5542
lann	-5543
lead	-5544
leet	-5545
left	-5546
lena	-5547
lied	-5548
ling	-5549
loan	-5550
lume	-5551
made	-5552
mani	-5553
ming	-5554
mont	-5555
mpor	-5556
mson	-5557
nson	-5558
nual	-5559
ogis	-5560
olie	-5561
olls	-5562
onie	-5563
onym	-5564
oriz	-5565
osal	-5566
oser	-5567
osol	-5568
paid	-5569
rack	-5570
rami	-5571
reet	-5572
rich	-5573
ried	-5574
rine	-5575
ring	-5576
roid	-5577
rums	-5578
sint	-5579
slow	-5580
stop	-5581
ters	-5582
thes	-5583
uels	-5584
urel	-5585
uruv	-5586
usan	-5587
ushi	-5588
warm	-5589
word	-5590
wrau	-5591
yley	-5592
▁"12	-5593
▁"33	-5594
▁"34	-5595
▁"5"	-5596
▁'1'	-5597
▁-50	-5598
▁108	-5599
▁121	-5600
▁140	-5601
▁220	-5602
▁268	-5603
▁3.8	-5604
▁30)	-5605
▁40)	-5606
▁400	-5607
▁520	-5608
▁634	-5609
▁900	-5610
▁Bar	-5611
▁CHI	-5612
▁CIS	-5613
▁CRS	-5614
▁Cob	-5615
▁Der	-5616
▁Dor	-5617
▁HKG	-5618
▁MED	-5619
▁Mem	-5620
▁Oct	-5621
▁Ott	-5622
▁POL	-5623
▁Par	-5624
▁Rag	-5625
▁Rog	-5626
▁SCI	-5627
▁SSN	-5628
▁Squ	-5629
▁Tai	-5630
▁Tal	-5631
▁The	-5632
▁USA	-5633
▁Unb	-5634
▁Wid	-5635
▁You	-5636
▁cho	-5637
▁dem	-5638
▁dew	-5639
▁dri	-5640
▁inn	-5641
▁mem	-5642
▁mov	-5643
▁num	-5644
▁pay	-5645
▁pop	-5646
▁sea	-5647
▁src	-5648
▁ssn	-5649
▁tot	-5650
▁val	-5651
▁vis	-5652
▁vot	-5653
▁you	-5654
-211"	-5655
-220'	-5656
-261'	-5657
AMIEN	-5658
ARROT	-5659
Aaron	-5660
Brand	-5661
CACHE	-5662
CHSEL	-5663
CLASS	-5664
Cards	-5665
Congl	-5666
DLOCK	-5667
Davis	-5668
Deliv	-5669
Demon	-5670
Dummy	-5671
ECRET	-5672
EROME	-5673
Eliot	-5674
FNAME	-5675
Fault	-5676
Flash	-5677
GRAPE	-5678
Gname	-5679
Gross	-5680
Human	-5681
Italy	-5682
Julio	-5683
LNAME	-5684
Lucas	-5685
MOYER	-5686
Major	-5687
Marry	-5688
Mobil	-5689
Music	-5690
North	-5691
ORDON	-5692
Opera	-5693
Proof	-5694
RISSY	-5695
Right	-5696
Roles	-5697
Royal	-5698
Scann	-5699
Seeds	-5700
Sigma	-5701
Spain	-5702
Speed	-5703
Stage	-5704
State	-5705
Steph	-5706
Study	-5707
Stuid	-5708
Suite	-5709
Teqno	-5710
Thing	-5711
Thomp	-5712
Tracy	-5713
UNGER	-5714
Value	-5715
Years	-5716
achel	-5717
advan	-5718
alays	-5719
ameon	-5720
amian	-5721
amuel	-5722
anama	-5723
anist	-5724
anley	-5725
antom	-5726
areas	-5727
arily	-5728
arker	-5729
arles	-5730
arton	-5731
aside	-5732
asonm	-5733
avant	-5734
bania	-5735
berto	-5736
board	-5737
braer	-5738
cEwen	-5739
celle	-5740
cenes	-5741
cipit	-5742
court	-5743
enius	-5744
ennai	-5745
ensus	-5746
enton	-5747
euros	-5748
ganda	-5749
gmail	-5750
holic	-5751
hotel	-5752
ieber	-5753
ience	-5754
infan	-5755
inson	-5756
ipraz	-5757
irich	-5758
ively	-5759
ivian	-5760
ledge	-5761
liens	-5762
lling	-5763
loser	-5764
luisg	-5765
lyson	-5766
major	-5767
media	-5768
meida	-5769
miles	-5770
moved	-5771
naugh	-5772
notes	-5773
nurse	-5774
ohler	-5775
olski	-5776
omnis	-5777
ontal	-5778
orgor	-5779
oring	-5780
oroka	-5781
osome	-5782
ounds	-5783
owner	-5784
pride	-5785
rague	-5786
razil	-5787
rears	-5788
rency	-5789
ricks	-5790
rince	-5791
roffe	-5792
route	-5793
sales	-5794
thias	-5795
uardo	-5796
ublin	-5797
uding	-5798
uhiro	-5799
uting	-5800
valid	-5801
vatar	-5802
▁"600	-5803
▁0.99	-5804
▁1004	-5805
▁1885	-5806
▁1890	-5807
▁1928	-5808
▁1935	-5809
▁1958	-5810
▁1959	-5811
▁1960	-5812
▁1985	-5813
▁1995	-5814
▁2425	-5815
▁30.3	-5816
▁300.	-5817
▁500.	-5818
▁5600	-5819
▁600?	-5820
▁841)	-5821
▁9000	-5822
▁9400	-5823
▁Anth	-5824
▁Area	-5825
▁Call	-5826
▁Card	-5827
▁Cres	-5828
▁DEPT	-5829
▁Daug	-5830
▁Desk	-5831
▁Duke	-5832
▁East	-5833
▁Ebba	-5834
▁Elsa	-5835
▁Fast	-5836
▁From	-5837
▁Geov	-5838
▁Gold	-5839
▁Hamb	-5840
▁Home	-5841
▁Kait	-5842
▁Kenn	-5843
▁Kiss	-5844
▁Labs	-5845
▁Live	-5846
▁MPEG	-5847
▁Mary	-5848
▁Mass	-5849
▁Meet	-5850
▁NULL	-5851
▁OTHA	-5852
▁Pain	-5853
▁Puzz	-5854
▁ROOF	-5855
▁STOP	-5856
▁SWEA	-5857
▁Shea	-5858
▁Ship	-5859
▁Type	-5860
▁UCLA	-5861
▁Utah	-5862
▁Will	-5863
▁Wind	-5864
▁Wing	-5865
▁Wood	-5866
▁call	-5867
▁case	-5868
▁defi	-5869
▁fame	-5870
▁help	-5871
▁info	-5872
▁loss	-5873
▁masc	-5874
▁next	-5875
▁past	-5876
▁pict	-5877
▁read	-5878
▁sung	-5879
▁supp	-5880
ARRING	-5881
Acknow	-5882
Airbus	-5883
Armani	-5884
Astrid	-5885
Bangla	-5886
Bernie	-5887
Cancel	-5888
Chocol	-5889
DERSMA	-5890
Deaths	-5891
Duplex	-5892
Family	-5893
Faults	-5894
German	-5895
Govern	-5896
Gruber	-5897
Howard	-5898
IATYPE	-5899
IRPORT	-5900
Jeremy	-5901
Karson	-5902
Launch	-5903
Matter	-5904
Maudie	-5905
Metall	-5906
Mobile	-5907
Murray	-5908
Museum	-5909
Orange	-5910
Patent	-5911
Played	-5912
ROMLEY	-5913
Rating	-5914
Russia	-5915
Scores	-5916
Second	-5917
Silver	-5918
Sonoma	-5919
Subway	-5920
Temple	-5921
Tokohu	-5922
Triumf	-5923
VELINA	-5924
Winery	-5925
ackson	-5926
algary	-5927
amplin	-5928
andler	-5929
anghai	-5930
arding	-5931
aryAff	-5932
atters	-5933
avpils	-5934
catnip	-5935
ctible	-5936
ctoral	-5937
doctor	-5938
ecluse	-5939
editor	-5940
eeling	-5941
eeters	-5942
elgium	-5943
elicia	-5944
enrico	-5945
ercise	-5946
esisin	-5947
family	-5948
follow	-5949
formed	-5950
gative	-5951
hooner	-5952
iangsu	-5953
ibbons	-5954
iberal	-5955
inches	-5956
lanche	-5957
lanned	-5958
laurel	-5959
ldwide	-5960
leader	-5961
middle	-5962
monton	-5963
nthase	-5964
ockman	-5965
ohnson	-5966
ometry	-5967
omingo	-5968
onents	-5969
onesia	-5970
oupons	-5971
ponsor	-5972
ractic	-5973
raised	-5974
rander	-5975
raztev	-5976
rizona	-5977
saving	-5978
scribe	-5979
senior	-5980
stored	-5981
vbogis	-5982
ysanne	-5983
▁"600"	-5984
▁10018	-5985
▁1990.	-5986
▁1995?	-5987
▁2000;	-5988
▁2004.	-5989
▁3000.	-5990
▁42000	-5991
▁90000	-5992
▁93000	-5993
▁BLOCK	-5994
▁Beach	-5995
▁Biale	-5996
▁Crime	-5997
▁Email	-5998
▁Event	-5999
▁First	-6000
▁Genre	-6001
▁Issue	-6002
▁Jones	-6003
▁Kitty	-6004
▁Latte	-6005
▁MOYER	-6006
▁Meyer	-6007
▁Music	-6008
▁North	-6009
▁Opera	-6010
▁Other	-6011
▁Phone	-6012
▁Spain	-6013
▁Stuid	-6014
▁Track	-6015
▁Visit	-6016
▁Young	-6017
▁based	-6018
▁chain	-6019
▁chrom	-6020
▁costs	-6021
▁daily	-6022
▁enter	-6023
▁flags	-6024
▁flied	-6025
▁jeans	-6026
▁press	-6027
▁right	-6028
▁seats	-6029
▁skill	-6030
▁spend	-6031
▁stops	-6032
▁table	-6033
▁tasks	-6034
▁third	-6035
▁tried	-6036
▁valid	-6037
-01-01?	-6038
-12-25"	-6039
5-08-23	-6040
6-08-26	-6041
9-09-03	-6042
ARROTTE	-6043
Atlanta	-6044
Atsushi	-6045
Binders	-6046
Brenden	-6047
Carrier	-6048
Central	-6049
Chicago	-6050
Chinese	-6051
Cytosol	-6052
Deleted	-6053
Finance	-6054
Florida	-6055
Goodwin	-6056
Handful	-6057
Iceland	-6058
Langosh	-6059
Manager	-6060
Mancini	-6061
Michael	-6062
Monadic	-6063
Nanjing	-6064
Packing	-6065
Pending	-6066
Percent	-6067
Physics	-6068
Program	-6069
Regions	-6070
Release	-6071
ResType	-6072
Scanner	-6073
Spanish	-6074
Surgery	-6075
Taizhou	-6076
Transit	-6077
alaysia	-6078
andwich	-6079
anistan	-6080
annyton	-6081
cipline	-6082
council	-6083
embraer	-6084
enjamin	-6085
ergenth	-6086
feature	-6087
fielder	-6088
gentina	-6089
hanewal	-6090
hejiang	-6091
icholas	-6092
leasonm	-6093
locaton	-6094
monahan	-6095
mporary	-6096
omerate	-6097
onterey	-6098
onymous	-6099
osalind	-6100
pendent	-6101
raduate	-6102
sterdam	-6103
striker	-6104
typical	-6105
upplied	-6106
urrency	-6107
▁10000?	-6108
▁120000	-6109
▁140000	-6110
▁Airbus	-6111
▁Annual	-6112
▁Astrid	-6113
▁Before	-6114
▁Device	-6115
▁Dorian	-6116
▁Gruber	-6117
▁Helena	-6118
▁Julian	-6119
▁Knolls	-6120
▁Memory	-6121
▁Orange	-6122
▁Oxford	-6123
▁Reader	-6124
▁Regist	-6125
▁Rogers	-6126
▁SECRET	-6127
▁Samuel	-6128
▁Scenes	-6129
▁Sonoma	-6130
▁Square	-6131
▁Subway	-6132
▁Talent	-6133
▁adults	-6134
▁became	-6135
▁billed	-6136
▁birthd	-6137
▁effect	-6138
▁forces	-6139
▁gameid	-6140
▁govern	-6141
▁lenses	-6142
▁logged	-6143
▁online	-6144
▁owners	-6145
▁porphy	-6146
▁raceId	-6147
▁raceid	-6148
▁reigns	-6149
▁series	-6150
▁speeds	-6151
▁stored	-6152
▁submit	-6153
▁values	-6154
▁voting	-6155
340-300"	-6156
8-06-26"	-6157
9-09-03"	-6158
CACHEbox	-6159
Catholic	-6160
Cathrine	-6161
Clerical	-6162
Columbia	-6163
Database	-6164
Expenses	-6165
Features	-6166
Friendly	-6167
Giuliano	-6168
Governor	-6169
Homenick	-6170
Lacrosse	-6171
Matthias	-6172
Medhurst	-6173
Nameless	-6174
Progress	-6175
Republic	-6176
Robinson	-6177
Smithson	-6178
Soisalon	-6179
Thompson	-6180
advanced	-6181
aterbury	-6182
budgeted	-6183
database	-6184
ecretary	-6185
erosmith	-6186
facility	-6187
ffington	-6188
gramming	-6189
ifferent	-6190
infandel	-6191
iprazole	-6192
iramichi	-6193
keyboard	-6194
officers	-6195
orgoroth	-6196
pressure	-6197
purchase	-6198
revision	-6199
shipment	-6200
tracking	-6201
uruvayur	-6202
workshop	-6203
xonMobil	-6204
▁1000000	-6205
▁4500000	-6206
▁5000000	-6207
▁Anthony	-6208
▁Atlanta	-6209
▁COURSES	-6210
▁Central	-6211
▁CheckIn	-6212
▁Chicago	-6213
▁Chinese	-6214
▁Clients	-6215
▁Dinning	-6216
▁Display	-6217
▁Domingo	-6218
▁Elnaugh	-6219
▁Express	-6220
▁Failure	-6221
▁Filming	-6222
▁Goldner	-6223
▁Goodwin	-6224
▁Hamburg	-6225
▁Injured	-6226
▁Jackson	-6227
▁Jiangsu	-6228
▁Kaitlyn	-6229
▁Kennedy	-6230
▁Manager	-6231
▁Mancini	-6232
▁Meeting	-6233
▁Michael	-6234
▁Musical	-6235
▁Ottilie	-6236
▁POLLOCK	-6237
▁Parkway	-6238
▁Pending	-6239
▁Phantom	-6240
▁Physics	-6241
▁Profess	-6242
▁ResName	-6243
▁SCIENCE	-6244
▁Spitzer	-6245
▁Stories	-6246
▁Surgery	-6247
▁Unbound	-6248
▁Vincent	-6249
▁Winning	-6250
▁bedtype	-6251
▁carrier	-6252
▁checked	-6253
▁clients	-6254
▁climbed	-6255
▁content	-6256
▁council	-6257
▁expense	-6258
▁feature	-6259
▁goalies	-6260
▁persons	-6261
▁picture	-6262
▁practic	-6263
▁present	-6264
▁receipt	-6265
▁replace	-6266
▁require	-6267
▁seasons	-6268
▁shorter	-6269
▁singers	-6270
▁someone	-6271
▁striker	-6272
▁success	-6273
▁tallest	-6274
▁tweeted	-6275
Chocolate	-6276
Contracts	-6277
Delivered	-6278
Headquart	-6279
Jaskolski	-6280
Katsuhiro	-6281
Metallica	-6282
Mortgages	-6283
Physician	-6284
RODUCTION	-6285
SportName	-6286
Stephanie	-6287
Teqnology	-6288
Treasurer	-6289
Triumfall	-6290
amianfort	-6291
ationship	-6292
authority	-6293
complaint	-6294
elevation	-6295
followers	-6296
isulpride	-6297
itzerland	-6298
ledgement	-6299
orizontal	-6300
ouisville	-6301
platforms	-6302
raztevski	-6303
vbogisich	-6304
▁24251896	-6305
▁Clerical	-6306
▁Crescent	-6307
▁Database	-6308
▁Defender	-6309
▁Delegate	-6310
▁Derricks	-6311
▁Duration	-6312
▁Features	-6313
▁Geometry	-6314
▁Giuliano	-6315
▁Hardware	-6316
▁Homenick	-6317
▁Junction	-6318
▁Lacrosse	-6319
▁Martinez	-6320
▁Painless	-6321
▁Progress	-6322
▁Puzzling	-6323
▁Resource	-6324
▁Response	-6325
▁Smithson	-6326
▁Widenius	-6327
▁Williams	-6328
▁Wrestler	-6329
▁allergic	-6330
▁artistid	-6331
▁behavior	-6332
▁clubdesc	-6333
▁composer	-6334
▁consider	-6335
▁contents	-6336
▁defiance	-6337
▁detailed	-6338
▁donation	-6339
▁driverid	-6340
▁followed	-6341
▁majoring	-6342
▁password	-6343
▁pressure	-6344
▁recorded	-6345
▁schooner	-6346
▁standing	-6347
▁supplied	-6348
▁synthase	-6349
▁tracking	-6350
▁velocity	-6351
▁weddings	-6352
Bangladesh	-6353
Functional	-6354
Government	-6355
Lieutenant	-6356
MasterCard	-6357
Procrastin	-6358
Psychiatry	-6359
Republican	-6360
Washington	-6361
cipitation	-6362
eliciaberg	-6363
fghanistan	-6364
instrument	-6365
ockmanfurt	-6366
raditional	-6367
references	-6368
statistics	-6369
structorid	-6370
visibility	-6371
▁Amsterdam	-6372
▁Australia	-6373
▁CUSTOMERS	-6374
▁Character	-6375
▁Computing	-6376
▁Insurance	-6377
▁Locations	-6378
▁MEDIATYPE	-6379
▁President	-6380
▁SECRETARY	-6381
▁SportName	-6382
▁Woodroffe	-6383
▁blockcode	-6384
▁frequency	-6385
▁governors	-6386
▁porphyria	-6387
▁prescribe	-6388
▁primarily	-6389
▁purchases	-6390
▁regarding	-6391
▁residence	-6392
▁treasurer	-6393
Headquarter	-6394
enrollments	-6395
ergenthaler	-6396
ifferential	-6397
leasonmouth	-6398
▁1989-09-03	-6399
▁Accounting	-6400
▁Daugavpils	-6401
▁Department	-6402
▁Procrastin	-6403
▁Professors	-6404
▁Prominence	-6405
▁Psychiatry	-6406
▁Submission	-6407
▁accessible	-6408
▁chromosome	-6409
▁components	-6410
▁democratic	-6411
▁discipline	-6412
▁functional	-6413
▁occupation	-6414
▁prescribed	-6415
▁processing	-6416
▁researcher	-6417
▁statements	-6418
▁statistics	-6419
Aripiprazole	-6420
Conglomerate	-6421
Transactions	-6422
maxOccupancy	-6423
▁'1986-08-26	-6424
▁'1989-03-16	-6425
▁'1989-04-24	-6426
▁'2005-08-23	-6427
▁Geovannyton	-6428
▁Julianaside	-6429
▁Programming	-6430
▁affirmative	-6431
▁attendances	-6432
▁circulation	-6433
▁comptroller	-6434
▁definitions	-6435
▁maintenance	-6436
▁medications	-6437
▁multiplayer	-6438
▁percentages	-6439
▁populations	-6440
▁releasedate	-6441
560596484842"	-6442
StagePosition	-6443
constructorid	-6444
▁"1989-09-03"	-6445
▁Registration	-6446
▁installation	-6447
▁maxOccupancy	-6448
▁notification	-6449
▁relationship	-6450
aryAffiliation	-6451
▁constructorid	-6452
▁denominations	-6453
▁organisations	-6454
▁participating	-6455
Acknowledgement	-6456
▁Representative	-6457
▁"4560596484842"	-6458
▁driverstandings	-6459
",	-6460
."	-6461
1,	-6462
cm	-6463
hn	-6464
%";	-6465
-04	-6466
.5?	-6467
1"?	-6468
20'	-6469
209	-6470
AAC	-6471
ACY	-6472
Dec	-6473
Fix	-6474
Lab	-6475
Oil	-6476
Spe	-6477
The	-6478
Uni	-6479
Win	-6480
air	-6481
cop	-6482
don	-6483
eny	-6484
gae	-6485
ggs	-6486
inj	-6487
ino	-6488
url	-6489
xic	-6490
you	-6491
▁00	-6492
▁2.	-6493
▁3?	-6494
▁99	-6495
▁Au	-6496
▁FL	-6497
▁IL	-6498
▁Le	-6499
▁Of	-6500
▁ca	-6501
▁su	-6502
-22"	-6503
-26?	-6504
-800	-6505
1031	-6506
2016	-6507
3-04	-6508
60";	-6509
Doll	-6510
Econ	-6511
Lake	-6512
Long	-6513
OMIM	-6514
Punk	-6515
Rank	-6516
Text	-6517
USPS	-6518
Visa	-6519
able	-6520
ares	-6521
atio	-6522
body	-6523
born	-6524
cing	-6525
copy	-6526
curs	-6527
ined	-6528
love	-6529
omic	-6530
prem	-6531
prox	-6532
rave	-6533
rote	-6534
utor	-6535
wind	-6536
▁102	-6537
▁109	-6538
▁110	-6539
▁15?	-6540
▁185	-6541
▁18?	-6542
▁21,	-6543
▁25.	-6544
▁255	-6545
▁25?	-6546
▁32.	-6547
▁80?	-6548
▁85.	-6549
▁CON	-6550
▁Del	-6551
▁Kim	-6552
▁NYC	-6553
▁ben	-6554
▁fix	-6555
▁pla	-6556
▁ste	-6557
▁sup	-6558
▁wid	-6559
▁yet	-6560
-06-2	-6561
-261?	-6562
Apple	-6563
Class	-6564
Donor	-6565
Drama	-6566
Orbit	-6567
Peter	-6568
Ryley	-6569
Santo	-6570
Simon	-6571
Spent	-6572
adian	-6573
allax	-6574
drums	-6575
espan	-6576
field	-6577
fully	-6578
ished	-6579
ixels	-6580
lanes	-6581
local	-6582
panic	-6583
rough	-6584
since	-6585
urden	-6586
xicog	-6587
years	-6588
▁102.	-6589
▁111.	-6590
▁111?	-6591
▁1880	-6592
▁1900	-6593
▁1956	-6594
▁2015	-6595
▁301?	-6596
▁800?	-6597
▁841?	-6598
▁900.	-6599
▁900?	-6600
▁Jazz	-6601
▁Join	-6602
▁Math	-6603
▁Oper	-6604
▁PROF	-6605
▁USPS	-6606
▁Visa	-6607
▁atte	-6608
▁bats	-6609
▁feet	-6610
▁gold	-6611
▁move	-6612
▁rock	-6613
▁serv	-6614
▁span	-6615
▁tell	-6616
▁ties	-6617
▁ways	-6618
▁wind	-6619
▁york	-6620
-03-15	-6621
Aliens	-6622
Copies	-6623
Dollar	-6624
HUNGER	-6625
Harold	-6626
Labour	-6627
Mailed	-6628
McEwen	-6629
Rachel	-6630
Reggae	-6631
TERACY	-6632
Things	-6633
acting	-6634
corpor	-6635
ically	-6636
injury	-6637
resses	-6638
target	-6639
▁'1031	-6640
▁'2016	-6641
▁13000	-6642
▁1989.	-6643
▁1989?	-6644
▁2000,	-6645
▁2003?	-6646
▁2006?	-6647
▁2008.	-6648
▁2009.	-6649
▁2016.	-6650
▁5000.	-6651
▁Balls	-6652
▁Black	-6653
▁Bosco	-6654
▁Brown	-6655
▁Color	-6656
▁Italy	-6657
▁Lucas	-6658
▁Model	-6659
▁South	-6660
▁Study	-6661
▁Timed	-6662
▁drive	-6663
▁exper	-6664
▁fates	-6665
▁fewer	-6666
▁force	-6667
▁goods	-6668
▁haven	-6669
▁later	-6670
▁males	-6671
▁month	-6672
▁moves	-6673
▁payed	-6674
▁ratio	-6675
▁taxes	-6676
▁trave	-6677
▁tutor	-6678
▁wrote	-6679
3-04-19	-6680
AIRPORT	-6681
Advisor	-6682
Android	-6683
England	-6684
Ranking	-6685
Recluse	-6686
ResName	-6687
Sponsor	-6688
Success	-6689
Uniform	-6690
airport	-6691
donator	-6692
imately	-6693
usiness	-6694
▁12000?	-6695
▁Ashley	-6696
▁August	-6697
▁Cobham	-6698
▁Things	-6699
▁acting	-6700
▁affect	-6701
▁approx	-6702
▁certif	-6703
▁differ	-6704
▁doctor	-6705
▁donors	-6706
▁earned	-6707
▁formed	-6708
▁leader	-6709
▁mascot	-6710
▁native	-6711
▁occurs	-6712
▁places	-6713
▁reserv	-6714
▁shares	-6715
▁showed	-6716
▁stayed	-6717
▁string	-6718
▁suffer	-6719
8-06-26?	-6720
Benjamin	-6721
Cleavant	-6722
Economic	-6723
Kentucky	-6724
Nicholas	-6725
Required	-6726
Shanghai	-6727
affected	-6728
billions	-6729
lectoral	-6730
▁2000000	-6731
▁Address	-6732
▁Artwork	-6733
▁Beijing	-6734
▁Denmark	-6735
▁Florida	-6736
▁Matters	-6737
▁ResType	-6738
▁appears	-6739
▁biggest	-6740
▁capital	-6741
▁earlier	-6742
▁joining	-6743
▁lexicog	-6744
▁network	-6745
▁provide	-6746
▁ranking	-6747
▁regular	-6748
▁science	-6749
▁showing	-6750
▁steered	-6751
▁through	-6752
▁visitor	-6753
▁weights	-6754
▁writers	-6755
Completed	-6756
Component	-6757
Factories	-6758
Gorgoroth	-6759
Guruvayur	-6760
Miramichi	-6761
Published	-6762
ResTypeID	-6763
component	-6764
idfielder	-6765
▁Christop	-6766
▁Colorado	-6767
▁Delivery	-6768
▁Domestic	-6769
▁Festival	-6770
▁LITERACY	-6771
▁Parallax	-6772
▁accepted	-6773
▁appeared	-6774
▁birthday	-6775
▁business	-6776
▁computer	-6777
▁contract	-6778
▁domestic	-6779
▁included	-6780
▁incurred	-6781
▁minoring	-6782
▁missions	-6783
▁officers	-6784
▁platform	-6785
▁proteins	-6786
▁traveled	-6787
Blackville	-6788
corporated	-6789
ollectible	-6790
▁1986-11-1	-6791
▁Operating	-6792
▁attending	-6793
▁authority	-6794
▁authorize	-6795
▁birthdays	-6796
▁certified	-6797
▁dependent	-6798
▁everybody	-6799
▁factories	-6800
▁financial	-6801
▁incidents	-6802
▁operating	-6803
▁partition	-6804
▁presently	-6805
▁procedure	-6806
▁producing	-6807
▁workshops	-6808
Affirmative	-6809
Amisulpride	-6810
Transaction	-6811
▁Bangladesh	-6812
▁chargeable	-6813
▁conference	-6814
▁difference	-6815
▁practicing	-6816
▁ratingDate	-6817
▁tournament	-6818
▁visibility	-6819
Mergenthaler	-6820
▁'2003-04-19	-6821
▁'2016-03-15	-6822
▁Application	-6823
▁Information	-6824
▁application	-6825
▁lexicograph	-6826
▁replacement	-6827
▁reservation	-6828
▁456059648484	-6829
▁successfully	-6830
▁approximately	-6831
',	-6832
))	-6833
3)	-6834
AG	-6835
AP	-6836
BJ	-6837
CY	-6838
DO	-6839
Dr	-6840
Fa	-6841
Ge	-6842
Gr	-6843
HL	-6844
HO	-6845
Ha	-6846
Ko	-6847
LY	-6848
Ly	-6849
MK	-6850
NS	-6851
Ne	-6852
PG	-6853
PU	-6854
RV	-6855
TD	-6856
TN	-6857
Ty	-6858
VI	-6859
WY	-6860
_2	-6861
af	-6862
bk	-6863
du	-6864
ef	-6865
go	-6866
ib	-6867
ik	-6868
tl	-6869
xy	-6870
ze	-6871
▁.	-6872
▁x	-6873
")?	-6874
%')	-6875
-09	-6876
-10	-6877
01'	-6878
1')	-6879
112	-6880
160	-6881
18'	-6882
20?	-6883
21'	-6884
5%"	-6885
52"	-6886
52?	-6887
53"	-6888
ACC	-6889
AGE	-6890
APR	-6891
Act	-6892
All	-6893
Ass	-6894
BUS	-6895
Bar	-6896
Bir	-6897
Cre	-6898
DOB	-6899
Cl	-6900
Vi	-6901
AFF	-6902
DRE	-6903
DVD	-6904
Dig	-6905
Din	-6906
Don	-6907
ERF	-6908
EUM	-6909
Ela	-6910
FDA	-6911
Fog	-6912
Got	-6913
HBS	-6914
HSA	-6915
Hot	-6916
INT	-6917
ISE	-6918
Jun	-6919
KLR	-6920
LIN	-6921
Len	-6922
Low	-6923
Lub	-6924
Mor	-6925
Mou	-6926
ORE	-6927
ORG	-6928
ORM	-6929
Oct	-6930
Oly	-6931
Out	-6932
PHL	-6933
PIT	-6934
RAY	-6935
Ray	-6936
Roh	-6937
SES	-6938
Soy	-6939
Thi	-6940
Tou	-6941
Tra	-6942
UBJ	-6943
UPS	-6944
Uns	-6945
_1_	-6946
ake	-6947
apu	-6948
ari	-6949
bow	-6950
erk	-6951
fox	-6952
gdp	-6953
gen	-6954
gow	-6955
hey	-6956
hrs	-6957
ieb	-6958
ilt	-6959
iod	-6960
irl	-6961
isc	-6962
isf	-6963
lob	-6964
new	-6965
oby	-6966
par	-6967
pix	-6968
pop	-6969
pos	-6970
sed	-6971
sup	-6972
ted	-6973
tle	-6974
top	-6975
uro	-6976
▁"3	-6977
▁%'	-6978
▁08	-6979
▁09	-6980
▁1"	-6981
▁22	-6982
▁3)	-6983
▁4.	-6984
▁52	-6985
▁6?	-6986
▁8)	-6987
▁8;	-6988
▁9.	-6989
▁CA	-6990
▁IT	-6991
▁IX	-6992
▁Id	-6993
▁Ku	-6994
▁MK	-6995
▁Op	-6996
▁PG	-6997
▁PU	-6998
▁RV	-6999
16'	-7000
BUR	-7001
▁TN	-7002
▁WY	-7003
▁bl	-7004
▁kb	-7005
▁ob	-7006
▁sp	-7007
▁wr	-7008
-01.	-7009
-21"	-7010
-23"	-7011
16%"	-7012
16'?	-7013
162"	-7014
192"	-7015
209'	-7016
54'?	-7017
60"?	-7018
6862	-7019
Aber	-7020
Andy	-7021
Asst	-7022
Bell	-7023
Brad	-7024
CPro	-7025
Daan	-7026
ECTS	-7027
EUMS	-7028
Elim	-7029
FAMI	-7030
Foot	-7031
Ford	-7032
Fran	-7033
GELL	-7034
Gold	-7035
Gone	-7036
Info	-7037
Iron	-7038
Jerk	-7039
Join	-7040
KAWA	-7041
KIRK	-7042
Keny	-7043
Kids	-7044
LEIA	-7045
LOTS	-7046
Lisa	-7047
Lyla	-7048
Mart	-7049
Mass	-7050
Miss	-7051
NABO	-7052
Paid	-7053
Pick	-7054
Post	-7055
Spri	-7056
Star	-7057
TAMI	-7058
Trit	-7059
UAGE	-7060
VIOL	-7061
Viol	-7062
Wile	-7063
aman	-7064
anth	-7065
arol	-7066
atta	-7067
beds	-7068
ceel	-7069
chec	-7070
comm	-7071
cond	-7072
dare	-7073
dock	-7074
dose	-7075
ecur	-7076
edEx	-7077
eels	-7078
erry	-7079
esik	-7080
fome	-7081
icen	-7082
ifit	-7083
iler	-7084
ills	-7085
illy	-7086
ingN	-7087
inum	-7088
ital	-7089
lean	-7090
lery	-7091
lies	-7092
make	-7093
midt	-7094
mpus	-7095
ocal	-7096
occo	-7097
open	-7098
opia	-7099
41"	-7100
54'	-7101
862	-7102
MTW	-7103
Alab	-7104
Auto	-7105
Bank	-7106
Cuba	-7107
Ethi	-7108
Lots	-7109
Napa	-7110
orer	-7111
orly	-7112
otta	-7113
ouse	-7114
oust	-7115
pect	-7116
prep	-7117
pril	-7118
prin	-7119
rase	-7120
rece	-7121
rino	-7122
rion	-7123
rior	-7124
sets	-7125
show	-7126
ties	-7127
ubow	-7128
ucks	-7129
ueen	-7130
ultz	-7131
urns	-7132
vide	-7133
yman	-7134
▁"0"	-7135
▁"08	-7136
▁"09	-7137
▁"4"	-7138
▁"8"	-7139
▁'';	-7140
▁)"?	-7141
▁10)	-7142
▁103	-7143
▁105	-7144
▁11.	-7145
▁12?	-7146
▁15.	-7147
▁15;	-7148
▁163	-7149
▁18.	-7150
▁184	-7151
▁219	-7152
▁23,	-7153
▁254	-7154
▁31?	-7155
▁32;	-7156
▁338	-7157
▁40?	-7158
▁46.	-7159
▁636	-7160
▁660	-7161
▁8.5	-7162
▁80.	-7163
▁Ala	-7164
▁BAL	-7165
▁BUS	-7166
▁Cut	-7167
▁DRE	-7168
▁DVD	-7169
▁Dec	-7170
▁Dem	-7171
▁Exp	-7172
▁FTE	-7173
▁Feb	-7174
▁Gar	-7175
▁Gra	-7176
▁HBS	-7177
▁His	-7178
▁Hom	-7179
▁Iss	-7180
▁Jan	-7181
▁KLR	-7182
▁Lee	-7183
▁Len	-7184
▁Low	-7185
▁MTW	-7186
▁MUS	-7187
▁Mon	-7188
▁ORG	-7189
▁Out	-7190
▁PHL	-7191
▁PIT	-7192
▁Per	-7193
▁RAY	-7194
▁Ray	-7195
▁Reg	-7196
▁SEL	-7197
▁Sep	-7198
▁Vat	-7199
▁bad	-7200
▁bar	-7201
▁beg	-7202
▁car	-7203
▁com	-7204
▁equ	-7205
▁gdp	-7206
▁hol	-7207
▁led	-7208
▁lif	-7209
▁non	-7210
▁nor	-7211
▁pot	-7212
▁que	-7213
▁rid	-7214
▁roy	-7215
▁she	-7216
▁soy	-7217
▁teh	-7218
▁ten	-7219
▁way	-7220
-09-0	-7221
-800.	-7222
2015"	-7223
AFTER	-7224
Annau	-7225
Armed	-7226
Berge	-7227
Billy	-7228
Blume	-7229
Broad	-7230
COVIN	-7231
CYCLE	-7232
Cargo	-7233
Carol	-7234
Cases	-7235
Cater	-7236
Chico	-7237
Chris	-7238
Codes	-7239
Debit	-7240
Dname	-7241
Fahey	-7242
Fanny	-7243
Feest	-7244
Fleet	-7245
Frami	-7246
Games	-7247
Gottl	-7248
Hiram	-7249
Hotel	-7250
Huels	-7251
Index	-7252
Issue	-7253
Items	-7254
Jerry	-7255
Jolie	-7256
Kolob	-7257
LINDA	-7258
LORIA	-7259
Lacey	-7260
Lasta	-7261
Latin	-7262
Lewis	-7263
Ludie	-7264
Malta	-7265
Marri	-7266
NOISE	-7267
OURCE	-7268
Other	-7269
Payam	-7270
Photo	-7271
Round	-7272
Sarah	-7273
Share	-7274
South	-7275
Steve	-7276
Susan	-7277
Swift	-7278
Third	-7279
Toubk	-7280
Treas	-7281
Tyler	-7282
Venue	-7283
Votes	-7284
Wales	-7285
Weber	-7286
Works	-7287
World	-7288
aging	-7289
ained	-7290
alled	-7291
anded	-7292
annot	-7293
arent	-7294
ascot	-7295
bling	-7296
blues	-7297
cipal	-7298
eague	-7299
Eggs	-7300
HOPS	-7301
HSAA	-7302
APRIL	-7303
BURNS	-7304
Grond	-7305
Rohan	-7306
Unsat	-7307
Wiley	-7308
afari	-7309
apuri	-7310
ecker	-7311
efits	-7312
entre	-7313
essed	-7314
fines	-7315
fomed	-7316
ieved	-7317
ified	-7318
inces	-7319
index	-7320
label	-7321
loans	-7322
logon	-7323
onsin	-7324
pages	-7325
posed	-7326
rafts	-7327
super	-7328
taken	-7329
times	-7330
troll	-7331
trust	-7332
ually	-7333
uster	-7334
vered	-7335
▁"112	-7336
▁"2%"	-7337
▁"254	-7338
▁"4%"	-7339
▁"660	-7340
▁"918	-7341
▁'1')	-7342
▁'201	-7343
▁1.85	-7344
▁100)	-7345
▁100;	-7346
▁102'	-7347
▁121?	-7348
▁150.	-7349
▁150?	-7350
▁1800	-7351
▁1830	-7352
▁1939	-7353
▁1950	-7354
▁200)	-7355
▁2500	-7356
▁3300	-7357
▁3452	-7358
▁5200	-7359
▁600;	-7360
▁634"	-7361
▁636?	-7362
▁8.5.	-7363
▁800.	-7364
▁Andy	-7365
▁Arch	-7366
▁Auto	-7367
▁Brit	-7368
▁CLub	-7369
▁Case	-7370
▁Cash	-7371
▁Code	-7372
▁Cuba	-7373
▁Dece	-7374
▁Euro	-7375
▁Expl	-7376
▁Febr	-7377
▁GELL	-7378
▁Gone	-7379
▁High	-7380
▁KAWA	-7381
▁KIRK	-7382
▁Kids	-7383
▁Kuhn	-7384
▁LANG	-7385
▁LEIA	-7386
▁Last	-7387
▁Lisa	-7388
▁Lots	-7389
▁Mall	-7390
▁NABO	-7391
▁Napa	-7392
▁Nove	-7393
▁PERF	-7394
▁Paid	-7395
▁Prim	-7396
▁SUBJ	-7397
▁Sept	-7398
▁Sons	-7399
▁TAMI	-7400
▁Tony	-7401
▁Ueno	-7402
▁VICE	-7403
▁Vote	-7404
▁West	-7405
▁Year	-7406
▁able	-7407
▁away	-7408
▁care	-7409
▁cows	-7410
▁died	-7411
▁dock	-7412
▁dose	-7413
▁east	-7414
▁exce	-7415
▁excl	-7416
▁gave	-7417
▁gets	-7418
▁girl	-7419
▁gust	-7420
▁jerk	-7421
▁just	-7422
▁leag	-7423
▁mail	-7424
▁mall	-7425
▁meas	-7426
▁ones	-7427
▁owns	-7428
▁pate	-7429
▁pick	-7430
▁pric	-7431
▁road	-7432
▁send	-7433
▁sent	-7434
▁sold	-7435
▁such	-7436
▁wins	-7437
-06-19	-7438
2-06-2	-7439
Actual	-7440
Adults	-7441
Alaska	-7442
Alison	-7443
Alyson	-7444
Ananth	-7445
Aniyah	-7446
Assets	-7447
Assist	-7448
Avatar	-7449
Barker	-7450
Barton	-7451
Birtle	-7452
Brazil	-7453
CONRAD	-7454
CProxy	-7455
Client	-7456
Colors	-7457
Cutter	-7458
DAMIEN	-7459
Dameon	-7460
Daniel	-7461
Dining	-7462
Dublin	-7463
Effect	-7464
Elaine	-7465
FAMILY	-7466
Faster	-7467
France	-7468
GORDON	-7469
Goroka	-7470
Intern	-7471
JEROME	-7472
Kenton	-7473
Kohler	-7474
Leonie	-7475
Marina	-7476
Moulin	-7477
ORMERS	-7478
Panama	-7479
Person	-7480
Postal	-7481
Prague	-7482
Prince	-7483
Protop	-7484
Robert	-7485
Routes	-7486
SELBIG	-7487
Series	-7488
Sprint	-7489
StayID	-7490
Stored	-7491
Taiwan	-7492
Thiago	-7493
Triton	-7494
Uganda	-7495
Violin	-7496
Vivian	-7497
burden	-7498
closed	-7499
direct	-7500
ential	-7501
ertain	-7502
franch	-7503
header	-7504
iences	-7505
iltern	-7506
images	-7507
invest	-7508
isfied	-7509
istant	-7510
joined	-7511
lasgow	-7512
meters	-7513
orange	-7514
ouston	-7515
pixels	-7516
pounds	-7517
series	-7518
shared	-7519
snatch	-7520
underg	-7521
unsure	-7522
zeiler	-7523
▁"%5%"	-7524
▁"162"	-7525
▁"2000	-7526
▁"2009	-7527
▁"2018	-7528
▁"338"	-7529
▁"3452	-7530
▁"6862	-7531
▁"900"	-7532
▁1004?	-7533
▁1850?	-7534
▁1939?	-7535
▁1950?	-7536
▁1990;	-7537
▁1990?	-7538
▁1995.	-7539
▁2001.	-7540
▁2003)	-7541
▁2003.	-7542
▁2005.	-7543
▁2006)	-7544
▁2009;	-7545
▁2010;	-7546
▁2011.	-7547
▁2011?	-7548
▁2012.	-7549
▁2015.	-7550
▁3000;	-7551
▁3000?	-7552
▁3452?	-7553
▁40000	-7554
▁60000	-7555
▁94002	-7556
▁April	-7557
▁Armed	-7558
▁Atlas	-7559
▁Berge	-7560
▁Billy	-7561
▁Blume	-7562
▁Burns	-7563
▁COVIN	-7564
▁Carol	-7565
▁Chico	-7566
▁Chris	-7567
▁Clean	-7568
▁Colum	-7569
▁David	-7570
▁ELECT	-7571
▁Feest	-7572
▁Floor	-7573
▁Frami	-7574
▁Gname	-7575
▁Grade	-7576
▁Green	-7577
▁Hiram	-7578
▁Hosts	-7579
▁Hours	-7580
▁Huels	-7581
▁Jerry	-7582
▁Jolie	-7583
▁LORIA	-7584
▁Label	-7585
▁Lacey	-7586
▁Latin	-7587
▁Lubow	-7588
▁Ludie	-7589
▁Malta	-7590
▁Motta	-7591
▁Ohori	-7592
▁Payam	-7593
▁ROYAL	-7594
▁Roles	-7595
▁SCORE	-7596
▁SHOPS	-7597
▁STAFF	-7598
▁START	-7599
▁Sarah	-7600
▁Secur	-7601
▁Speed	-7602
▁Steve	-7603
▁Susan	-7604
▁Swift	-7605
▁Turon	-7606
▁Weber	-7607
▁White	-7608
▁Works	-7609
▁Wyman	-7610
▁allow	-7611
▁areas	-7612
▁bands	-7613
▁blues	-7614
▁buses	-7615
▁cance	-7616
▁capac	-7617
▁clean	-7618
▁close	-7619
▁dateu	-7620
▁decis	-7621
▁depar	-7622
▁donor	-7623
▁earns	-7624
▁empty	-7625
▁fleet	-7626
▁focal	-7627
▁found	-7628
▁gradu	-7629
▁helps	-7630
▁hires	-7631
▁index	-7632
▁kills	-7633
▁large	-7634
▁logon	-7635
▁makes	-7636
▁prior	-7637
▁queen	-7638
▁resid	-7639
▁revis	-7640
▁royal	-7641
▁small	-7642
▁study	-7643
▁thing	-7644
▁trans	-7645
▁truck	-7646
▁vehic	-7647
▁width	-7648
▁write	-7649
▁yCard	-7650
-01-01.	-7651
-09-21"	-7652
-10-23"	-7653
-11-05'	-7654
-12-25.	-7655
-12-25?	-7656
5-01-01	-7657
Alabama	-7658
Albania	-7659
Almeida	-7660
Andaman	-7661
Annaual	-7662
Arizona	-7663
BROMLEY	-7664
Belgium	-7665
Billing	-7666
Billund	-7667
Blanche	-7668
Bradley	-7669
Brander	-7670
Brandon	-7671
Builder	-7672
CHRISSY	-7673
Calgary	-7674
Capital	-7675
Charles	-7676
CheckIn	-7677
Chennai	-7678
Clemson	-7679
Clothes	-7680
Coupons	-7681
Cutlery	-7682
Denesik	-7683
Digital	-7684
Donceel	-7685
EVELINA	-7686
Eduardo	-7687
Express	-7688
Fordham	-7689
Forward	-7690
Georgia	-7691
Germany	-7692
Gibbons	-7693
Injured	-7694
Invoice	-7695
January	-7696
Johnson	-7697
Keeling	-7698
Liberal	-7699
Lysanne	-7700
MADLOCK	-7701
Machine	-7702
Markets	-7703
Martins	-7704
Morocco	-7705
Olympus	-7706
Opening	-7707
Organiz	-7708
Peeters	-7709
Primary	-7710
Profits	-7711
Project	-7712
Rainbow	-7713
Ratings	-7714
Roberto	-7715
Schmidt	-7716
Schultz	-7717
Shieber	-7718
Shivers	-7719
TARRING	-7720
TMobile	-7721
Tonnage	-7722
Toubkal	-7723
Trading	-7724
Weirich	-7725
Working	-7726
andings	-7727
closure	-7728
created	-7729
dnumber	-7730
entions	-7731
fenders	-7732
formers	-7733
holding	-7734
iations	-7735
interch	-7736
ization	-7737
mersham	-7738
morning	-7739
network	-7740
pective	-7741
ponsors	-7742
premise	-7743
quality	-7744
riendly	-7745
rinogen	-7746
selling	-7747
stanley	-7748
▁"%6862	-7749
▁"1995"	-7750
▁"2008"	-7751
▁"2192"	-7752
▁"3452"	-7753
▁"600".	-7754
▁"600"?	-7755
▁10000.	-7756
▁20000)	-7757
▁20000?	-7758
▁50000.	-7759
▁50000?	-7760
▁80000.	-7761
▁80000?	-7762
▁94002?	-7763
▁94103)	-7764
▁Actual	-7765
▁Adults	-7766
▁Alaska	-7767
▁Alison	-7768
▁Alyson	-7769
▁Aniyah	-7770
▁Avatar	-7771
▁Barker	-7772
▁Barton	-7773
▁Becker	-7774
▁Brazil	-7775
▁Bridge	-7776
▁CONRAD	-7777
▁Census	-7778
▁Centre	-7779
▁Church	-7780
▁Cutter	-7781
▁DAMIEN	-7782
▁DPhone	-7783
▁Dameon	-7784
▁Daniel	-7785
▁Dublin	-7786
▁France	-7787
▁GORDON	-7788
▁Garden	-7789
▁German	-7790
▁Goroka	-7791
▁Grapes	-7792
▁Issues	-7793
▁JEROME	-7794
▁Junior	-7795
▁Kenton	-7796
▁Killed	-7797
▁Kohler	-7798
▁League	-7799
▁Leonie	-7800
▁Marina	-7801
▁Massif	-7802
▁Mobile	-7803
▁Monaco	-7804
▁Oppose	-7805
▁Output	-7806
▁Panama	-7807
▁Prague	-7808
▁Prince	-7809
▁Robert	-7810
▁Russia	-7811
▁SELBIG	-7812
▁SOURCE	-7813
▁Scient	-7814
▁Snatch	-7815
▁Street	-7816
▁Taiwan	-7817
▁Uganda	-7818
▁Vivian	-7819
▁Walter	-7820
▁appear	-7821
▁appell	-7822
▁become	-7823
▁brands	-7824
▁cannot	-7825
▁caused	-7826
▁census	-7827
▁chains	-7828
▁choose	-7829
▁chosen	-7830
▁client	-7831
▁coming	-7832
▁compla	-7833
▁deputy	-7834
▁fourth	-7835
▁franch	-7836
▁grades	-7837
▁happen	-7838
▁highly	-7839
▁issues	-7840
▁killed	-7841
▁levels	-7842
▁loaned	-7843
▁memory	-7844
▁meters	-7845
▁mobile	-7846
▁newest	-7847
▁parent	-7848
▁period	-7849
▁phrase	-7850
▁planes	-7851
▁poorly	-7852
▁pounds	-7853
▁raised	-7854
▁roomid	-7855
▁scored	-7856
▁second	-7857
▁silver	-7858
▁skills	-7859
▁stages	-7860
▁street	-7861
▁supply	-7862
▁taller	-7863
▁target	-7864
▁things	-7865
▁totals	-7866
▁trucks	-7867
▁trying	-7868
▁underg	-7869
2-06-21'	-7870
340-300.	-7871
340-300?	-7872
5-01-01"	-7873
6-01-01"	-7874
6-01-01?	-7875
6-11-13"	-7876
Aberdare	-7877
ArtistID	-7878
AsstProf	-7879
Business	-7880
COMPUTER	-7881
Catering	-7882
Champlin	-7883
Chandler	-7884
CheckOut	-7885
Creative	-7886
Director	-7887
Division	-7888
Domestic	-7889
Edmonton	-7890
Ethiopia	-7891
Exercise	-7892
Goodrich	-7893
Gottlieb	-7894
Homeland	-7895
Internet	-7896
Japanese	-7897
Kenyatta	-7898
Khanewal	-7899
Lastname	-7900
Launched	-7901
MARROTTE	-7902
Malaysia	-7903
Marcelle	-7904
Marriage	-7905
Maryland	-7906
Monterey	-7907
Negative	-7908
Nickname	-7909
ONDERSMA	-7910
Regional	-7911
Rosalind	-7912
Sandwich	-7913
Schuster	-7914
Services	-7915
TRACHSEL	-7916
Thesisin	-7917
Treasury	-7918
VIOLENCE	-7919
acquired	-7920
checking	-7921
consider	-7922
datetime	-7923
directed	-7924
estimate	-7925
features	-7926
graduate	-7927
hiredate	-7928
hometown	-7929
ingNurse	-7930
invested	-7931
isconsin	-7932
managing	-7933
ndergoes	-7934
payments	-7935
raduates	-7936
received	-7937
released	-7938
response	-7939
ribbling	-7940
semester	-7941
shopping	-7942
trollers	-7943
▁"2016%"	-7944
▁'2009-0	-7945
▁100000?	-7946
▁200000?	-7947
▁8000000	-7948
▁Albania	-7949
▁Almeida	-7950
▁Arizona	-7951
▁BROMLEY	-7952
▁Belgium	-7953
▁Blanche	-7954
▁Brander	-7955
▁CHRISSY	-7956
▁Calgary	-7957
▁Capital	-7958
▁Charles	-7959
▁Chennai	-7960
▁Clemson	-7961
▁EVELINA	-7962
▁Eduardo	-7963
▁Gibbons	-7964
▁Iceland	-7965
▁Invoice	-7966
▁January	-7967
▁Johnson	-7968
▁Keeling	-7969
▁Lysanne	-7970
▁MADLOCK	-7971
▁MUSEUMS	-7972
▁Martins	-7973
▁Meaghan	-7974
▁Numbers	-7975
▁Opening	-7976
▁Peeters	-7977
▁Planned	-7978
▁Provide	-7979
▁Railway	-7980
▁Regular	-7981
▁Roberto	-7982
▁Rodrick	-7983
▁Shieber	-7984
▁Shivers	-7985
▁Support	-7986
▁TARRING	-7987
▁Weirich	-7988
▁arrears	-7989
▁attends	-7990
▁awarded	-7991
▁benifit	-7992
▁biology	-7993
▁busiest	-7994
▁closure	-7995
▁clothes	-7996
▁costing	-7997
▁coupons	-7998
▁destroy	-7999
▁headers	-8000
▁holding	-8001
▁injures	-8002
▁leaders	-8003
▁lengths	-8004
▁liberal	-8005
▁mininum	-8006
▁minored	-8007
▁neither	-8008
▁outside	-8009
▁patents	-8010
▁planned	-8011
▁quality	-8012
▁rentals	-8013
▁renting	-8014
▁salaray	-8015
▁selling	-8016
▁serving	-8017
▁severed	-8018
▁stanley	-8019
▁starred	-8020
▁studied	-8021
▁theater	-8022
▁transit	-8023
▁village	-8024
Aerosmith	-8025
Anonymous	-8026
Argentina	-8027
Broadband	-8028
Destroyed	-8029
Detention	-8030
Documents	-8031
Effective	-8032
Electoral	-8033
Employees	-8034
Fasterfox	-8035
Greenland	-8036
Indonesia	-8037
Locations	-8038
Massively	-8039
Nominated	-8040
Organizer	-8041
PRESIDENT	-8042
Scientist	-8043
Secretary	-8044
Standings	-8045
Structure	-8046
Waterbury	-8047
asessment	-8048
employees	-8049
franchise	-8050
marketing	-8051
portation	-8052
preferred	-8053
prepnurse	-8054
principal	-8055
superstar	-8056
temporary	-8057
worldwide	-8058
▁5000000.	-8059
▁5000000?	-8060
▁Canadian	-8061
▁Catalogs	-8062
▁Champlin	-8063
▁Chandler	-8064
▁Columbus	-8065
▁Consider	-8066
▁Creative	-8067
▁Currency	-8068
▁December	-8069
▁Descript	-8070
▁Discount	-8071
▁ELECTION	-8072
▁Edmonton	-8073
▁Explorer	-8074
▁February	-8075
▁Friendly	-8076
▁Goodrich	-8077
▁Hispanic	-8078
▁Japanese	-8079
▁Khanewal	-8080
▁LANGUAGE	-8081
▁Lubowitz	-8082
▁MARROTTE	-8083
▁Malaysia	-8084
▁Marcelle	-8085
▁Maryland	-8086
▁Medhurst	-8087
▁Monterey	-8088
▁Nickname	-8089
▁November	-8090
▁ONDERSMA	-8091
▁Regional	-8092
▁Rosalind	-8093
▁STUDENTS	-8094
▁SUBJECTS	-8095
▁Sandwich	-8096
▁Security	-8097
▁TRACHSEL	-8098
▁Thesisin	-8099
▁Visitors	-8100
▁actually	-8101
▁advising	-8102
▁approved	-8103
▁attained	-8104
▁baseball	-8105
▁canceled	-8106
▁currency	-8107
▁defender	-8108
▁driverId	-8109
▁estimate	-8110
▁exercise	-8111
▁founders	-8112
▁friendly	-8113
▁keyboard	-8114
▁manufact	-8115
▁memories	-8116
▁multiple	-8117
▁negative	-8118
▁percents	-8119
▁perfomed	-8120
▁possible	-8121
▁province	-8122
▁register	-8123
▁required	-8124
▁requires	-8125
▁resource	-8126
▁response	-8127
▁resulted	-8128
▁roomname	-8129
▁roomtype	-8130
▁seatings	-8131
▁shopping	-8132
▁supplies	-8133
▁surnames	-8134
▁username	-8135
▁vehicles	-8136
Damianfort	-8137
ExxonMobil	-8138
Graztevski	-8139
Heffington	-8140
Horizontal	-8141
Louisville	-8142
Midfielder	-8143
Northridge	-8144
PostalCode	-8145
Researcher	-8146
activities	-8147
authorised	-8148
commission	-8149
prominence	-8150
ratingDate	-8151
structures	-8152
▁10000000.	-8153
▁10000000?	-8154
▁2018-03-1	-8155
▁242518965	-8156
▁Aerosmith	-8157
▁Americano	-8158
▁Anonymous	-8159
▁Argentina	-8160
▁BirthDate	-8161
▁Candidate	-8162
▁Committee	-8163
▁Firstname	-8164
▁Furniture	-8165
▁Greenland	-8166
▁Indonesia	-8167
▁Massively	-8168
▁Mortgages	-8169
▁Secretary	-8170
▁September	-8171
▁Suppliers	-8172
▁Waterbury	-8173
▁actresses	-8174
▁asessment	-8175
▁assistant	-8176
▁baseprice	-8177
▁cancelled	-8178
▁circuitid	-8179
▁commanded	-8180
▁completed	-8181
▁component	-8182
▁contracts	-8183
▁decisions	-8184
▁defenders	-8185
▁effective	-8186
▁estimates	-8187
▁excluding	-8188
▁including	-8189
▁inhibitor	-8190
▁installed	-8191
▁insurance	-8192
▁occupancy	-8193
▁organized	-8194
▁organizer	-8195
▁passwords	-8196
▁placement	-8197
▁possessed	-8198
▁potential	-8199
▁provinces	-8200
▁revisions	-8201
▁something	-8202
▁staystart	-8203
▁submitted	-8204
▁supported	-8205
▁temporary	-8206
▁worldwide	-8207
Afghanistan	-8208
AllergyType	-8209
Ananthapuri	-8210
Collectible	-8211
Comptroller	-8212
Destruction	-8213
Elimination	-8214
Feliciaberg	-8215
Grondzeiler	-8216
InvoiceDate	-8217
Lockmanfurt	-8218
Nationality	-8219
Protoporphy	-8220
Switzerland	-8221
Unsatisfied	-8222
affiliation	-8223
morningside	-8224
publication	-8225
releasedate	-8226
traditional	-8227
▁"2018-03-1	-8228
▁2009-01-01	-8229
▁242518965?	-8230
▁Assignment	-8231
▁Damianfort	-8232
▁Democratic	-8233
▁ExxonMobil	-8234
▁Graztevski	-8235
▁Heffington	-8236
▁Louisville	-8237
▁Northridge	-8238
▁PERFORMERS	-8239
▁Performers	-8240
▁Scientists	-8241
▁SportsInfo	-8242
▁Tournament	-8243
▁Washington	-8244
▁authorized	-8245
▁blockfloor	-8246
▁capacities	-8247
▁classified	-8248
▁collection	-8249
▁detentions	-8250
▁franchises	-8251
▁horizontal	-8252
▁lieutenant	-8253
▁performing	-8254
▁references	-8255
▁residences	-8256
▁respective	-8257
Denomination	-8258
Descriptrion	-8259
Differential	-8260
Gleasonmouth	-8261
INTRODUCTION	-8262
departmentid	-8263
incorporated	-8264
installation	-8265
▁Afghanistan	-8266
▁Description	-8267
▁Feliciaberg	-8268
▁Lockmanfurt	-8269
▁ResTypeName	-8270
▁Switzerland	-8271
▁broadcasted	-8272
▁corresponds	-8273
▁experiences	-8274
▁gradepoints	-8275
▁millisecond	-8276
▁morningside	-8277
▁postseasons	-8278
▁restaurants	-8279
▁specialized	-8280
▁traditional	-8281
▁unavailable	-8282
Accreditation	-8283
onscholarship	-8284
precipitation	-8285
stageposition	-8286
undergraduate	-8287
▁"1986-11-13"	-8288
▁"2000-01-01"	-8289
▁"2009-01-01"	-8290
▁"2010-01-01"	-8291
▁"2010-09-21"	-8292
▁"2010-10-23"	-8293
▁'2002-06-21'	-8294
▁APPELLATIONs	-8295
▁Differential	-8296
▁Gleasonmouth	-8297
▁INTRODUCTION	-8298
▁Transactions	-8299
▁affiliations	-8300
▁appellations	-8301
▁comptrollers	-8302
AssistingNurse	-8303
BillingCountry	-8304
▁appointmentid	-8305
▁authorization	-8306
▁dateundergoes	-8307
▁headquartered	-8308
▁precipitation	-8309
▁prescriptions	-8310
▁stageposition	-8311
▁4560596484842.	-8312
▁transportation	-8313
▁undergraduates	-8314
▁totalenrollment	-8315
'-	-8316
);	-8317
.,	-8318
.?	-8319
0,	-8320
15	-8321
41	-8322
DD	-8323
Fi	-8324
Lo	-8325
Ls	-8326
Ow	-8327
Wi	-8328
_3	-8329
ak	-8330
ci	-8331
gn	-8332
gr	-8333
gy	-8334
mf	-8335
mm	-8336
ny	-8337
wh	-8338
▁z	-8339
").	-8340
-22	-8341
.%'	-8342
.5.	-8343
1".	-8344
120	-8345
2'.	-8346
41.	-8347
53.	-8348
53?	-8349
8'?	-8350
ATA	-8351
EAC	-8352
MIM	-8353
May	-8354
NOT	-8355
RLs	-8356
Ret	-8357
aan	-8358
ady	-8359
aem	-8360
cee	-8361
cih	-8362
des	-8363
dis	-8364
due	-8365
ely	-8366
eme	-8367
eop	-8368
equ	-8369
fix	-8370
fth	-8371
ibl	-8372
ike	-8373
ips	-8374
ire	-8375
mar	-8376
mes	-8377
nch	-8378
oem	-8379
oil	-8380
qal	-8381
raw	-8382
sue	-8383
tat	-8384
uca	-8385
uer	-8386
ume	-8387
une	-8388
yan	-8389
▁'4	-8390
▁),	-8391
▁0?	-8392
▁2,	-8393
▁3,	-8394
▁4?	-8395
▁5,	-8396
▁55	-8397
▁64	-8398
▁9?	-8399
%?	-8400
vi	-8401
▁ED	-8402
▁La	-8403
▁Ob	-8404
▁mm	-8405
▁mo	-8406
▁os	-8407
▁sa	-8408
▁si	-8409
01'.	-8410
01'?	-8411
120.	-8412
150.	-8413
18'?	-8414
180,	-8415
180.	-8416
200.	-8417
209.	-8418
209?	-8419
60".	-8420
ALES	-8421
ASES	-8422
Char	-8423
HERS	-8424
IATA	-8425
Koby	-8426
Loss	-8427
Over	-8428
Role	-8429
SESS	-8430
URCH	-8431
WiFi	-8432
_100	-8433
_200	-8434
_300	-8435
aded	-8436
aems	-8437
aged	-8438
aign	-8439
ains	-8440
airs	-8441
apny	-8442
arks	-8443
camp	-8444
char	-8445
core	-8446
cted	-8447
ctur	-8448
dens	-8449
exit	-8450
ferr	-8451
ffre	-8452
ggae	-8453
gold	-8454
have	-8455
iate	-8456
ibly	-8457
ifor	-8458
iled	-8459
into	-8460
itic	-8461
lags	-8462
lect	-8463
lots	-8464
nect	-8465
oggy	-8466
oral	-8467
orts	-8468
ould	-8469
plic	-8470
ream	-8471
serv	-8472
sing	-8473
summ	-8474
tect	-8475
tein	-8476
text	-8477
that	-8478
ture	-8479
uded	-8480
umul	-8481
umum	-8482
urls	-8483
urth	-8484
uses	-8485
uted	-8486
vers	-8487
ways	-8488
wers	-8489
▁'5'	-8490
▁)".	-8491
▁10,	-8492
▁22.	-8493
▁22?	-8494
▁30;	-8495
▁315	-8496
▁35.	-8497
▁35?	-8498
▁36.	-8499
▁60.	-8500
▁60?	-8501
▁64.	-8502
▁80,	-8503
▁85?	-8504
▁93,	-8505
▁99?	-8506
▁AAC	-8507
▁ADD	-8508
▁Aff	-8509
▁Are	-8510
▁Ben	-8511
▁Cat	-8512
▁DNO	-8513
▁Fog	-8514
▁HOw	-8515
▁Ign	-8516
▁Ill	-8517
▁Lif	-8518
▁May	-8519
▁Men	-8520
▁Oil	-8521
▁ROM	-8522
▁UPS	-8523
▁Wat	-8524
▁ach	-8525
▁aic	-8526
▁aip	-8527
▁bak	-8528
▁bur	-8529
▁col	-8530
▁cov	-8531
▁cyc	-8532
▁dam	-8533
▁dat	-8534
▁due	-8535
▁egg	-8536
▁far	-8537
▁hat	-8538
▁him	-8539
▁hum	-8540
▁mgr	-8541
▁mib	-8542
▁mph	-8543
▁obs	-8544
▁occ	-8545
▁oil	-8546
▁ore	-8547
▁oth	-8548
▁put	-8549
▁ram	-8550
▁rep	-8551
▁set	-8552
▁shi	-8553
▁sit	-8554
▁suc	-8555
▁tre	-8556
▁typ	-8557
▁unc	-8558
-22"?	-8559
-261.	-8560
-800?	-8561
2015.	-8562
2015?	-8563
Decor	-8564
FedEx	-8565
Fines	-8566
IHSAA	-8567
LEVEL	-8568
NOTES	-8569
Rates	-8570
Route	-8571
Start	-8572
ables	-8573
aigns	-8574
anges	-8575
bined	-8576
cells	-8577
cines	-8578
ctors	-8579
deshi	-8580
dname	-8581
draft	-8582
eding	-8583
ender	-8584
ergia	-8585
espon	-8586
grect	-8587
group	-8588
herit	-8589
igned	-8590
inois	-8591
inues	-8592
ioned	-8593
itial	-8594
legry	-8595
licen	-8596
meset	-8597
nance	-8598
oemrs	-8599
ready	-8600
sters	-8601
uries	-8602
verse	-8603
vious	-8604
where	-8605
▁"2".	-8606
▁"2"?	-8607
▁'8'?	-8608
▁1.84	-8609
▁100,	-8610
▁102,	-8611
▁103.	-8612
▁1031	-8613
▁103?	-8614
▁105.	-8615
▁105?	-8616
▁108.	-8617
▁108?	-8618
▁109.	-8619
▁109?	-8620
▁110.	-8621
▁110?	-8622
▁112.	-8623
▁112?	-8624
▁120,	-8625
▁120?	-8626
▁140.	-8627
▁140?	-8628
▁162.	-8629
▁162?	-8630
▁163.	-8631
▁163?	-8632
▁180,	-8633
▁180?	-8634
▁1840	-8635
▁190.	-8636
▁190?	-8637
▁200;	-8638
▁2192	-8639
▁255.	-8640
▁268.	-8641
▁268?	-8642
▁315?	-8643
▁338.	-8644
▁338?	-8645
▁520.	-8646
▁520?	-8647
▁841.	-8648
▁Ball	-8649
▁CONN	-8650
▁Char	-8651
▁Daan	-8652
▁Dean	-8653
▁GPAs	-8654
▁IATA	-8655
▁Ital	-8656
▁June	-8657
▁Just	-8658
▁Koby	-8659
▁Lake	-8660
▁Long	-8661
▁Luca	-8662
▁Male	-8663
▁Mort	-8664
▁OMIM	-8665
▁Pass	-8666
▁Patt	-8667
▁Prof	-8668
▁Punk	-8669
▁Rain	-8670
▁Rent	-8671
▁Ryan	-8672
▁Syst	-8673
▁TEAC	-8674
▁Take	-8675
▁Text	-8676
▁That	-8677
▁URLs	-8678
▁Whah	-8679
▁With	-8680
▁acts	-8681
▁airp	-8682
▁arit	-8683
▁audi	-8684
▁aver	-8685
▁best	-8686
▁came	-8687
▁capa	-8688
▁cats	-8689
▁cent	-8690
▁char	-8691
▁cons	-8692
▁draw	-8693
▁eggs	-8694
▁eqal	-8695
▁exit	-8696
▁fate	-8697
▁fine	-8698
▁foot	-8699
▁free	-8700
▁goes	-8701
▁grow	-8702
▁hail	-8703
▁heav	-8704
▁here	-8705
▁hist	-8706
▁htat	-8707
▁into	-8708
▁jazz	-8709
▁late	-8710
▁lent	-8711
▁life	-8712
▁like	-8713
▁lose	-8714
▁lost	-8715
▁love	-8716
▁math	-8717
▁ment	-8718
▁norm	-8719
▁oder	-8720
▁outs	-8721
▁pair	-8722
▁peop	-8723
▁rain	-8724
▁sale	-8725
▁seat	-8726
▁seen	-8727
▁sour	-8728
▁tahn	-8729
▁tied	-8730
▁tune	-8731
▁urls	-8732
▁uses	-8733
▁vict	-8734
▁view	-8735
▁west	-8736
Drafts	-8737
Killed	-8738
Leader	-8739
Mascot	-8740
Pixels	-8741
RESSES	-8742
Regist	-8743
Retail	-8744
Safari	-8745
Skills	-8746
Snatch	-8747
Spouse	-8748
Writer	-8749
ablish	-8750
availa	-8751
ceeded	-8752
cended	-8753
cluded	-8754
coming	-8755
delian	-8756
equity	-8757
erated	-8758
erties	-8759
erture	-8760
espans	-8761
ffrent	-8762
flight	-8763
grects	-8764
handed	-8765
iblity	-8766
icense	-8767
intain	-8768
jected	-8769
mailed	-8770
maries	-8771
nteran	-8772
olumns	-8773
omdate	-8774
panics	-8775
refund	-8776
starts	-8777
stries	-8778
versed	-8779
▁"918"	-8780
▁'1')?	-8781
▁1.84.	-8782
▁1.85.	-8783
▁1.85?	-8784
▁100%?	-8785
▁1000,	-8786
▁1121.	-8787
▁1121;	-8788
▁1121?	-8789
▁1500.	-8790
▁1500?	-8791
▁1800.	-8792
▁1800?	-8793
▁1840.	-8794
▁1850.	-8795
▁1880.	-8796
▁1900?	-8797
▁1928.	-8798
▁1928?	-8799
▁1956,	-8800
▁1956?	-8801
▁1958.	-8802
▁1958?	-8803
▁1959.	-8804
▁1959?	-8805
▁1961.	-8806
▁1961?	-8807
▁1980.	-8808
▁1980?	-8809
▁1998.	-8810
▁1998?	-8811
▁1999.	-8812
▁1999?	-8813
▁2,000	-8814
▁2002.	-8815
▁2003,	-8816
▁2004,	-8817
▁2004;	-8818
▁2006.	-8819
▁2008,	-8820
▁2014,	-8821
▁2014.	-8822
▁2015?	-8823
▁2192.	-8824
▁2500.	-8825
▁2500?	-8826
▁4000.	-8827
▁4000?	-8828
▁5200.	-8829
▁5200?	-8830
▁6000.	-8831
▁6000?	-8832
▁634".	-8833
▁634"?	-8834
▁8000.	-8835
▁8000?	-8836
▁9000.	-8837
▁9000?	-8838
▁Apple	-8839
▁Bdate	-8840
▁Chair	-8841
▁Cobam	-8842
▁Cound	-8843
▁Debit	-8844
▁FedEx	-8845
▁Flags	-8846
▁Given	-8847
▁IHSAA	-8848
▁Langu	-8849
▁Louis	-8850
▁Mortg	-8851
▁Orbit	-8852
▁PURCH	-8853
▁Peter	-8854
▁Print	-8855
▁Ryley	-8856
▁SALES	-8857
▁Santo	-8858
▁Simon	-8859
▁Their	-8860
▁Whare	-8861
▁accor	-8862
▁alice	-8863
▁capit	-8864
▁carry	-8865
▁cases	-8866
▁cells	-8867
▁could	-8868
▁cumul	-8869
▁deals	-8870
▁debit	-8871
▁deliv	-8872
▁didnt	-8873
▁dname	-8874
▁drums	-8875
▁early	-8876
▁field	-8877
▁fifth	-8878
▁final	-8879
▁fines	-8880
▁foggy	-8881
▁funit	-8882
▁furth	-8883
▁gives	-8884
▁hosue	-8885
▁incur	-8886
▁inhib	-8887
▁lasts	-8888
▁marks	-8889
▁miles	-8890
▁minor	-8891
▁modes	-8892
▁moeny	-8893
▁moved	-8894
▁naems	-8895
▁needs	-8896
▁phons	-8897
▁pricy	-8898
▁roads	-8899
▁spans	-8900
▁stays	-8901
▁style	-8902
▁texts	-8903
▁topic	-8904
▁treat	-8905
▁usage	-8906
▁whcih	-8907
▁worst	-8908
-06-21.	-8909
Arrears	-8910
Glasgow	-8911
Harford	-8912
Houston	-8913
actress	-8914
arrears	-8915
average	-8916
blility	-8917
charges	-8918
colours	-8919
coreded	-8920
coupons	-8921
cturers	-8922
ferrred	-8923
iformed	-8924
itionid	-8925
lasting	-8926
licence	-8927
matches	-8928
meseter	-8929
nection	-8930
outning	-8931
portion	-8932
protein	-8933
ributed	-8934
serving	-8935
summary	-8936
tailing	-8937
udgeted	-8938
uerment	-8939
▁"918"?	-8940
▁10018.	-8941
▁10018?	-8942
▁12000,	-8943
▁12000.	-8944
▁13,000	-8945
▁15,000	-8946
▁15000?	-8947
▁18000.	-8948
▁18000?	-8949
▁20000.	-8950
▁30000.	-8951
▁30000?	-8952
▁42000.	-8953
▁42000?	-8954
▁94103.	-8955
▁94103?	-8956
▁ASSESS	-8957
▁Aliens	-8958
▁Applic	-8959
▁Direct	-8960
▁Editor	-8961
▁Gender	-8962
▁HUNGER	-8963
▁Harold	-8964
▁Ignore	-8965
▁Labour	-8966
▁Launch	-8967
▁Leader	-8968
▁Mascot	-8969
▁McEwen	-8970
▁Object	-8971
▁Online	-8972
▁Patent	-8973
▁Pixels	-8974
▁Rachel	-8975
▁Reggae	-8976
▁Safari	-8977
▁Wheels	-8978
▁allery	-8979
▁always	-8980
▁bangla	-8981
▁batter	-8982
▁begins	-8983
▁births	-8984
▁burden	-8985
▁causes	-8986
▁chairs	-8987
▁costly	-8988
▁coupon	-8989
▁covers	-8990
▁cycles	-8991
▁descen	-8992
▁drafts	-8993
▁driven	-8994
▁drives	-8995
▁entire	-8996
▁equals	-8997
▁equity	-8998
▁faulty	-8999
▁finish	-9000
▁fixing	-9001
▁french	-9002
▁gotten	-9003
▁headed	-9004
▁humity	-9005
▁inside	-9006
▁lastly	-9007
▁league	-9008
▁lended	-9009
▁mailed	-9010
▁mainly	-9011
▁making	-9012
▁manner	-9013
▁months	-9014
▁neames	-9015
▁object	-9016
▁others	-9017
▁patent	-9018
▁pixels	-9019
▁posted	-9020
▁prefer	-9021
▁prefix	-9022
▁priced	-9023
▁rained	-9024
▁refund	-9025
▁reside	-9026
▁rounds	-9027
▁safety	-9028
▁scheme	-9029
▁select	-9030
▁serves	-9031
▁shiips	-9032
▁specif	-9033
▁sporty	-9034
▁spouse	-9035
▁stated	-9036
▁steven	-9037
▁stream	-9038
▁struct	-9039
▁summed	-9040
▁treats	-9041
▁wheels	-9042
▁widely	-9043
▁writer	-9044
▁yeared	-9045
▁yearly	-9046
8-06-26.	-9047
Amersham	-9048
Canadian	-9049
Chiltern	-9050
Heathrow	-9051
Lifespan	-9052
Register	-9053
Starting	-9054
ablished	-9055
aperture	-9056
birthday	-9057
creation	-9058
crossing	-9059
disposed	-9060
pendents	-9061
premises	-9062
products	-9063
recorded	-9064
▁"1121".	-9065
▁"1121"?	-9066
▁"3452".	-9067
▁"3452"?	-9068
▁100000.	-9069
▁120000.	-9070
▁120000?	-9071
▁200,000	-9072
▁4000000	-9073
▁AIRPORT	-9074
▁Android	-9075
▁Arrival	-9076
▁British	-9077
▁Council	-9078
▁England	-9079
▁Forward	-9080
▁Glasgow	-9081
▁Goergia	-9082
▁Harford	-9083
▁Houston	-9084
▁Indiana	-9085
▁Inherit	-9086
▁Initial	-9087
▁Interan	-9088
▁Italian	-9089
▁Masters	-9090
▁Mortage	-9091
▁Organiz	-9092
▁Parking	-9093
▁Pattern	-9094
▁Profits	-9095
▁Recluse	-9096
▁Sponsor	-9097
▁Systmes	-9098
▁Working	-9099
▁accoung	-9100
▁actress	-9101
▁aiports	-9102
▁allegry	-9103
▁already	-9104
▁amongst	-9105
▁aritist	-9106
▁arrange	-9107
▁batters	-9108
▁billion	-9109
▁burdens	-9110
▁cameras	-9111
▁capable	-9112
▁certain	-9113
▁coached	-9114
▁colored	-9115
▁colours	-9116
▁columns	-9117
▁comapny	-9118
▁compute	-9119
▁consume	-9120
▁damange	-9121
▁decript	-9122
▁doctors	-9123
▁donated	-9124
▁driving	-9125
▁exceeds	-9126
▁failure	-9127
▁finally	-9128
▁forname	-9129
▁forward	-9130
▁interch	-9131
▁involve	-9132
▁leagues	-9133
▁leaving	-9134
▁letters	-9135
▁license	-9136
▁mailing	-9137
▁majored	-9138
▁mascots	-9139
▁masters	-9140
▁minumum	-9141
▁moviest	-9142
▁museums	-9143
▁nursing	-9144
▁occured	-9145
▁orderes	-9146
▁peoples	-9147
▁piloted	-9148
▁reports	-9149
▁reverse	-9150
▁scoring	-9151
▁sources	-9152
▁systems	-9153
6-01-01??	-9154
Retailing	-9155
Wisconsin	-9156
activator	-9157
actresses	-9158
campaigns	-9159
dlocation	-9160
dribbling	-9161
electoral	-9162
esponding	-9163
nominated	-9164
▁1000000.	-9165
▁1000000?	-9166
▁4000000.	-9167
▁4500000.	-9168
▁4500000?	-9169
▁Amersham	-9170
▁Benefits	-9171
▁Benjamin	-9172
▁Britanny	-9173
▁Budgeted	-9174
▁Business	-9175
▁Chiltern	-9176
▁Cleavant	-9177
▁Illinois	-9178
▁Lifespan	-9179
▁Mortgage	-9180
▁Nicholas	-9181
▁Shanghai	-9182
▁Sponsors	-9183
▁TEACHERS	-9184
▁accesses	-9185
▁accident	-9186
▁achieved	-9187
▁acquired	-9188
▁aicrafts	-9189
▁american	-9190
▁anywhere	-9191
▁aperture	-9192
▁archtect	-9193
▁ascended	-9194
▁averaged	-9195
▁becoming	-9196
▁benefits	-9197
▁capitals	-9198
▁centered	-9199
▁climbing	-9200
▁combined	-9201
▁crossing	-9202
▁datetime	-9203
▁designed	-9204
▁diffrent	-9205
▁discount	-9206
▁disposed	-9207
▁employed	-9208
▁flagship	-9209
▁follower	-9210
▁founding	-9211
▁function	-9212
▁funiture	-9213
▁furthest	-9214
▁heaviest	-9215
▁hispanic	-9216
▁injuries	-9217
▁lengthes	-9218
▁maintain	-9219
▁majority	-9220
▁measured	-9221
▁medcines	-9222
▁normally	-9223
▁numbered	-9224
▁observed	-9225
▁offering	-9226
▁operates	-9227
▁ordering	-9228
▁possibly	-9229
▁previous	-9230
▁rankings	-9231
▁registed	-9232
▁rejected	-9233
▁relation	-9234
▁reversed	-9235
▁sponsors	-9236
▁subjects	-9237
▁suffered	-9238
▁supports	-9239
▁visiting	-9240
▁visitors	-9241
▁vocables	-9242
Decoration	-9243
percentage	-9244
▁2,000,000	-9245
▁ADDRESSES	-9246
▁Dependent	-9247
▁Directors	-9248
▁Electoral	-9249
▁Gorgoroth	-9250
▁Guruvayur	-9251
▁Languages	-9252
▁Louisiana	-9253
▁Mendelian	-9254
▁Miramichi	-9255
▁PURCHASES	-9256
▁Professor	-9257
▁Wisconsin	-9258
▁accomdate	-9259
▁according	-9260
▁activator	-9261
▁activitor	-9262
▁affecting	-9263
▁airplanes	-9264
▁associate	-9265
▁audiences	-9266
▁baketball	-9267
▁beginning	-9268
▁browswers	-9269
▁character	-9270
▁climbined	-9271
▁collected	-9272
▁complains	-9273
▁concluded	-9274
▁contained	-9275
▁continues	-9276
▁countains	-9277
▁custoemrs	-9278
▁deparment	-9279
▁dribbling	-9280
▁electoral	-9281
▁exceeding	-9282
▁existence	-9283
▁generated	-9284
▁graduated	-9285
▁graduates	-9286
▁hispanics	-9287
▁histories	-9288
▁indstries	-9289
▁instances	-9290
▁lecturers	-9291
▁lifespans	-9292
▁mentioned	-9293
▁originate	-9294
▁practiced	-9295
▁presented	-9296
▁progrects	-9297
▁prominent	-9298
▁receieved	-9299
▁recoreded	-9300
▁retailing	-9301
▁semeseter	-9302
▁spielberg	-9303
▁succeeded	-9304
▁summaries	-9305
▁typically	-9306
▁uncertain	-9307
▁uniformed	-9308
▁usernames	-9309
▁victories	-9310
▁visiblity	-9311
Publication	-9312
ResTypeName	-9313
participant	-9314
partitionid	-9315
▁1986-11-13	-9316
▁ASSESSMENT	-9317
▁Blackville	-9318
▁CONNECTION	-9319
▁Midfielder	-9320
▁Passengers	-9321
▁accoutning	-9322
▁appearring	-9323
▁birthdates	-9324
▁complained	-9325
▁conferrred	-9326
▁connection	-9327
▁createdate	-9328
▁cumulative	-9329
▁decoration	-9330
▁deliveries	-9331
▁deparments	-9332
▁dependents	-9333
▁everything	-9334
▁experience	-9335
▁foundation	-9336
▁friendship	-9337
▁gradepoint	-9338
▁inhibitors	-9339
▁midfielder	-9340
▁outsanding	-9341
▁production	-9342
▁properties	-9343
▁proportion	-9344
▁registries	-9345
▁structures	-9346
▁successful	-9347
▁supporting	-9348
▁treatments	-9349
▁unaffected	-9350
▁voluptatem	-9351
Overpayments	-9352
Pennsylvania	-9353
availability	-9354
interchanges	-9355
shareholding	-9356
▁1986-11-13.	-9357
▁1986-11-13?	-9358
▁2000-01-01.	-9359
▁2000-01-01?	-9360
▁2002-06-21.	-9361
▁2010-01-01.	-9362
▁2010-01-01?	-9363
▁Affirmative	-9364
▁Amisulpride	-9365
▁Bangladeshi	-9366
▁Collectible	-9367
▁Inheritance	-9368
▁Provisional	-9369
▁ascendingly	-9370
▁assignments	-9371
▁attendnance	-9372
▁authorities	-9373
▁collectible	-9374
▁commissions	-9375
▁contributed	-9376
▁decriptions	-9377
▁descennding	-9378
▁established	-9379
▁headquarted	-9380
▁instructure	-9381
▁interchange	-9382
▁manufacture	-9383
▁measuerment	-9384
▁nominations	-9385
▁occupations	-9386
▁partitionid	-9387
▁represented	-9388
▁researchers	-9389
▁Applications	-9390
▁Interanation	-9391
▁Mergenthaler	-9392
▁ObjectNumber	-9393
▁construction	-9394
▁coresponding	-9395
▁incorporated	-9396
▁manufactures	-9397
▁measurements	-9398
▁overpayments	-9399
▁shareholding	-9400
▁specifically	-9401
560596484842'.	-9402
▁Organizations	-9403
▁availablility	-9404
▁lexicographic	-9405
▁manufacturing	-9406
▁4560596484842?	-9407
▁charactersitic	-9408
▁lexicographical	-9409
"%	-9410
"4	-9411
"5	-9412
'%	-9413
'1	-9414
*)	-9415
,0	-9416
-5	-9417
.3	-9418
.8	-9419
.9	-9420
05	-9421
08	-9422
1-	-9423
2-	-9424
22	-9425
2;	-9426
36	-9427
4,	-9428
4-	-9429
45	-9430
4;	-9431
4?	-9432
55	-9433
56	-9434
5;	-9435
6"	-9436
6%	-9437
6)	-9438
89	-9439
8?	-9440
9'	-9441
9.	-9442
95	-9443
98	-9444
>=	-9445
??	-9446
AA	-9447
AN	-9448
Aa	-9449
Ae	-9450
Ai	-9451
Au	-9452
Aw	-9453
BA	-9454
BE	-9455
BL	-9456
BY	-9457
Bl	-9458
Bo	-9459
Bu	-9460
CL	-9461
CU	-9462
Ca	-9463
Ce	-9464
Cr	-9465
Cu	-9466
DI	-9467
DR	-9468
Di	-9469
Do	-9470
Ds	-9471
EA	-9472
EC	-9473
EG	-9474
EX	-9475
Et	-9476
FD	-9477
FF	-9478
FI	-9479
FN	-9480
FR	-9481
Fo	-9482
Fu	-9483
GE	-9484
GP	-9485
GR	-9486
GU	-9487
Gi	-9488
Gl	-9489
Hi	-9490
Hu	-9491
IH	-9492
IK	-9493
IO	-9494
IX	-9495
Is	-9496
JA	-9497
JE	-9498
JO	-9499
1;	-9500
38	-9501
<=	-9502
Ac	-9503
Ag	-9504
Ho	-9505
Je	-9506
KW	-9507
Ka	-9508
Ke	-9509
Ku	-9510
Ky	-9511
LI	-9512
LO	-9513
Li	-9514
Ln	-9515
Lu	-9516
MU	-9517
Mo	-9518
NC	-9519
NE	-9520
NI	-9521
NR	-9522
Na	-9523
Nu	-9524
OI	-9525
Ob	-9526
Ol	-9527
Op	-9528
PH	-9529
PO	-9530
PT	-9531
Pa	-9532
Pe	-9533
Pi	-9534
Pl	-9535
Pr	-9536
Pu	-9537
RC	-9538
RD	-9539
RF	-9540
RI	-9541
RY	-9542
Ra	-9543
Ru	-9544
SC	-9545
SE	-9546
SI	-9547
SM	-9548
ST	-9549
Sa	-9550
Sk	-9551
Sm	-9552
Sq	-9553
TA	-9554
TH	-9555
TI	-9556
TT	-9557
TU	-9558
TY	-9559
UI	-9560
UN	-9561
VE	-9562
Va	-9563
Vo	-9564
WH	-9565
WI	-9566
Wh	-9567
YE	-9568
YP	-9569
YY	-9570
Yo	-9571
aT	-9572
aj	-9573
ax	-9574
ba	-9575
bc	-9576
bm	-9577
bn	-9578
ca	-9579
cc	-9580
cr	-9581
cu	-9582
dT	-9583
da	-9584
dc	-9585
dd	-9586
di	-9587
dr	-9588
ds	-9589
dv	-9590
eP	-9591
eg	-9592
eh	-9593
ei	-9594
eo	-9595
ep	-9596
ev	-9597
fa	-9598
fr	-9599
'2	-9600
0;	-9601
86	-9602
CN	-9603
Fl	-9604
Fn	-9605
Fr	-9606
HI	-9607
HK	-9608
RM	-9609
TM	-9610
Ut	-9611
VO	-9612
cN	-9613
dg	-9614
dm	-9615
dq	-9616
fs	-9617
fu	-9618
gC	-9619
gI	-9620
ga	-9621
gi	-9622
gs	-9623
gt	-9624
gu	-9625
ha	-9626
hl	-9627
hm	-9628
hr	-9629
hs	-9630
ht	-9631
hu	-9632
hy	-9633
iF	-9634
ih	-9635
ij	-9636
iu	-9637
iw	-9638
ja	-9639
je	-9640
ji	-9641
jo	-9642
kO	-9643
ki	-9644
kn	-9645
kv	-9646
ky	-9647
lb	-9648
lk	-9649
lm	-9650
lp	-9651
ls	-9652
lt	-9653
mI	-9654
mb	-9655
md	-9656
mg	-9657
mn	-9658
mo	-9659
ms	-9660
mt	-9661
mu	-9662
nF	-9663
na	-9664
nc	-9665
nf	-9666
ni	-9667
nj	-9668
nk	-9669
nn	-9670
nr	-9671
nu	-9672
nv	-9673
oa	-9674
oi	-9675
oj	-9676
oy	-9677
pI	-9678
pN	-9679
pm	-9680
po	-9681
pp	-9682
ps	-9683
pu	-9684
rS	-9685
rd	-9686
rg	-9687
rk	-9688
rl	-9689
rm	-9690
rp	-9691
rr	-9692
rv	-9693
rw	-9694
sN	-9695
sf	-9696
si	-9697
sm	-9698
sp	-9699
24	-9700
3-	-9701
32	-9702
4%	-9703
5-	-9704
Ab	-9705
Ba	-9706
CS	-9707
GS	-9708
Ir	-9709
ME	-9710
PL	-9711
Po	-9712
TC	-9713
TO	-9714
TR	-9715
bs	-9716
cI	-9717
cs	-9718
dt	-9719
dy	-9720
fl	-9721
fn	-9722
gm	-9723
ln	-9724
lv	-9725
nz	-9726
pP	-9727
rI	-9728
rf	-9729
sI	-9730
sr	-9731
sv	-9732
sw	-9733
tR	-9734
tb	-9735
tc	-9736
tf	-9737
tg	-9738
ti	-9739
tm	-9740
tn	-9741
ts	-9742
tu	-9743
tw	-9744
tz	-9745
uI	-9746
ua	-9747
ug	-9748
ui	-9749
uo	-9750
va	-9751
vg	-9752
vp	-9753
vs	-9754
wa	-9755
wi	-9756
wn	-9757
wo	-9758
wr	-9759
xO	-9760
xc	-9761
xe	-9762
xf	-9763
xh	-9764
xi	-9765
xo	-9766
xp	-9767
xx	-9768
yA	-9769
yI	-9770
yT	-9771
yu	-9772
yw	-9773
zi	-9774
zt	-9775
▁q	-9776
0".	-9777
0-2	-9778
00;	-9779
01.	-9780
02.	-9781
03.	-9782
100	-9783
15.	-9784
3.8	-9785
338	-9786
63.	-9787
8"?	-9788
800	-9789
App	-9790
Ari	-9791
BRO	-9792
Ban	-9793
Bio	-9794
Bla	-9795
Boe	-9796
Bra	-9797
CHS	-9798
COR	-9799
02	-9800
21	-9801
23	-9802
3;	-9803
BR	-9804
BU	-9805
CC	-9806
Gy	-9807
It	-9808
Ja	-9809
Jo	-9810
LL	-9811
LS	-9812
LT	-9813
SW	-9814
TS	-9815
Ti	-9816
Tu	-9817
Wo	-9818
aw	-9819
bj	-9820
gd	-9821
hd	-9822
iq	-9823
mN	-9824
pk	-9825
rb	-9826
ws	-9827
yb	-9828
yi	-9829
yt	-9830
za	-9831
1.8	-9832
ACU	-9833
Ast	-9834
CTI	-9835
Cap	-9836
Col	-9837
Cri	-9838
Cyc	-9839
Dav	-9840
Def	-9841
Doc	-9842
ELI	-9843
ENG	-9844
ERA	-9845
ERE	-9846
ERO	-9847
Fat	-9848
Fel	-9849
GER	-9850
Gat	-9851
Ger	-9852
Gro	-9853
HAR	-9854
Han	-9855
IDE	-9856
IND	-9857
INV	-9858
ITI	-9859
Jou	-9860
Kat	-9861
Lan	-9862
Les	-9863
Lot	-9864
Lou	-9865
Lud	-9866
Men	-9867
Mil	-9868
Nat	-9869
Nic	-9870
Nor	-9871
Not	-9872
ONN	-9873
Ope	-9874
Oth	-9875
PEL	-9876
PRO	-9877
Pal	-9878
Pic	-9879
RIL	-9880
ROD	-9881
RRO	-9882
RSE	-9883
Ran	-9884
SAA	-9885
TEL	-9886
TRO	-9887
UCT	-9888
UMS	-9889
VER	-9890
Val	-9891
Vid	-9892
Vot	-9893
Wre	-9894
aba	-9895
ace	-9896
ads	-9897
ala	-9898
anj	-9899
"1	-9900
"6	-9901
"8	-9902
04	-9903
14	-9904
40	-9905
85	-9906
CI	-9907
Ci	-9908
DN	-9909
EV	-9910
El	-9911
Gu	-9912
LN	-9913
Me	-9914
Mu	-9915
OW	-9916
Oc	-9917
RK	-9918
RN	-9919
aa	-9920
eI	-9921
eb	-9922
eq	-9923
gl	-9924
gp	-9925
ii	-9926
ju	-9927
lw	-9928
nm	-9929
tI	-9930
tN	-9931
wm	-9932
ya	-9933
62.	-9934
Ame	-9935
GRO	-9936
Hir	-9937
Jon	-9938
Pho	-9939
ade	-9940
app	-9941
aro	-9942
atc	-9943
ava	-9944
ayn	-9945
bac	-9946
bde	-9947
bid	-9948
bon	-9949
bor	-9950
cer	-9951
cha	-9952
cks	-9953
ckv	-9954
cte	-9955
cts	-9956
dal	-9957
dic	-9958
dul	-9959
eID	-9960
eId	-9961
ean	-9962
edi	-9963
eit	-9964
ems	-9965
ena	-9966
eon	-9967
erC	-9968
erI	-9969
era	-9970
erd	-9971
err	-9972
esI	-9973
etw	-9974
fam	-9975
fic	-9976
fit	-9977
fla	-9978
fou	-9979
fri	-9980
gav	-9981
gel	-9982
gin	-9983
gir	-9984
gis	-9985
gon	-9986
gor	-9987
hal	-9988
hat	-9989
hes	-9990
hir	-9991
hoc	-9992
hon	-9993
hoo	-9994
idd	-9995
idi	-9996
idt	-9997
ien	-9998
ier	-9999
26	-10000
42	-10001
48	-10002
80	-10003
94	-10004
AD	-10005
BO	-10006
Bi	-10007
CM	-10008
DL	-10009
GD	-10010
HB	-10011
HU	-10012
IF	-10013
KI	-10014
MS	-10015
NV	-10016
OD	-10017
OO	-10018
PC	-10019
PR	-10020
RR	-10021
Ry	-10022
Sy	-10023
UC	-10024
Wr	-10025
YC	-10026
Ye	-10027
bd	-10028
dl	-10029
dn	-10030
dw	-10031
kc	-10032
kf	-10033
nh	-10034
nl	-10035
pc	-10036
xa	-10037
Are	-10038
CES	-10039
Ebb	-10040
GEL	-10041
Int	-10042
Sou	-10043
Vol	-10044
acy	-10045
anu	-10046
arn	-10047
bro	-10048
bud	-10049
dor	-10050
ece	-10051
fal	-10052
gol	-10053
iev	-10054
ife	-10055
igg	-10056
ilw	-10057
ims	-10058
inf	-10059
iol	-10060
irt	-10061
ivi	-10062
jer	-10063
kal	-10064
ket	-10065
kol	-10066
lac	-10067
lee	-10068
lev	-10069
lie	-10070
lla	-10071
lme	-10072
lum	-10073
mac	-10074
mei	-10075
mel	-10076
met	-10077
mic	-10078
mil	-10079
mis	-10080
mit	-10081
mor	-10082
nat	-10083
ndy	-10084
nee	-10085
net	-10086
nge	-10087
non	-10088
ntI	-10089
ntl	-10090
nto	-10091
nue	-10092
obh	-10093
oci	-10094
oct	-10095
oen	-10096
ofe	-10097
omN	-10098
onc	-10099
"2	-10100
)"	-10101
0"	-10102
0'	-10103
0)	-10104
03	-10105
35	-10106
46	-10107
6-	-10108
61	-10109
8-	-10110
9-	-10111
Br	-10112
Du	-10113
Ea	-10114
Eb	-10115
Ev	-10116
Ga	-10117
Go	-10118
Ju	-10119
Ki	-10120
Kn	-10121
MB	-10122
MO	-10123
NU	-10124
Ni	-10125
Oh	-10126
Ot	-10127
Ps	-10128
Ri	-10129
UT	-10130
Ue	-10131
Ve	-10132
Wa	-10133
az	-10134
bw	-10135
kI	-10136
kl	-10137
ko	-10138
ox	-10139
pg	-10140
uy	-10141
uz	-10142
yr	-10143
zh	-10144
-05	-10145
hin	-10146
itP	-10147
lau	-10148
ndn	-10149
nti	-10150
onf	-10151
oni	-10152
onl	-10153
opl	-10154
orS	-10155
ora	-10156
ori	-10157
orl	-10158
orp	-10159
oup	-10160
pId	-10161
pal	-10162
pas	-10163
pec	-10164
pha	-10165
pho	-10166
pic	-10167
pil	-10168
pip	-10169
pme	-10170
pou	-10171
pub	-10172
qua	-10173
rag	-10174
rat	-10175
reI	-10176
reh	-10177
rei	-10178
rel	-10179
req	-10180
ret	-10181
rev	-10182
rig	-10183
rix	-10184
roc	-10185
rog	-10186
roj	-10187
roo	-10188
rri	-10189
seP	-10190
sid	-10191
spe	-10192
ssu	-10193
stN	-10194
stP	-10195
ste	-10196
sts	-10197
sty	-10198
sul	-10199
"0	-10200
"3	-10201
"9	-10202
%5	-10203
%6	-10204
0-	-10205
2%	-10206
5%	-10207
6.	-10208
66	-10209
8.	-10210
88	-10211
92	-10212
93	-10213
Af	-10214
Ec	-10215
Er	-10216
Gn	-10217
IB	-10218
Ic	-10219
Ji	-10220
NA	-10221
RP	-10222
SD	-10223
SP	-10224
Si	-10225
Tr	-10226
Ya	-10227
dh	-10228
ej	-10229
iB	-10230
ka	-10231
my	-10232
rC	-10233
tP	-10234
wl	-10235
zl	-10236
▁%	-10237
11.	-10238
92.	-10239
Bin	-10240
FOR	-10241
ITE	-10242
Lam	-10243
Mis	-10244
ato	-10245
bir	-10246
enm	-10247
nel	-10248
sum	-10249
tan	-10250
tay	-10251
tee	-10252
tes	-10253
tex	-10254
thd	-10255
ths	-10256
tic	-10257
tif	-10258
tin	-10259
tme	-10260
tow	-10261
tro	-10262
tte	-10263
uar	-10264
uat	-10265
ulp	-10266
ums	-10267
uns	-10268
ura	-10269
uru	-10270
usa	-10271
vem	-10272
wed	-10273
wis	-10274
xel	-10275
xts	-10276
yat	-10277
yed	-10278
yee	-10279
yin	-10280
yor	-10281
zer	-10282
zon	-10283
zte	-10284
▁'2	-10285
▁'5	-10286
▁-5	-10287
▁AC	-10288
▁AL	-10289
▁AV	-10290
▁Ac	-10291
▁Ad	-10292
▁Ag	-10293
▁Ai	-10294
▁Av	-10295
▁BA	-10296
▁BL	-10297
▁BO	-10298
▁CR	-10299
9;	-10300
EI	-10301
EY	-10302
Eg	-10303
Eu	-10304
GO	-10305
IE	-10306
IG	-10307
KA	-10308
Kh	-10309
MT	-10310
OV	-10311
Ou	-10312
PI	-10313
RG	-10314
Ug	-10315
WA	-10316
WS	-10317
df	-10318
km	-10319
lg	-10320
qn	-10321
sg	-10322
uh	-10323
zo	-10324
Ale	-10325
CHR	-10326
Gon	-10327
Kil	-10328
NER	-10329
Rac	-10330
Rat	-10331
SID	-10332
alu	-10333
arc	-10334
ein	-10335
ene	-10336
erc	-10337
hys	-10338
mpu	-10339
oca	-10340
rob	-10341
tst	-10342
wic	-10343
yer	-10344
▁DE	-10345
▁DI	-10346
▁DP	-10347
▁EL	-10348
▁EX	-10349
▁Fu	-10350
▁GO	-10351
▁GR	-10352
▁Gi	-10353
▁HA	-10354
▁Ho	-10355
▁JE	-10356
▁Ja	-10357
▁Jo	-10358
▁KA	-10359
▁LN	-10360
▁MT	-10361
▁MU	-10362
▁Me	-10363
▁OM	-10364
▁Oc	-10365
▁Pa	-10366
▁Po	-10367
▁Ru	-10368
▁SA	-10369
▁SH	-10370
▁SS	-10371
▁Sa	-10372
▁Sm	-10373
▁So	-10374
▁Sq	-10375
▁TE	-10376
▁TY	-10377
▁Ta	-10378
▁To	-10379
▁Tu	-10380
▁Ty	-10381
▁WH	-10382
▁Wi	-10383
▁Wo	-10384
▁Wr	-10385
▁Ye	-10386
▁am	-10387
▁aw	-10388
▁cN	-10389
▁ce	-10390
▁ci	-10391
▁cm	-10392
▁cr	-10393
▁cs	-10394
▁el	-10395
▁fr	-10396
▁gp	-10397
▁mg	-10398
▁mi	-10399
''	-10400
'4	-10401
2'	-10402
3,	-10403
39	-10404
4'	-10405
53	-10406
58	-10407
6'	-10408
63	-10409
65	-10410
8'	-10411
8)	-10412
83	-10413
8;	-10414
Av	-10415
DV	-10416
Il	-10417
KL	-10418
Mc	-10419
Ns	-10420
Oi	-10421
cE	-10422
db	-10423
dz	-10424
fg	-10425
nM	-10426
sl	-10427
15"	-10428
18.	-10429
300	-10430
NTS	-10431
eor	-10432
erf	-10433
gia	-10434
gla	-10435
irb	-10436
llu	-10437
mps	-10438
oad	-10439
reg	-10440
rew	-10441
rin	-10442
sta	-10443
tas	-10444
tem	-10445
tur	-10446
yri	-10447
▁Ti	-10448
▁ev	-10449
▁na	-10450
▁ot	-10451
▁ou	-10452
▁ow	-10453
▁pN	-10454
▁pa	-10455
▁pl	-10456
▁ru	-10457
▁sn	-10458
▁tu	-10459
▁ve	-10460
000?	-10461
002.	-10462
2-06	-10463
2003	-10464
2009	-10465
21"?	-10466
300?	-10467
6059	-10468
800"	-10469
9-01	-10470
9-03	-10471
9000	-10472
ACUL	-10473
BROM	-10474
Bart	-10475
Came	-10476
Chil	-10477
Comm	-10478
Cred	-10479
Cust	-10480
DAMI	-10481
DENT	-10482
DERS	-10483
Dame	-10484
Dubl	-10485
ESID	-10486
Fahe	-10487
Feat	-10488
Fram	-10489
Furn	-10490
HEbo	-10491
Hart	-10492
JECT	-10493
Jame	-10494
LECT	-10495
List	-10496
Mont	-10497
NECT	-10498
OMER	-10499
'5	-10500
'8	-10501
.%	-10502
0%	-10503
1_	-10504
2,	-10505
5,	-10506
6,	-10507
8,	-10508
91	-10509
AX	-10510
Bd	-10511
Dn	-10512
EU	-10513
Ef	-10514
Es	-10515
FO	-10516
FT	-10517
OB	-10518
Ox	-10519
SH	-10520
Sn	-10521
UA	-10522
UB	-10523
Wy	-10524
YA	-10525
bh	-10526
cq	-10527
dE	-10528
eD	-10529
eN	-10530
ez	-10531
gD	-10532
gN	-10533
hD	-10534
kw	-10535
lC	-10536
pn	-10537
sT	-10538
tp	-10539
yC	-10540
Cit	-10541
Lin	-10542
Mai	-10543
ROO	-10544
Tre	-10545
aci	-10546
ais	-10547
can	-10548
cif	-10549
dre	-10550
eri	-10551
iat	-10552
mpe	-10553
orc	-10554
ord	-10555
sou	-10556
stI	-10557
thD	-10558
val	-10559
vin	-10560
wer	-10561
▁Fo	-10562
▁GP	-10563
▁HO	-10564
▁Oi	-10565
▁ad	-10566
▁cy	-10567
▁ga	-10568
ONTH	-10569
OTES	-10570
Oran	-10571
Pilo	-10572
RAPE	-10573
RING	-10574
Rach	-10575
Requ	-10576
Rest	-10577
SECT	-10578
Sett	-10579
Sout	-10580
Stor	-10581
Supp	-10582
TERS	-10583
TING	-10584
VENT	-10585
acit	-10586
acro	-10587
acte	-10588
aint	-10589
alay	-10590
alit	-10591
aliz	-10592
alla	-10593
ameI	-10594
amel	-10595
ampa	-10596
ampl	-10597
anas	-10598
anis	-10599
Ig	-10600
NN	-10601
Ov	-10602
RL	-10603
SO	-10604
hc	-10605
lr	-10606
mr	-10607
qa	-10608
4-2	-10609
518	-10610
6%"	-10611
Aer	-10612
Fra	-10613
Pol	-10614
You	-10615
bat	-10616
bst	-10617
etb	-10618
gst	-10619
ila	-10620
inl	-10621
meI	-10622
mea	-10623
mem	-10624
meo	-10625
mme	-10626
mst	-10627
nme	-10628
nst	-10629
oti	-10630
pac	-10631
rme	-10632
rst	-10633
sme	-10634
sst	-10635
ssw	-10636
stc	-10637
sti	-10638
stl	-10639
stn	-10640
sto	-10641
tai	-10642
wme	-10643
yme	-10644
▁Cr	-10645
▁GD	-10646
▁Ot	-10647
▁SE	-10648
▁Sy	-10649
▁TA	-10650
▁TI	-10651
▁TR	-10652
▁Tr	-10653
▁pP	-10654
▁ti	-10655
▁ty	-10656
ECTI	-10657
Gymn	-10658
Wisc	-10659
anad	-10660
anle	-10661
anuf	-10662
arce	-10663
arde	-10664
arly	-10665
arme	-10666
artf	-10667
arti	-10668
asep	-10669
asid	-10670
asta	-10671
asts	-10672
atal	-10673
atel	-10674
ateu	-10675
athr	-10676
atit	-10677
atme	-10678
bing	-10679
bran	-10680
bums	-10681
burg	-10682
ceed	-10683
cend	-10684
cher	-10685
chis	-10686
clos	-10687
ctid	-10688
ctin	-10689
dley	-10690
dust	-10691
eame	-10692
eber	-10693
ectN	-10694
edat	-10695
edic	-10696
edro	-10697
eers	-10698
eing	-10699
Ant	-10700
Dat	-10701
ENC	-10702
Ent	-10703
FRO	-10704
Inj	-10705
Lat	-10706
NRO	-10707
ONS	-10708
ONT	-10709
Pat	-10710
ROU	-10711
Vat	-10712
Wat	-10713
aly	-10714
atf	-10715
ati	-10716
atr	-10717
atu	-10718
bou	-10719
cat	-10720
dat	-10721
dnt	-10722
eat	-10723
ero	-10724
esT	-10725
esu	-10726
fat	-10727
gat	-10728
hid	-10729
hum	-10730
idg	-10731
itt	-10732
jin	-10733
lar	-10734
mat	-10735
nte	-10736
ntr	-10737
ntu	-10738
nty	-10739
ott	-10740
pat	-10741
ply	-10742
rer	-10743
sat	-10744
unt	-10745
ush	-10746
vsk	-10747
ynt	-10748
zat	-10749
▁Af	-10750
▁CS	-10751
▁Ju	-10752
▁af	-10753
▁ag	-10754
▁ai	-10755
▁au	-10756
001.	-10757
10-2	-10758
300.	-10759
Cour	-10760
Psyc	-10761
anat	-10762
aron	-10763
arre	-10764
bour	-10765
eliv	-10766
ende	-10767
endl	-10768
enif	-10769
enti	-10770
epen	-10771
erag	-10772
eral	-10773
erce	-10774
eren	-10775
ergo	-10776
eric	-10777
erin	-10778
erit	-10779
erme	-10780
erpe	-10781
erre	-10782
etal	-10783
eted	-10784
etho	-10785
etic	-10786
etit	-10787
ever	-10788
exas	-10789
feat	-10790
fers	-10791
fest	-10792
gage	-10793
gers	-10794
gies	-10795
goal	-10796
gory	-10797
hain	-10798
hang	-10799
80.	-10800
Ber	-10801
CTE	-10802
Cal	-10803
Cer	-10804
Kar	-10805
Ker	-10806
Lon	-10807
Mer	-10808
NCT	-10809
OIS	-10810
Ser	-10811
Vil	-10812
aer	-10813
cct	-10814
cem	-10815
eer	-10816
erb	-10817
erl	-10818
erp	-10819
erw	-10820
esi	-10821
idf	-10822
ilu	-10823
inc	-10824
ira	-10825
oer	-10826
rie	-10827
sep	-10828
sse	-10829
xer	-10830
▁DN	-10831
▁FA	-10832
▁FD	-10833
▁FI	-10834
▁FT	-10835
▁Fa	-10836
▁Fi	-10837
▁Fl	-10838
▁Fn	-10839
▁Fr	-10840
▁It	-10841
▁No	-10842
▁OT	-10843
▁SO	-10844
▁SU	-10845
▁SW	-10846
▁Si	-10847
▁Sk	-10848
▁Sn	-10849
▁Su	-10850
▁eq	-10851
Maud	-10852
Nigh	-10853
PELL	-10854
amed	-10855
amei	-10856
ameo	-10857
amer	-10858
arry	-10859
erat	-10860
erst	-10861
gate	-10862
hare	-10863
hipp	-10864
hors	-10865
hrid	-10866
hrom	-10867
hust	-10868
iale	-10869
iano	-10870
icle	-10871
idat	-10872
idnt	-10873
ifes	-10874
igge	-10875
ighl	-10876
igit	-10877
ikes	-10878
ilit	-10879
ille	-10880
ilms	-10881
inat	-10882
indi	-10883
inds	-10884
ingD	-10885
ingd	-10886
ingt	-10887
inis	-10888
inor	-10889
ints	-10890
iona	-10891
iple	-10892
irme	-10893
isin	-10894
ista	-10895
iste	-10896
itan	-10897
ited	-10898
iter	-10899
686	-10900
Ben	-10901
Com	-10902
ELB	-10903
Kin	-10904
MOY	-10905
Vin	-10906
bin	-10907
cin	-10908
did	-10909
din	-10910
icl	-10911
inb	-10912
inh	-10913
inn	-10914
inu	-10915
inv	-10916
itu	-10917
kin	-10918
nin	-10919
onm	-10920
opi	-10921
pin	-10922
rej	-10923
sin	-10924
xin	-10925
▁'8	-10926
▁AA	-10927
▁AD	-10928
▁AI	-10929
▁AN	-10930
▁AP	-10931
▁AR	-10932
▁Aw	-10933
▁Bo	-10934
▁CN	-10935
▁DV	-10936
▁WI	-10937
▁Wy	-10938
▁cu	-10939
▁pe	-10940
ROME	-10941
ROML	-10942
anci	-10943
bate	-10944
berd	-10945
chit	-10946
deal	-10947
erid	-10948
icia	-10949
iner	-10950
inin	-10951
isal	-10952
itst	-10953
iums	-10954
iver	-10955
ivit	-10956
izer	-10957
jian	-10958
just	-10959
kins	-10960
lade	-10961
lage	-10962
lang	-10963
lars	-10964
lask	-10965
laun	-10966
layl	-10967
lege	-10968
leng	-10969
lest	-10970
liot	-10971
llar	-10972
lled	-10973
llin	-10974
lose	-10975
lymp	-10976
mach	-10977
mage	-10978
meid	-10979
meon	-10980
mest	-10981
mory	-10982
mpat	-10983
mpet	-10984
mpla	-10985
mple	-10986
mpon	-10987
nage	-10988
ndro	-10989
nger	-10990
nior	-10991
nore	-10992
nors	-10993
ntat	-10994
ntin	-10995
ntme	-10996
ntom	-10997
ntor	-10998
ntre	-10999
600	-11000
Cor	-11001
Dor	-11002
Fal	-11003
Fil	-11004
Gor	-11005
Gre	-11006
Hor	-11007
Kid	-11008
Kit	-11009
MIN	-11010
Mid	-11011
Ple	-11012
Son	-11013
Wid	-11014
Yor	-11015
cid	-11016
cou	-11017
deb	-11018
det	-11019
ept	-11020
gid	-11021
goo	-11022
got	-11023
idn	-11024
kIn	-11025
kid	-11026
lea	-11027
lid	-11028
loy	-11029
nid	-11030
nor	-11031
oid	-11032
onF	-11033
oor	-11034
oro	-11035
orr	-11036
orw	-11037
pid	-11038
rap	-11039
ril	-11040
rov	-11041
rse	-11042
sor	-11043
tid	-11044
tor	-11045
vid	-11046
wid	-11047
▁mI	-11048
-21'	-11049
Goog	-11050
Hour	-11051
Mill	-11052
Prog	-11053
ajor	-11054
ecor	-11055
isto	-11056
ners	-11057
ntid	-11058
ntri	-11059
ocab	-11060
ogra	-11061
olog	-11062
olou	-11063
olul	-11064
omId	-11065
omen	-11066
omin	-11067
ompo	-11068
onac	-11069
onds	-11070
ondz	-11071
oner	-11072
onge	-11073
onse	-11074
oodw	-11075
ooms	-11076
ootb	-11077
opic	-11078
oran	-11079
orat	-11080
orid	-11081
orin	-11082
oris	-11083
orks	-11084
orme	-11085
orph	-11086
orsh	-11087
orst	-11088
osit	-11089
osts	-11090
ourc	-11091
oves	-11092
pate	-11093
pear	-11094
pend	-11095
plor	-11096
pond	-11097
prec	-11098
ptan	-11099
21.	-11100
219	-11101
596	-11102
61.	-11103
Bre	-11104
CEP	-11105
Cou	-11106
Hon	-11107
Hou	-11108
Kob	-11109
Lys	-11110
Pre	-11111
Rou	-11112
Ton	-11113
esN	-11114
fre	-11115
hig	-11116
jou	-11117
lon	-11118
lou	-11119
lre	-11120
mou	-11121
onM	-11122
ono	-11123
oon	-11124
oss	-11125
oub	-11126
oug	-11127
oui	-11128
oul	-11129
pol	-11130
rec	-11131
rre	-11132
sit	-11133
tou	-11134
tre	-11135
won	-11136
wre	-11137
▁DR	-11138
▁Da	-11139
▁Lo	-11140
▁Pi	-11141
▁Wa	-11142
34".	-11143
ELBI	-11144
OMPU	-11145
erac	-11146
esid	-11147
fied	-11148
hiag	-11149
iths	-11150
jour	-11151
lubs	-11152
meas	-11153
mout	-11154
nton	-11155
oder	-11156
onat	-11157
onid	-11158
onst	-11159
orms	-11160
orre	-11161
prod	-11162
race	-11163
rail	-11164
ramm	-11165
rams	-11166
rang	-11167
read	-11168
rear	-11169
rele	-11170
reme	-11171
rent	-11172
resc	-11173
resp	-11174
rier	-11175
righ	-11176
rips	-11177
ript	-11178
rite	-11179
rity	-11180
rium	-11181
roof	-11182
rran	-11183
rust	-11184
ryou	-11185
sact	-11186
same	-11187
scho	-11188
scre	-11189
seas	-11190
sect	-11191
sell	-11192
seme	-11193
sers	-11194
shot	-11195
sion	-11196
sour	-11197
ssed	-11198
stag	-11199
00%	-11200
1'.	-11201
103	-11202
12.	-11203
22.	-11204
32.	-11205
42.	-11206
ERI	-11207
Gle	-11208
INO	-11209
KIN	-11210
MER	-11211
PER	-11212
RIN	-11213
TIN	-11214
YER	-11215
ani	-11216
cit	-11217
dea	-11218
dec	-11219
dee	-11220
def	-11221
deg	-11222
dem	-11223
dep	-11224
dev	-11225
ede	-11226
iff	-11227
iop	-11228
iou	-11229
iro	-11230
lde	-11231
lig	-11232
llo	-11233
mpo	-11234
nan	-11235
nde	-11236
ofi	-11237
olo	-11238
oof	-11239
pta	-11240
pte	-11241
rde	-11242
sof	-11243
xim	-11244
▁Hi	-11245
▁OW	-11246
▁Oh	-11247
▁Ou	-11248
5-01	-11249
CTER	-11250
ELIN	-11251
Mich	-11252
andl	-11253
ands	-11254
aral	-11255
deat	-11256
dent	-11257
etur	-11258
ewer	-11259
inde	-11260
lome	-11261
luis	-11262
ntly	-11263
orde	-11264
orit	-11265
sses	-11266
stal	-11267
stat	-11268
stid	-11269
stit	-11270
stme	-11271
ston	-11272
stor	-11273
stre	-11274
swim	-11275
tage	-11276
tart	-11277
tate	-11278
tees	-11279
teph	-11280
ting	-11281
tion	-11282
tled	-11283
tour	-11284
trib	-11285
ttri	-11286
uals	-11287
uant	-11288
uart	-11289
uber	-11290
ubid	-11291
ulty	-11292
univ	-11293
upan	-11294
urst	-11295
user	-11296
usic	-11297
vann	-11298
vele	-11299
Bal	-11300
Fan	-11301
Fri	-11302
LEN	-11303
Lew	-11304
Mot	-11305
Pan	-11306
Tit	-11307
ane	-11308
anf	-11309
anl	-11310
ano	-11311
apn	-11312
bar	-11313
dan	-11314
dit	-11315
esc	-11316
git	-11317
hit	-11318
ita	-11319
iti	-11320
itl	-11321
kil	-11322
lis	-11323
lit	-11324
oan	-11325
opy	-11326
pit	-11327
pra	-11328
san	-11329
tit	-11330
uit	-11331
vit	-11332
wit	-11333
xit	-11334
yal	-11335
zzl	-11336
▁26	-11337
▁br	-11338
INOR	-11339
Mone	-11340
Nanc	-11341
ande	-11342
anic	-11343
arkw	-11344
ctic	-11345
emas	-11346
emoc	-11347
eran	-11348
esou	-11349
essf	-11350
gary	-11351
ianf	-11352
idit	-11353
inan	-11354
init	-11355
itat	-11356
iton	-11357
lent	-11358
ntit	-11359
ofit	-11360
stan	-11361
usto	-11362
very	-11363
vise	-11364
vity	-11365
west	-11366
wich	-11367
worl	-11368
xing	-11369
ymou	-11370
youn	-11371
ypic	-11372
zole	-11373
▁192	-11374
▁ASS	-11375
▁Aer	-11376
▁Ali	-11377
▁Ame	-11378
▁Ant	-11379
▁Ari	-11380
▁Ast	-11381
▁Aut	-11382
▁Bal	-11383
▁Ban	-11384
▁Bel	-11385
▁Ber	-11386
▁Bir	-11387
▁Bur	-11388
▁CHR	-11389
▁CLA	-11390
▁Cal	-11391
▁Cap	-11392
▁Cer	-11393
▁Cit	-11394
▁Com	-11395
▁Cou	-11396
▁Cur	-11397
▁Dat	-11398
▁Deb	-11399
Chr	-11400
Des	-11401
Emp	-11402
Gar	-11403
Mic	-11404
Par	-11405
Rec	-11406
Sar	-11407
USP	-11408
War	-11409
adc	-11410
arf	-11411
arg	-11412
arl	-11413
arr	-11414
bes	-11415
car	-11416
cep	-11417
cti	-11418
ctu	-11419
dge	-11420
ees	-11421
esp	-11422
far	-11423
fes	-11424
fet	-11425
gar	-11426
har	-11427
hec	-11428
icy	-11429
mpt	-11430
nal	-11431
ndo	-11432
nes	-11433
nic	-11434
oar	-11435
oes	-11436
siz	-11437
slo	-11438
tar	-11439
ves	-11440
wal	-11441
xes	-11442
zes	-11443
▁eg	-11444
▁pi	-11445
▁pu	-11446
ERIS	-11447
Prod	-11448
anes	-11449
arid	-11450
arin	-11451
atar	-11452
ayID	-11453
bute	-11454
eres	-11455
eser	-11456
ffil	-11457
hler	-11458
istr	-11459
ites	-11460
itin	-11461
loye	-11462
ndin	-11463
ntry	-11464
ofes	-11465
oice	-11466
orad	-11467
orar	-11468
rees	-11469
▁Bei	-11470
▁Def	-11471
▁Des	-11472
▁Din	-11473
▁Div	-11474
▁Doc	-11475
▁Dra	-11476
▁Dub	-11477
▁Ele	-11478
▁FRO	-11479
▁Fac	-11480
▁Fil	-11481
▁Fos	-11482
▁Fou	-11483
▁Fri	-11484
▁Fur	-11485
▁GEN	-11486
▁Gal	-11487
▁Ger	-11488
▁Gla	-11489
▁Gle	-11490
▁Gol	-11491
▁Gon	-11492
▁Gor	-11493
▁Hal	-11494
▁Hir	-11495
▁Hou	-11496
▁Jer	-11497
▁Jol	-11498
▁Jon	-11499
006	-11500
62"	-11501
Alb	-11502
Bro	-11503
Cro	-11504
Dam	-11505
Dra	-11506
Ill	-11507
Inc	-11508
Psy	-11509
Tot	-11510
cro	-11511
ctI	-11512
ctN	-11513
ctl	-11514
dro	-11515
ffs	-11516
fro	-11517
gea	-11518
gro	-11519
hen	-11520
hro	-11521
mal	-11522
nct	-11523
nds	-11524
ndu	-11525
nro	-11526
otb	-11527
ras	-11528
roa	-11529
rop	-11530
rot	-11531
rox	-11532
sro	-11533
til	-11534
uff	-11535
wle	-11536
wro	-11537
▁BE	-11538
▁BU	-11539
▁Ba	-11540
▁Bd	-11541
▁Bl	-11542
▁Br	-11543
▁Bu	-11544
▁Gu	-11545
▁JO	-11546
▁Ji	-11547
▁fl	-11548
▁mu	-11549
▁wa	-11550
▁wi	-11551
200?	-11552
965?	-11553
CHER	-11554
Cler	-11555
cter	-11556
ctre	-11557
ione	-11558
lion	-11559
lues	-11560
mpan	-11561
once	-11562
orot	-11563
pens	-11564
rast	-11565
rese	-11566
rive	-11567
stro	-11568
▁Bro	-11569
▁Fro	-11570
▁KIR	-11571
▁Kit	-11572
▁Kob	-11573
▁Koh	-11574
▁LEI	-11575
▁LIK	-11576
▁LIT	-11577
▁Lac	-11578
▁Lan	-11579
▁Lat	-11580
▁Les	-11581
▁Lub	-11582
▁MAT	-11583
▁Mas	-11584
▁Mat	-11585
▁Nan	-11586
▁Nap	-11587
▁Nom	-11588
▁OND	-11589
▁PER	-11590
▁Pan	-11591
▁Pay	-11592
▁Pla	-11593
▁Pra	-11594
▁Pub	-11595
▁Pun	-11596
▁Rea	-11597
▁Rec	-11598
▁Rep	-11599
40.	-11600
Fed	-11601
Gal	-11602
Hal	-11603
Mal	-11604
Ros	-11605
Sal	-11606
Sho	-11607
Vie	-11608
Wal	-11609
Yal	-11610
adl	-11611
alC	-11612
alb	-11613
ali	-11614
bil	-11615
cho	-11616
gic	-11617
hiv	-11618
hom	-11619
hos	-11620
ici	-11621
icr	-11622
lic	-11623
lls	-11624
nda	-11625
ndi	-11626
ndl	-11627
nnd	-11628
oic	-11629
omb	-11630
raf	-11631
sal	-11632
sho	-11633
sic	-11634
tho	-11635
vic	-11636
▁fa	-11637
▁fo	-11638
▁fu	-11639
▁sw	-11640
ISTI	-11641
Stan	-11642
alan	-11643
alin	-11644
atho	-11645
fing	-11646
icat	-11647
icer	-11648
icin	-11649
inal	-11650
lant	-11651
leme	-11652
ndan	-11653
ndar	-11654
ndat	-11655
ndon	-11656
onal	-11657
ongs	-11658
reho	-11659
sors	-11660
uctu	-11661
uran	-11662
urra	-11663
yler	-11664
▁Bud	-11665
▁Car	-11666
▁Fal	-11667
▁Fel	-11668
▁PRO	-11669
▁Pol	-11670
▁Rod	-11671
▁Sal	-11672
▁Sar	-11673
▁Sce	-11674
▁Ser	-11675
▁Set	-11676
▁Sho	-11677
▁Sim	-11678
▁Sof	-11679
▁Son	-11680
▁Sor	-11681
▁Sou	-11682
▁Ste	-11683
▁Sur	-11684
▁TIM	-11685
▁Tit	-11686
▁Ton	-11687
▁Tot	-11688
▁Tou	-11689
▁Uen	-11690
▁Vin	-11691
▁Viv	-11692
▁Vot	-11693
▁WIN	-11694
▁Wal	-11695
▁Was	-11696
▁Wha	-11697
▁Whe	-11698
▁Win	-11699
,00	-11700
008	-11701
8-0	-11702
Dis	-11703
Ele	-11704
Fle	-11705
Joh	-11706
Kis	-11707
Lis	-11708
Vis	-11709
YAL	-11710
acu	-11711
cle	-11712
ffe	-11713
his	-11714
hle	-11715
ipp	-11716
isi	-11717
isp	-11718
isu	-11719
isv	-11720
lef	-11721
lem	-11722
lle	-11723
ois	-11724
sol	-11725
uis	-11726
ule	-11727
zil	-11728
▁"1	-11729
▁"5	-11730
▁Ha	-11731
▁Lu	-11732
▁Ug	-11733
▁da	-11734
▁dr	-11735
▁du	-11736
▁sk	-11737
▁sr	-11738
▁ss	-11739
Leon	-11740
Rodr	-11741
anks	-11742
atis	-11743
bers	-11744
dele	-11745
erse	-11746
ests	-11747
fall	-11748
hote	-11749
iceD	-11750
ipor	-11751
isat	-11752
isic	-11753
isor	-11754
omet	-11755
uvay	-11756
▁Kid	-11757
▁Wis	-11758
▁Wit	-11759
▁Wre	-11760
▁aft	-11761
▁alb	-11762
▁alp	-11763
▁als	-11764
▁ame	-11765
▁art	-11766
▁bec	-11767
▁bef	-11768
▁beh	-11769
▁bet	-11770
▁bir	-11771
▁bla	-11772
▁blo	-11773
▁cer	-11774
▁cin	-11775
▁cit	-11776
▁cle	-11777
▁cou	-11778
▁cro	-11779
▁cum	-11780
▁cur	-11781
▁deg	-11782
▁dep	-11783
▁div	-11784
▁dor	-11785
▁eac	-11786
▁eff	-11787
▁eng	-11788
▁enz	-11789
▁eve	-11790
▁exp	-11791
▁fal	-11792
▁fat	-11793
▁fil	-11794
▁fle	-11795
▁flo	-11796
▁fro	-11797
▁fun	-11798
▁gir	-11799
10-	-11800
Edm	-11801
Gla	-11802
His	-11803
ITO	-11804
Pla	-11805
RAN	-11806
Sil	-11807
Wis	-11808
cei	-11809
elo	-11810
ema	-11811
lab	-11812
lai	-11813
pla	-11814
sce	-11815
tep	-11816
tla	-11817
yla	-11818
▁Cu	-11819
▁Gr	-11820
▁UP	-11821
▁ba	-11822
▁bo	-11823
▁ea	-11824
▁ef	-11825
▁em	-11826
▁ht	-11827
▁hu	-11828
Aust	-11829
Dist	-11830
Hist	-11831
SELB	-11832
hist	-11833
hola	-11834
istI	-11835
itis	-11836
lain	-11837
ndam	-11838
sist	-11839
stim	-11840
stla	-11841
tist	-11842
ustr	-11843
xist	-11844
zona	-11845
▁Bla	-11846
▁Con	-11847
▁Fla	-11848
▁bat	-11849
▁bor	-11850
▁bro	-11851
▁eit	-11852
▁fla	-11853
▁foc	-11854
▁fur	-11855
▁hal	-11856
▁han	-11857
▁har	-11858
▁hor	-11859
▁hos	-11860
▁hou	-11861
▁inc	-11862
▁inf	-11863
▁inh	-11864
▁ins	-11865
▁inv	-11866
▁lef	-11867
▁les	-11868
▁lie	-11869
▁lin	-11870
▁maj	-11871
▁mal	-11872
▁mar	-11873
▁mat	-11874
▁met	-11875
▁mil	-11876
▁mis	-11877
▁mob	-11878
▁mon	-11879
▁mor	-11880
▁mul	-11881
▁nat	-11882
▁nic	-11883
▁nig	-11884
▁oft	-11885
▁onl	-11886
▁opp	-11887
▁pag	-11888
▁pas	-11889
▁pat	-11890
▁pho	-11891
▁pic	-11892
▁por	-11893
▁pou	-11894
▁pur	-11895
▁rea	-11896
▁rej	-11897
▁req	-11898
▁ret	-11899
Bel	-11900
Bud	-11901
Dum	-11902
Eff	-11903
Fir	-11904
SWE	-11905
Sus	-11906
dra	-11907
edt	-11908
eed	-11909
eum	-11910
gag	-11911
hed	-11912
lve	-11913
mum	-11914
ned	-11915
ols	-11916
umI	-11917
umb	-11918
umn	-11919
umu	-11920
ymp	-11921
▁CM	-11922
▁Do	-11923
▁HK	-11924
▁YE	-11925
▁gr	-11926
Alme	-11927
Dome	-11928
Fann	-11929
edto	-11930
ends	-11931
eome	-11932
esul	-11933
fran	-11934
ging	-11935
hing	-11936
igns	-11937
ingC	-11938
ingl	-11939
ingo	-11940
mast	-11941
miss	-11942
nity	-11943
oing	-11944
omed	-11945
omel	-11946
omes	-11947
orte	-11948
owle	-11949
pent	-11950
ppen	-11951
rock	-11952
some	-11953
uman	-11954
umin	-11955
umit	-11956
umme	-11957
wing	-11958
ynth	-11959
▁Vie	-11960
▁gol	-11961
▁rev	-11962
▁sal	-11963
▁san	-11964
▁sav	-11965
▁ser	-11966
▁sho	-11967
▁sid	-11968
▁sil	-11969
▁sin	-11970
▁sof	-11971
▁sol	-11972
▁son	-11973
▁sor	-11974
▁sou	-11975
▁sta	-11976
▁sto	-11977
▁str	-11978
▁sty	-11979
▁tak	-11980
▁tal	-11981
▁tar	-11982
▁ter	-11983
▁tha	-11984
▁thi	-11985
▁tho	-11986
▁thr	-11987
▁tic	-11988
▁ton	-11989
▁tou	-11990
▁tow	-11991
▁tun	-11992
▁tut	-11993
▁wal	-11994
▁wer	-11995
▁wit	-11996
▁wre	-11997
▁wro	-11998
▁yor	-11999
Eve	-12000
ITS	-12001
Mac	-12002
agu	-12003
edE	-12004
edT	-12005
edd	-12006
edh	-12007
geP	-12008
gep	-12009
gge	-12010
iag	-12011
ked	-12012
lli	-12013
llm	-12014
lly	-12015
nve	-12016
oge	-12017
pri	-12018
rge	-12019
sso	-12020
veh	-12021
vei	-12022
zed	-12023
▁(*	-12024
▁Ca	-12025
▁GE	-12026
▁Ga	-12027
▁LO	-12028
▁Li	-12029
▁Ly	-12030
-25.	-12031
Chic	-12032
Nick	-12033
aned	-12034
edit	-12035
enef	-12036
gend	-12037
gery	-12038
iced	-12039
idge	-12040
inve	-12041
iric	-12042
leve	-12043
llat	-12044
ller	-12045
llis	-12046
nted	-12047
odes	-12048
ourt	-12049
reID	-12050
reve	-12051
sted	-12052
trad	-12053
uple	-12054
▁Exx	-12055
▁Fed	-12056
▁GEL	-12057
▁GRO	-12058
▁Gat	-12059
▁Gre	-12060
▁Lin	-12061
▁Lis	-12062
▁Lon	-12063
▁Lou	-12064
▁Sec	-12065
▁VIC	-12066
▁Woo	-12067
▁che	-12068
▁phy	-12069
▁whc	-12070
-300.	-12071
40000	-12072
84842	-12073
9-03"	-12074
AVING	-12075
Anant	-12076
Andro	-12077
Arman	-12078
Canad	-12079
DECON	-12080
Datab	-12081
Dayan	-12082
Delet	-12083
ENGTH	-12084
ERFOR	-12085
ESULT	-12086
Exxon	-12087
HEbox	-12088
Houst	-12089
ISTIN	-12090
Liber	-12091
Louis	-12092
MPLOY	-12093
Miram	-12094
Mortg	-12095
Mount	-12096
OKING	-12097
OMERS	-12098
ONRAD	-12099
009	-12100
10?	-12101
2-0	-12102
500	-12103
Lac	-12104
Mov	-12105
Pas	-12106
acI	-12107
acq	-12108
blo	-12109
dlo	-12110
eac	-12111
fac	-12112
flo	-12113
ipa	-12114
los	-12115
mpa	-12116
mpl	-12117
oac	-12118
rik	-12119
toc	-12120
yam	-12121
▁DA	-12122
▁Di	-12123
▁Dr	-12124
▁Du	-12125
▁Ka	-12126
▁gy	-12127
▁ni	-12128
▁nu	-12129
CEPT	-12130
Kent	-12131
Mode	-12132
Stud	-12133
TION	-12134
aber	-12135
aces	-12136
allo	-12137
arts	-12138
artu	-12139
ehic	-12140
foun	-12141
holo	-12142
homp	-12143
inly	-12144
late	-12145
lber	-12146
lost	-12147
ober	-12148
obin	-12149
ofil	-12150
orce	-12151
reac	-12152
shle	-12153
stad	-12154
umId	-12155
xels	-12156
ysic	-12157
▁Dav	-12158
▁Don	-12159
▁Flo	-12160
▁Jac	-12161
▁Kil	-12162
▁Mir	-12163
▁ORD	-12164
▁bac	-12165
▁fac	-12166
▁mac	-12167
OTING	-12168
Olymp	-12169
Popul	-12170
RESID	-12171
ROLLE	-12172
ROYAL	-12173
RTIST	-12174
Repre	-12175
Solve	-12176
TRACH	-12177
TRODU	-12178
VELIN	-12179
Water	-12180
abase	-12181
abour	-12182
aches	-12183
acter	-12184
aders	-12185
aghan	-12186
aiwan	-12187
aking	-12188
alies	-12189
alist	-12190
ameID	-12191
ameid	-12192
ament	-12193
amesp	-12194
amich	-12195
anced	-12196
andle	-12197
aness	-12198
apers	-12199
00)	-12200
00,	-12201
001	-12202
002	-12203
003	-12204
004	-12205
005	-12206
4".	-12207
400	-12208
900	-12209
Cir	-12210
Gra	-12211
IDs	-12212
Mir	-12213
UID	-12214
cir	-12215
eir	-12216
eta	-12217
irp	-12218
irs	-12219
nse	-12220
seb	-12221
uni	-12222
yID	-12223
▁CI	-12224
▁CL	-12225
▁CU	-12226
▁Ce	-12227
▁Pr	-12228
▁gd	-12229
-01?	-12230
NDER	-12231
Pate	-12232
anam	-12233
aseb	-12234
atet	-12235
cate	-12236
ctID	-12237
duct	-12238
esID	-12239
esia	-12240
hers	-12241
hose	-12242
mese	-12243
ntra	-12244
peID	-12245
sear	-12246
seat	-12247
seum	-12248
stse	-12249
uate	-12250
ucts	-12251
udes	-12252
umID	-12253
usin	-12254
vate	-12255
▁"25	-12256
▁CCT	-12257
▁Cir	-12258
▁Cla	-12259
▁Col	-12260
▁Dur	-12261
▁Fir	-12262
▁Spe	-12263
▁cir	-12264
▁fir	-12265
▁hai	-12266
▁hav	-12267
Spons	-12268
Trans	-12269
allic	-12270
areho	-12271
argea	-12272
arges	-12273
arian	-12274
arris	-12275
arted	-12276
arter	-12277
artic	-12278
artin	-12279
artit	-12280
asket	-12281
asury	-12282
ateid	-12283
athol	-12284
atist	-12285
aysia	-12286
bates	-12287
beral	-12288
bered	-12289
bject	-12290
blems	-12291
blity	-12292
bumID	-12293
cents	-12294
chase	-12295
chedu	-12296
colle	-12297
cters	-12298
cting	-12299
13.	-12300
Bus	-12301
Div	-12302
NAM	-12303
Pay	-12304
Pri	-12305
ape	-12306
dri	-12307
eil	-12308
epe	-12309
fil	-12310
gra	-12311
hil	-12312
ild	-12313
ili	-12314
ilv	-12315
lil	-12316
liv	-12317
oli	-12318
olv	-12319
oog	-12320
ope	-12321
peD	-12322
peI	-12323
peN	-12324
pea	-12325
peo	-12326
pet	-12327
ppe	-12328
tri	-12329
uil	-12330
uri	-12331
xpe	-12332
▁HB	-12333
▁HU	-12334
▁Hu	-12335
▁Ut	-12336
▁gu	-12337
003.	-12338
10-0	-12339
4000	-12340
Pers	-12341
acil	-12342
aril	-12343
ayed	-12344
depe	-12345
eilo	-12346
iers	-12347
nrol	-12348
oard	-12349
pell	-12350
pers	-12351
pest	-12352
rers	-12353
stri	-12354
uity	-12355
yers	-12356
▁Bus	-12357
▁Cri	-12358
▁Gen	-12359
▁Hon	-12360
▁Ope	-12361
▁bil	-12362
▁cri	-12363
▁dec	-12364
▁def	-12365
▁fri	-12366
▁pri	-12367
▁tri	-12368
angos	-12369
dates	-12370
dered	-12371
dgets	-12372
dings	-12373
ditor	-12374
eason	-12375
eckIn	-12376
edate	-12377
egion	-12378
egist	-12379
eling	-12380
elong	-12381
ement	-12382
emony	-12383
emory	-12384
endel	-12385
enned	-12386
enter	-12387
ently	-12388
eonie	-12389
epart	-12390
erate	-12391
erent	-12392
erequ	-12393
ergic	-12394
ering	-12395
erist	-12396
erric	-12397
ersal	-12398
ersed	-12399
ARA	-12400
CAT	-12401
Gol	-12402
Ice	-12403
Iss	-12404
Jol	-12405
Ken	-12406
Luc	-12407
Nig	-12408
Rol	-12409
SIT	-12410
Set	-12411
aiw	-12412
asc	-12413
bet	-12414
cce	-12415
ets	-12416
etu	-12417
iot	-12418
nce	-12419
oms	-12420
otu	-12421
ssi	-12422
uce	-12423
vot	-12424
xce	-12425
yea	-12426
yet	-12427
▁''	-12428
▁'1	-12429
▁ri	-12430
Jour	-12431
Lind	-12432
Spou	-12433
Tour	-12434
acce	-12435
avai	-12436
cele	-12437
eith	-12438
etri	-12439
geth	-12440
hiro	-12441
inen	-12442
kind	-12443
lity	-12444
lude	-12445
olde	-12446
olin	-12447
olve	-12448
oted	-12449
rint	-12450
ssro	-12451
stab	-12452
tude	-12453
verp	-12454
yaff	-12455
yees	-12456
yell	-12457
▁Jul	-12458
▁LIM	-12459
▁Lot	-12460
▁bot	-12461
▁ord	-12462
▁org	-12463
▁ori	-12464
▁pol	-12465
acity	-12466
alind	-12467
ality	-12468
bcode	-12469
cords	-12470
ersit	-12471
erves	-12472
esame	-12473
escri	-12474
esour	-12475
estau	-12476
estim	-12477
estla	-12478
etall	-12479
eters	-12480
eting	-12481
eturn	-12482
ewest	-12483
feren	-12484
fices	-12485
geted	-12486
gname	-12487
gular	-12488
hiago	-12489
hools	-12490
hoose	-12491
hurch	-12492
iaber	-12493
ianas	-12494
icall	-12495
icals	-12496
icate	-12497
icing	-12498
idate	-12499
18"	-12500
ESS	-12501
ESU	-12502
LES	-12503
Loc	-12504
Mas	-12505
Pet	-12506
Pra	-12507
Roc	-12508
TES	-12509
VES	-12510
aul	-12511
cul	-12512
doc	-12513
eam	-12514
eff	-12515
ete	-12516
hra	-12517
ipm	-12518
moc	-12519
ngl	-12520
occ	-12521
ocu	-12522
pli	-12523
rra	-12524
tra	-12525
voc	-12526
wra	-12527
▁li	-12528
ants	-12529
coun	-12530
ffic	-12531
ffir	-12532
icra	-12533
lder	-12534
leas	-12535
many	-12536
oroc	-12537
otif	-12538
outn	-12539
raer	-12540
rais	-12541
rder	-12542
ssoc	-12543
stoc	-12544
tany	-12545
uard	-12546
ubde	-12547
ypeD	-12548
ypeI	-12549
ypeN	-12550
▁Bra	-12551
▁DES	-12552
▁Fra	-12553
▁Int	-12554
▁Loc	-12555
▁ava	-12556
▁doc	-12557
▁dra	-12558
▁net	-12559
▁pra	-12560
▁rec	-12561
▁rei	-12562
▁tra	-12563
BJECT	-12564
Gover	-12565
alogs	-12566
ander	-12567
deres	-12568
erred	-12569
ethod	-12570
ffing	-12571
ideni	-12572
idges	-12573
idity	-12574
idual	-12575
iffer	-12576
igher	-12577
ights	-12578
iling	-12579
image	-12580
imber	-12581
immer	-12582
inall	-12583
inate	-12584
inent	-12585
inger	-12586
ingle	-12587
ining	-12588
inist	-12589
ional	-12590
ionid	-12591
ipate	-12592
iport	-12593
irbus	-12594
irstN	-12595
isian	-12596
ising	-12597
ision	-12598
isors	-12599
410	-12600
DON	-12601
Fur	-12602
Gur	-12603
Nur	-12604
Sur	-12605
aus	-12606
bur	-12607
dur	-12608
eur	-12609
ius	-12610
jur	-12611
nur	-12612
pti	-12613
pur	-12614
sus	-12615
urc	-12616
urs	-12617
urt	-12618
usf	-12619
usi	-12620
xhi	-12621
yur	-12622
▁21	-12623
▁PO	-12624
▁PR	-12625
▁Pe	-12626
▁Pl	-12627
▁Ps	-12628
▁Pu	-12629
▁ur	-12630
Mach	-12631
Meag	-12632
RACT	-12633
Rele	-12634
ache	-12635
each	-12636
elps	-12637
enns	-12638
lapt	-12639
mich	-12640
ndow	-12641
oach	-12642
okoh	-12643
pert	-12644
temp	-12645
urde	-12646
uron	-12647
urre	-12648
▁Gur	-12649
▁Pal	-12650
▁Pas	-12651
▁Pat	-12652
▁Pet	-12653
▁Ple	-12654
▁Sus	-12655
▁sur	-12656
Journ	-12657
ached	-12658
achin	-12659
agers	-12660
chust	-12661
ispos	-12662
istID	-12663
istan	-12664
isted	-12665
isten	-12666
ister	-12667
istid	-12668
istin	-12669
istop	-12670
istor	-12671
istri	-12672
itals	-12673
iters	-12674
ithin	-12675
ithou	-12676
iting	-12677
itish	-12678
itist	-12679
iving	-12680
izont	-12681
journ	-12682
kcode	-12683
kname	-12684
laine	-12685
lains	-12686
lastl	-12687
liers	-12688
llerg	-12689
llers	-12690
llion	-12691
lment	-12692
lockf	-12693
lomer	-12694
manag	-12695
mbers	-12696
mentI	-12697
meric	-12698
mersh	-12699
Cow	-12700
Cub	-12701
DIS	-12702
Dub	-12703
ISS	-12704
Nom	-12705
Pub	-12706
Pun	-12707
TIS	-12708
Tow	-12709
VIS	-12710
nom	-12711
omI	-12712
omd	-12713
omn	-12714
omt	-12715
ptr	-12716
sub	-12717
ubj	-12718
ubm	-12719
ubs	-12720
ubw	-12721
upt	-12722
wen	-12723
▁RA	-12724
▁Ra	-12725
▁Ry	-12726
1121	-12727
Dian	-12728
ards	-12729
bath	-12730
enat	-12731
fice	-12732
iann	-12733
imag	-12734
ivel	-12735
lice	-12736
obam	-12737
omid	-12738
onom	-12739
owar	-12740
owed	-12741
ower	-12742
owit	-12743
ppel	-12744
pted	-12745
ublo	-12746
ubst	-12747
uros	-12748
wice	-12749
▁Cub	-12750
▁DIS	-12751
▁Dom	-12752
▁LOR	-12753
▁Rat	-12754
▁Roc	-12755
▁Rol	-12756
▁app	-12757
▁cow	-12758
▁nom	-12759
▁pub	-12760
First	-12761
Namel	-12762
aries	-12763
eered	-12764
expen	-12765
ffice	-12766
howed	-12767
iform	-12768
miths	-12769
mname	-12770
mouth	-12771
mpany	-12772
named	-12773
names	-12774
ndanc	-12775
ndian	-12776
ndust	-12777
ngest	-12778
nment	-12779
ntain	-12780
ntent	-12781
nting	-12782
ntion	-12783
ntist	-12784
ntity	-12785
ntory	-12786
obins	-12787
occup	-12788
ocrat	-12789
odate	-12790
olate	-12791
older	-12792
olour	-12793
olved	-12794
omeon	-12795
omerI	-12796
omers	-12797
omest	-12798
ometh	-12799
2"?	-12800
560	-12801
Cop	-12802
Sup	-12803
add	-12804
cas	-12805
chm	-12806
cht	-12807
chu	-12808
cky	-12809
ech	-12810
opk	-12811
opp	-12812
opu	-12813
rch	-12814
ych	-12815
▁Mo	-12816
Alis	-12817
Cent	-12818
DIST	-12819
Fact	-12820
OLEN	-12821
RIST	-12822
TIST	-12823
UTER	-12824
acti	-12825
actl	-12826
actu	-12827
ageP	-12828
agep	-12829
anch	-12830
chan	-12831
ched	-12832
chur	-12833
entl	-12834
entr	-12835
entu	-12836
erch	-12837
fact	-12838
gand	-12839
idth	-12840
inch	-12841
opor	-12842
ounc	-12843
peop	-12844
tent	-12845
uage	-12846
uent	-12847
verI	-12848
xact	-12849
▁STU	-12850
▁acq	-12851
▁cop	-12852
▁lan	-12853
▁nex	-12854
▁vid	-12855
-01-0	-12856
ERIST	-12857
Nicho	-12858
aType	-12859
acted	-12860
actre	-12861
actur	-12862
alent	-12863
anage	-12864
chers	-12865
eract	-12866
etent	-12867
holog	-12868
ntact	-12869
ntage	-12870
ommit	-12871
ompan	-12872
ompon	-12873
ongId	-12874
ongit	-12875
onstr	-12876
onths	-12877
ontin	-12878
onton	-12879
ontra	-12880
oomId	-12881
oples	-12882
orary	-12883
orian	-12884
ority	-12885
orize	-12886
ormat	-12887
ormer	-12888
orres	-12889
orter	-12890
ostal	-12891
ostly	-12892
ostse	-12893
otent	-12894
oting	-12895
ounta	-12896
ounti	-12897
ountr	-12898
ounts	-12899
11?	-12900
Gen	-12901
PAR	-12902
Rig	-12903
Sen	-12904
Sim	-12905
Ten	-12906
Uen	-12907
Ven	-12908
aig	-12909
bod	-12910
een	-12911
eig	-12912
enc	-12913
enl	-12914
enu	-12915
enz	-12916
gry	-12917
igm	-12918
ima	-12919
imb	-12920
nim	-12921
ovi	-12922
sig	-12923
tim	-12924
tos	-12925
uen	-12926
-25"	-12927
Bost	-12928
alen	-12929
anim	-12930
ells	-12931
enan	-12932
enes	-12933
enom	-12934
enro	-12935
esti	-12936
iden	-12937
illm	-12938
imat	-12939
imin	-12940
imme	-12941
inim	-12942
ipla	-12943
mann	-12944
more	-12945
nser	-12946
nten	-12947
orok	-12948
ostl	-12949
ssig	-12950
tore	-12951
vies	-12952
▁Cen	-12953
▁Ham	-12954
▁Hig	-12955
▁Lys	-12956
▁MOY	-12957
▁aut	-12958
▁cen	-12959
▁cha	-12960
▁hig	-12961
▁sen	-12962
000-0	-12963
Emplo	-12964
TERAC	-12965
alend	-12966
asess	-12967
categ	-12968
cerem	-12969
datet	-12970
emplo	-12971
gramm	-12972
hibit	-12973
icies	-12974
imore	-12975
ngine	-12976
nroll	-12977
orede	-12978
osted	-12979
ounty	-12980
overs	-12981
owers	-12982
partu	-12983
pment	-12984
popul	-12985
pport	-12986
prene	-12987
prese	-12988
ptate	-12989
ption	-12990
quant	-12991
quart	-12992
queen	-12993
quent	-12994
quire	-12995
quity	-12996
rance	-12997
rands	-12998
rapes	-12999
Aut	-13000
ONV	-13001
Tut	-13002
UNT	-13003
but	-13004
eut	-13005
iip	-13006
ipl	-13007
nip	-13008
shi	-13009
tip	-13010
utl	-13011
utp	-13012
utt	-13013
uty	-13014
Bran	-13015
Tran	-13016
acqu	-13017
ecti	-13018
gani	-13019
hort	-13020
inut	-13021
ipal	-13022
ipat	-13023
ipit	-13024
ipra	-13025
kman	-13026
kson	-13027
mput	-13028
olut	-13029
ompt	-13030
ongI	-13031
ongl	-13032
ortR	-13033
ranc	-13034
tran	-13035
ttra	-13036
uten	-13037
▁Mer	-13038
▁Mid	-13039
▁Sta	-13040
▁Stu	-13041
▁bod	-13042
▁mai	-13043
▁mak	-13044
▁mas	-13045
▁mea	-13046
ELBIG	-13047
Secre	-13048
arred	-13049
iplay	-13050
lasts	-13051
layed	-13052
ntals	-13053
ompat	-13054
ompet	-13055
ompla	-13056
omple	-13057
omput	-13058
onger	-13059
ongid	-13060
ongst	-13061
orted	-13062
owled	-13063
ranks	-13064
rator	-13065
rders	-13066
reate	-13067
rects	-13068
refer	-13069
riage	-13070
ribut	-13071
rices	-13072
ricts	-13073
riers	-13074
rimar	-13075
ripip	-13076
riton	-13077
rname	-13078
roads	-13079
rofil	-13080
rofit	-13081
romos	-13082
rovis	-13083
rowsw	-13084
rying	-13085
scots	-13086
seter	-13087
sions	-13088
sment	-13089
sport	-13090
ssess	-13091
ssing	-13092
ssist	-13093
ssive	-13094
sswor	-13095
sting	-13096
stors	-13097
stude	-13098
tName	-13099
Fam	-13100
TAT	-13101
adb	-13102
adi	-13103
adq	-13104
adv	-13105
ami	-13106
bam	-13107
ead	-13108
gul	-13109
iad	-13110
iam	-13111
iul	-13112
jam	-13113
nvo	-13114
uli	-13115
▁gi	-13116
▁gt	-13117
3000	-13118
EPAR	-13119
Mort	-13120
Nort	-13121
Rail	-13122
acul	-13123
ailu	-13124
ailw	-13125
aken	-13126
amil	-13127
amou	-13128
chul	-13129
ects	-13130
eram	-13131
erwe	-13132
hich	-13133
icha	-13134
inta	-13135
onad	-13136
orty	-13137
otte	-13138
taff	-13139
ulat	-13140
venu	-13141
▁Cas	-13142
▁Dam	-13143
▁Fam	-13144
▁Lam	-13145
▁NUL	-13146
▁Sam	-13147
▁Ven	-13148
▁cul	-13149
▁gro	-13150
ROTTE	-13151
TOMER	-13152
aming	-13153
ctive	-13154
eadqu	-13155
etail	-13156
isich	-13157
ormal	-13158
orman	-13159
ormid	-13160
roles	-13161
teach	-13162
teins	-13163
tends	-13164
teven	-13165
thest	-13166
thiop	-13167
thods	-13168
tlieb	-13169
tment	-13170
tname	-13171
treat	-13172
tterg	-13173
uates	-13174
uctor	-13175
udien	-13176
udios	-13177
umbus	-13178
umity	-13179
upanc	-13180
urcot	-13181
urers	-13182
uring	-13183
urity	-13184
urred	-13185
usage	-13186
users	-13187
using	-13188
ustid	-13189
ustri	-13190
utput	-13191
verId	-13192
veral	-13193
verst	-13194
vices	-13195
vised	-13196
vises	-13197
visor	-13198
weath	-13199
Cas	-13200
IEN	-13201
Jas	-13202
POR	-13203
Viv	-13204
Was	-13205
asu	-13206
div	-13207
eas	-13208
ias	-13209
mas	-13210
niv	-13211
rsh	-13212
sci	-13213
sco	-13214
▁ME	-13215
00".	-13216
Fest	-13217
Hard	-13218
Hors	-13219
Righ	-13220
affs	-13221
asur	-13222
ativ	-13223
ceiv	-13224
chas	-13225
ctiv	-13226
eest	-13227
eigh	-13228
esta	-13229
estr	-13230
hest	-13231
ival	-13232
ivat	-13233
ivid	-13234
ligh	-13235
naff	-13236
nstr	-13237
onsc	-13238
orSt	-13239
wide	-13240
▁Day	-13241
▁Nic	-13242
▁Tas	-13243
▁bas	-13244
▁cas	-13245
▁exc	-13246
▁giv	-13247
▁siz	-13248
▁tas	-13249
Carri	-13250
affil	-13251
chmid	-13252
estin	-13253
estro	-13254
indiv	-13255
ondze	-13256
onors	-13257
ressu	-13258
stest	-13259
utter	-13260
wment	-13261
words	-13262
xford	-13263
ycles	-13264
yearl	-13265
yment	-13266
ypeID	-13267
ypeId	-13268
ysann	-13269
ytype	-13270
zmann	-13271
▁"%68	-13272
▁1001	-13273
▁4560	-13274
▁AIRP	-13275
▁Aniy	-13276
▁Arge	-13277
▁Astr	-13278
▁Aust	-13279
▁BROM	-13280
▁Balt	-13281
▁Bart	-13282
▁Bosc	-13283
▁Bost	-13284
▁Bran	-13285
▁Burn	-13286
▁Cand	-13287
▁Cate	-13288
▁Cent	-13289
▁Chec	-13290
▁Chic	-13291
▁Chin	-13292
▁Cler	-13293
▁Cour	-13294
▁Cred	-13295
▁DAMI	-13296
▁DIST	-13297
▁Dame	-13298
▁Dist	-13299
Kay	-13300
TTE	-13301
pay	-13302
ppl	-13303
vay	-13304
▁EM	-13305
▁Eb	-13306
▁Em	-13307
▁Er	-13308
▁Eu	-13309
3-15	-13310
338"	-13311
Belg	-13312
Dele	-13313
Dram	-13314
KING	-13315
LLOC	-13316
Mast	-13317
NROL	-13318
OUNT	-13319
VING	-13320
aray	-13321
ayan	-13322
ayst	-13323
nast	-13324
oast	-13325
oods	-13326
scot	-13327
▁Apr	-13328
▁Ent	-13329
▁Eve	-13330
▁SOU	-13331
▁TOU	-13332
▁rat	-13333
▁rou	-13334
▁sci	-13335
▁twe	-13336
Bernh	-13337
Cance	-13338
Sport	-13339
ancin	-13340
asted	-13341
aying	-13342
eport	-13343
hroom	-13344
iance	-13345
itled	-13346
jectN	-13347
jects	-13348
least	-13349
lubde	-13350
lubid	-13351
lublo	-13352
oined	-13353
pices	-13354
portR	-13355
porty	-13356
rooms	-13357
sterd	-13358
▁Bark	-13359
▁COUR	-13360
▁Dome	-13361
▁Dram	-13362
▁Dubl	-13363
▁Fail	-13364
▁Feat	-13365
▁Fest	-13366
▁Flor	-13367
▁Forw	-13368
▁Foun	-13369
▁GORD	-13370
▁GRAD	-13371
▁Gend	-13372
▁Gibb	-13373
▁Gran	-13374
▁Grou	-13375
▁Hard	-13376
▁Hart	-13377
▁Hean	-13378
▁Hele	-13379
▁Hist	-13380
▁Hour	-13381
▁Init	-13382
▁Jame	-13383
▁Jian	-13384
▁Lang	-13385
▁Leag	-13386
▁Lind	-13387
▁Loun	-13388
▁Mast	-13389
▁Medh	-13390
▁Mode	-13391
▁Mone	-13392
▁Ohor	-13393
▁Oran	-13394
▁Pate	-13395
▁Pers	-13396
▁Pilo	-13397
▁Play	-13398
▁Pres	-13399
Ebo	-13400
Jap	-13401
Kap	-13402
Lie	-13403
Nap	-13404
ONR	-13405
Pap	-13406
avi	-13407
cap	-13408
die	-13409
fie	-13410
hap	-13411
hie	-13412
hly	-13413
nie	-13414
obi	-13415
ogg	-13416
pap	-13417
pie	-13418
▁MP	-13419
▁Mc	-13420
11-0	-13421
Bosc	-13422
Ital	-13423
alie	-13424
ceie	-13425
chie	-13426
dult	-13427
emor	-13428
hipm	-13429
hips	-13430
hone	-13431
iven	-13432
omap	-13433
phic	-13434
sult	-13435
tech	-13436
teve	-13437
ultu	-13438
▁Jap	-13439
▁Lie	-13440
▁Mal	-13441
▁Mot	-13442
▁Pap	-13443
▁bud	-13444
▁cap	-13445
▁fie	-13446
▁goo	-13447
▁tex	-13448
▁whe	-13449
▁wif	-13450
Advis	-13451
ceive	-13452
chult	-13453
cking	-13454
esson	-13455
essor	-13456
esult	-13457
gions	-13458
lding	-13459
ofess	-13460
oking	-13461
oroth	-13462
otals	-13463
pense	-13464
resol	-13465
tatus	-13466
trans	-13467
ubstr	-13468
ulted	-13469
▁Mich	-13470
▁Proc	-13471
▁Prog	-13472
▁Prov	-13473
▁Psyc	-13474
▁Rach	-13475
▁Rail	-13476
▁Rest	-13477
▁SECT	-13478
▁STAF	-13479
▁STAR	-13480
▁Sett	-13481
▁Shie	-13482
▁Sout	-13483
▁Stat	-13484
▁Stor	-13485
▁Stre	-13486
▁Stud	-13487
▁Tour	-13488
▁Trac	-13489
▁Tran	-13490
▁Vide	-13491
▁WHER	-13492
▁Wher	-13493
▁Whic	-13494
▁Whit	-13495
▁acce	-13496
▁acro	-13497
▁actu	-13498
▁airl	-13499
)".	-13500
4"?	-13501
9-2	-13502
Boo	-13503
MAR	-13504
ONs	-13505
Ort	-13506
ahe	-13507
emr	-13508
foo	-13509
fts	-13510
ios	-13511
nia	-13512
rtw	-13513
▁NA	-13514
▁NE	-13515
▁NO	-13516
▁NU	-13517
▁Ne	-13518
IONS	-13519
IONs	-13520
NION	-13521
Rout	-13522
SION	-13523
arms	-13524
aryA	-13525
aryl	-13526
bels	-13527
bout	-13528
cout	-13529
essi	-13530
hopp	-13531
ific	-13532
inhi	-13533
mary	-13534
outc	-13535
outs	-13536
sess	-13537
uall	-13538
vern	-13539
▁Boo	-13540
▁Goo	-13541
▁Ort	-13542
▁foo	-13543
▁lea	-13544
▁let	-13545
▁lex	-13546
▁too	-13547
Aeros	-13548
ITION	-13549
ONDER	-13550
erfor	-13551
esear	-13552
esses	-13553
outst	-13554
ryout	-13555
uthid	-13556
verid	-13557
▁1986	-13558
▁200,	-13559
▁Auth	-13560
▁Flag	-13561
▁Furn	-13562
▁Nort	-13563
▁Serv	-13564
▁airc	-13565
▁alle	-13566
▁allo	-13567
▁alre	-13568
▁anyw	-13569
▁arre	-13570
▁awar	-13571
▁bang	-13572
▁belo	-13573
▁bene	-13574
▁bran	-13575
▁cand	-13576
▁cate	-13577
▁chan	-13578
▁chea	-13579
▁chur	-13580
▁clai	-13581
▁clou	-13582
▁comb	-13583
▁coun	-13584
▁cour	-13585
▁cred	-13586
▁dail	-13587
▁deal	-13588
▁deat	-13589
▁dele	-13590
▁depe	-13591
▁desc	-13592
▁diff	-13593
▁dire	-13594
▁disp	-13595
▁doct	-13596
▁doll	-13597
▁dome	-13598
▁drib	-13599
Aly	-13600
Fem	-13601
HOT	-13602
LOT	-13603
OTH	-13604
OTO	-13605
PAs	-13606
VOT	-13607
aun	-13608
eks	-13609
emb	-13610
fem	-13611
gth	-13612
hel	-13613
iqu	-13614
oel	-13615
uel	-13616
yth	-13617
▁vi	-13618
002?	-13619
2000	-13620
Ball	-13621
DLOC	-13622
OTEL	-13623
Prox	-13624
ainb	-13625
ainl	-13626
cles	-13627
emal	-13628
emon	-13629
icks	-13630
ksho	-13631
mall	-13632
ooks	-13633
otel	-13634
pain	-13635
quen	-13636
quis	-13637
requ	-13638
roff	-13639
stem	-13640
tain	-13641
xamp	-13642
▁LOT	-13643
▁buy	-13644
▁fli	-13645
▁hel	-13646
▁int	-13647
▁tah	-13648
▁vie	-13649
▁vil	-13650
▁vol	-13651
Honol	-13652
chool	-13653
ended	-13654
gates	-13655
ilots	-13656
ispan	-13657
lated	-13658
ourth	-13659
ptain	-13660
quest	-13661
riven	-13662
stall	-13663
tware	-13664
▁acqu	-13665
▁anim	-13666
▁asce	-13667
▁asse	-13668
▁eith	-13669
▁empt	-13670
▁enro	-13671
▁enti	-13672
▁exer	-13673
▁exhi	-13674
▁fact	-13675
▁fail	-13676
▁fast	-13677
▁fest	-13678
▁fift	-13679
▁forc	-13680
▁fore	-13681
▁forw	-13682
▁fran	-13683
▁furn	-13684
▁grad	-13685
▁gymn	-13686
▁hard	-13687
▁hors	-13688
▁hote	-13689
▁inde	-13690
▁inhi	-13691
▁inve	-13692
▁jour	-13693
▁lang	-13694
▁lapt	-13695
▁larg	-13696
▁leav	-13697
▁lect	-13698
▁leng	-13699
TAR	-13700
izh	-13701
mma	-13702
osm	-13703
qno	-13704
una	-13705
▁Ke	-13706
000,	-13707
000-	-13708
000.	-13709
000;	-13710
1986	-13711
5000	-13712
6000	-13713
8000	-13714
ARRO	-13715
Astr	-13716
Bark	-13717
Pres	-13718
Sand	-13719
Serv	-13720
abel	-13721
andf	-13722
andm	-13723
ardw	-13724
cand	-13725
enzy	-13726
ergi	-13727
evie	-13728
hamp	-13729
hand	-13730
hard	-13731
hark	-13732
ians	-13733
idel	-13734
ires	-13735
lian	-13736
nres	-13737
oerg	-13738
prom	-13739
racy	-13740
romo	-13741
seng	-13742
terg	-13743
▁MAR	-13744
▁TAR	-13745
▁abo	-13746
00000	-13747
Cathr	-13748
Regul	-13749
alian	-13750
ergra	-13751
ervic	-13752
ervil	-13753
eserv	-13754
instr	-13755
lable	-13756
lerat	-13757
olleg	-13758
olulu	-13759
oursp	-13760
oward	-13761
racks	-13762
resce	-13763
resid	-13764
roble	-13765
roduc	-13766
ublis	-13767
uffer	-13768
▁Prom	-13769
▁Sand	-13770
▁TARR	-13771
▁TRAC	-13772
▁conc	-13773
▁ende	-13774
▁leve	-13775
▁lice	-13776
▁manu	-13777
▁mark	-13778
▁mast	-13779
▁maxO	-13780
▁medc	-13781
▁medi	-13782
▁miss	-13783
▁mone	-13784
▁mult	-13785
▁need	-13786
▁nick	-13787
▁nigh	-13788
▁noti	-13789
▁orig	-13790
▁perf	-13791
▁peri	-13792
▁pers	-13793
▁phon	-13794
▁phot	-13795
▁phra	-13796
▁phys	-13797
▁plan	-13798
▁pres	-13799
)"?	-13800
0"?	-13801
59.	-13802
Stu	-13803
gos	-13804
mob	-13805
nfo	-13806
obs	-13807
▁ja	-13808
▁jo	-13809
00"?	-13810
Brit	-13811
MERS	-13812
VERS	-13813
alia	-13814
bang	-13815
cedu	-13816
here	-13817
inee	-13818
ired	-13819
obel	-13820
obil	-13821
osed	-13822
penn	-13823
phan	-13824
ppro	-13825
proc	-13826
prog	-13827
rere	-13828
rgan	-13829
rred	-13830
ssia	-13831
syst	-13832
xpen	-13833
zont	-13834
▁'20	-13835
▁Mob	-13836
▁Ros	-13837
▁Yor	-13838
▁alw	-13839
▁jer	-13840
▁tau	-13841
Colle	-13842
Draft	-13843
Point	-13844
appro	-13845
inees	-13846
jored	-13847
ntere	-13848
ogers	-13849
oices	-13850
ontri	-13851
organ	-13852
prote	-13853
uated	-13854
▁Circ	-13855
▁Mont	-13856
▁Russ	-13857
▁camp	-13858
▁mont	-13859
▁prev	-13860
▁prob	-13861
▁proc	-13862
▁prod	-13863
▁prog	-13864
▁proj	-13865
▁prom	-13866
▁prot	-13867
▁rail	-13868
▁rais	-13869
▁reac	-13870
▁reig	-13871
▁rele	-13872
▁requ	-13873
▁rese	-13874
▁reve	-13875
▁rout	-13876
▁scho	-13877
▁scor	-13878
▁scre	-13879
▁sele	-13880
▁sell	-13881
▁seme	-13882
▁sett	-13883
▁smal	-13884
▁spon	-13885
▁stad	-13886
▁stan	-13887
▁stat	-13888
▁stoc	-13889
▁stor	-13890
▁stre	-13891
▁stri	-13892
▁summ	-13893
▁tall	-13894
▁tech	-13895
▁temp	-13896
▁thea	-13897
▁thei	-13898
▁ther	-13899
14.	-13900
2".	-13901
64.	-13902
84.	-13903
ASS	-13904
ATC	-13905
ATT	-13906
ATY	-13907
LAT	-13908
Str	-13909
Typ	-13910
agh	-13911
pag	-13912
typ	-13913
uag	-13914
Stat	-13915
anag	-13916
bill	-13917
dals	-13918
drof	-13919
drum	-13920
hops	-13921
icag	-13922
illi	-13923
illu	-13924
imes	-13925
mill	-13926
ntag	-13927
otup	-13928
reId	-13929
tter	-13930
ttil	-13931
ttle	-13932
ulio	-13933
uper	-13934
▁Ice	-13935
▁Sup	-13936
▁TAM	-13937
▁hea	-13938
▁sec	-13939
XCEPT	-13940
cient	-13941
cture	-13942
edure	-13943
ergyT	-13944
illis	-13945
inanc	-13946
iture	-13947
laime	-13948
laure	-13949
lient	-13950
pical	-13951
tters	-13952
ublic	-13953
ylvan	-13954
zymes	-13955
▁Bill	-13956
▁Fram	-13957
▁Manc	-13958
▁bill	-13959
▁enzy	-13960
▁gend	-13961
▁mann	-13962
▁roll	-13963
▁seas	-13964
▁stag	-13965
▁thes	-13966
▁thin	-13967
▁thir	-13968
▁thre	-13969
▁toge	-13970
▁tonn	-13971
▁tour	-13972
▁tran	-13973
▁weat	-13974
▁wher	-13975
▁whit	-13976
0-300"	-13977
0-300?	-13978
000000	-13979
2009-0	-13980
251896	-13981
Artwor	-13982
Assign	-13983
CHASES	-13984
Columb	-13985
Comple	-13986
Compon	-13987
Detent	-13988
EACHER	-13989
ELECTI	-13990
Enroll	-13991
Festiv	-13992
Furnit	-13993
Gorgor	-13994
Marian	-13995
Nation	-13996
OLENCE	-13997
Psychi	-13998
Robins	-13999
340	-14000
85.	-14001
Aud	-14002
Fun	-14003
Sec	-14004
abl	-14005
abs	-14006
aiz	-14007
aud	-14008
bog	-14009
fun	-14010
lto	-14011
ogs	-14012
sav	-14013
unc	-14014
▁UC	-14015
▁UR	-14016
▁Un	-14017
▁VI	-14018
ague	-14019
angh	-14020
ania	-14021
aseP	-14022
avis	-14023
bloc	-14024
econ	-14025
erfo	-14026
fits	-14027
gets	-14028
hase	-14029
icog	-14030
invo	-14031
isec	-14032
leav	-14033
phab	-14034
uits	-14035
unav	-14036
visi	-14037
▁Bec	-14038
▁IAT	-14039
▁Lud	-14040
▁Oth	-14041
▁VIS	-14042
▁Vid	-14043
▁Vis	-14044
▁aud	-14045
▁fog	-14046
▁sun	-14047
Alban	-14048
ecame	-14049
hines	-14050
icles	-14051
itles	-14052
nform	-14053
omman	-14054
radep	-14055
rades	-14056
revis	-14057
unaff	-14058
under	-14059
vents	-14060
▁100%	-14061
▁Reig	-14062
▁Supp	-14063
▁onsc	-14064
▁resp	-14065
▁whci	-14066
1121"?	-14067
ATIONS	-14068
ATIONs	-14069
CATION	-14070
LATION	-14071
Struct	-14072
TypeID	-14073
USEUMS	-14074
abetic	-14075
aching	-14076
acking	-14077
acters	-14078
action	-14079
acture	-14080
adland	-14081
affect	-14082
ailing	-14083
aining	-14084
allerg	-14085
amange	-14086
ampusf	-14087
ancele	-14088
andled	-14089
apable	-14090
apanes	-14091
aperid	-14092
aptain	-14093
argest	-14094
arkets	-14095
arking	-14096
arment	-14097
arring	-14098
arters	-14099
0";	-14100
20.	-14101
Eth	-14102
OCK	-14103
bly	-14104
kly	-14105
lys	-14106
▁IH	-14107
▁Ig	-14108
Heff	-14109
Manc	-14110
Sant	-14111
Scor	-14112
Spon	-14113
atth	-14114
corp	-14115
dloc	-14116
epre	-14117
hant	-14118
itly	-14119
lash	-14120
lbum	-14121
loth	-14122
nant	-14123
pilo	-14124
pref	-14125
pren	-14126
sign	-14127
▁Aly	-14128
▁exh	-14129
TypeD	-14130
alues	-14131
anics	-14132
anish	-14133
arson	-14134
ately	-14135
conom	-14136
corde	-14137
eames	-14138
embra	-14139
icipa	-14140
incor	-14141
inish	-14142
ivals	-14143
locat	-14144
nvest	-14145
ommis	-14146
ommon	-14147
pears	-14148
playl	-14149
quare	-14150
recor	-14151
udied	-14152
urant	-14153
veled	-14154
▁"219	-14155
▁Bern	-14156
▁Comm	-14157
▁Sant	-14158
▁Scor	-14159
▁Spon	-14160
▁bloc	-14161
▁dram	-14162
▁foll	-14163
▁pare	-14164
▁pilo	-14165
▁rang	-14166
▁worl	-14167
arford	-14168
arkway	-14169
artfor	-14170
arties	-14171
artine	-14172
arting	-14173
aryaff	-14174
asseng	-14175
asured	-14176
atches	-14177
ategor	-14178
atents	-14179
atform	-14180
atingD	-14181
atings	-14182
atment	-14183
attend	-14184
attern	-14185
atuses	-14186
atwick	-14187
augavp	-14188
bition	-14189
bruary	-14190
cation	-14191
cedure	-14192
cember	-14193
cement	-14194
centag	-14195
cently	-14196
claime	-14197
compat	-14198
compla	-14199
4%"	-14200
RAC	-14201
RAP	-14202
kia	-14203
mai	-14204
52".	-14205
Amis	-14206
Bang	-14207
Blan	-14208
Kiss	-14209
ONRA	-14210
cann	-14211
emrs	-14212
hiip	-14213
hods	-14214
limb	-14215
nals	-14216
phys	-14217
supp	-14218
uced	-14219
ully	-14220
vels	-14221
ysan	-14222
Attri	-14223
alanc	-14224
anned	-14225
anner	-14226
apert	-14227
asons	-14228
bumId	-14229
bumid	-14230
capac	-14231
chang	-14232
chann	-14233
dvise	-14234
ializ	-14235
itann	-14236
limin	-14237
ocals	-14238
quals	-14239
rains	-14240
stanc	-14241
stler	-14242
utler	-14243
views	-14244
volve	-14245
▁Bang	-14246
▁Nanc	-14247
▁STAT	-14248
▁cann	-14249
assign	-14250
compet	-14251
comple	-14252
compon	-14253
confer	-14254
contra	-14255
counts	-14256
crafts	-14257
criptr	-14258
ctress	-14259
depart	-14260
dering	-14261
descri	-14262
destro	-14263
dgeted	-14264
dition	-14265
dvised	-14266
dvises	-14267
eating	-14268
eature	-14269
ecking	-14270
econds	-14271
ecting	-14272
ection	-14273
ective	-14274
edType	-14275
edding	-14276
edroom	-14277
edtype	-14278
eeting	-14279
enance	-14280
enders	-14281
engine	-14282
enland	-14283
ennedy	-14284
enreId	-14285
entist	-14286
enyatt	-14287
eorgia	-14288
eraged	-14289
erates	-14290
ercent	-14291
erform	-14292
ergies	-14293
erical	-14294
erland	-14295
erment	-14296
ername	-14297
ersity	-14298
ersonF	-14299
-03	-14300
0-0	-14301
1-0	-14302
3-0	-14303
5-0	-14304
6-0	-14305
85?	-14306
Ali	-14307
EEN	-14308
ENR	-14309
MPE	-14310
Ref	-14311
dia	-14312
nai	-14313
sia	-14314
wee	-14315
Phys	-14316
arli	-14317
cial	-14318
eath	-14319
eded	-14320
edia	-14321
hots	-14322
lien	-14323
lier	-14324
nded	-14325
owns	-14326
refu	-14327
rriv	-14328
ssif	-14329
ween	-14330
xhib	-14331
▁MPE	-14332
▁STA	-14333
▁STO	-14334
▁Tex	-14335
▁uni	-14336
▁uns	-14337
▁ven	-14338
Asset	-14339
arded	-14340
athro	-14341
death	-14342
emple	-14343
gistr	-14344
inhib	-14345
liest	-14346
mails	-14347
ounde	-14348
owned	-14349
reven	-14350
rives	-14351
tendn	-14352
ttend	-14353
ubway	-14354
▁Coun	-14355
▁avai	-14356
▁bath	-14357
▁elev	-14358
▁foun	-14359
▁unav	-14360
▁unif	-14361
OOKING	-14362
Schult	-14363
alCode	-14364
alists	-14365
avings	-14366
ersons	-14367
ertifi	-14368
erving	-14369
esName	-14370
esType	-14371
essing	-14372
essors	-14373
etical	-14374
facult	-14375
festiv	-14376
ffered	-14377
fferen	-14378
forman	-14379
format	-14380
gement	-14381
gional	-14382
gisted	-14383
gister	-14384
gistri	-14385
haract	-14386
hivers	-14387
howing	-14388
iaType	-14389
iaberg	-14390
icates	-14391
icians	-14392
icines	-14393
icraft	-14394
icture	-14395
idates	-14396
ielber	-14397
ielder	-14398
iggest	-14399
-21	-14400
-25	-14401
2%"	-14402
2-2	-14403
345	-14404
6-2	-14405
8-2	-14406
GOR	-14407
LOR	-14408
ORI	-14409
Spr	-14410
TOR	-14411
TWE	-14412
▁KI	-14413
▁KL	-14414
▁Kh	-14415
▁Ko	-14416
-21.	-14417
ITOR	-14418
Keel	-14419
Muse	-14420
Volu	-14421
WEEN	-14422
heir	-14423
phyr	-14424
volu	-14425
wayn	-14426
▁Blu	-14427
▁Chr	-14428
▁GOR	-14429
▁Inf	-14430
▁Inh	-14431
▁Inj	-14432
▁Ins	-14433
▁Kap	-14434
▁Kay	-14435
▁Ken	-14436
▁Ker	-14437
▁SWE	-14438
▁She	-14439
▁Wym	-14440
▁gym	-14441
ATYPE	-14442
Wrest	-14443
agues	-14444
comes	-14445
degre	-14446
eader	-14447
efore	-14448
examp	-14449
exhib	-14450
gages	-14451
restl	-14452
techn	-14453
uages	-14454
▁Amis	-14455
▁Kent	-14456
▁STUD	-14457
▁TRAN	-14458
▁aper	-14459
▁olde	-14460
▁vide	-14461
▁volu	-14462
TOMERS	-14463
UDENTS	-14464
annels	-14465
candid	-14466
dustry	-14467
enames	-14468
ighest	-14469
ilders	-14470
illman	-14471
illund	-14472
ilming	-14473
iloted	-14474
ilways	-14475
imates	-14476
inance	-14477
inders	-14478
indust	-14479
ineers	-14480
ingers	-14481
invent	-14482
ipated	-14483
ipates	-14484
ipment	-14485
ishers	-14486
isions	-14487
isited	-14488
isplay	-14489
isters	-14490
isting	-14491
isulpr	-14492
itance	-14493
itures	-14494
ivator	-14495
ivitor	-14496
joring	-14497
jority	-14498
lasted	-14499
')?	-14500
1'?	-14501
4'?	-14502
6'?	-14503
Dep	-14504
Dev	-14505
RET	-14506
TAM	-14507
eov	-14508
ews	-14509
mov	-14510
ugh	-14511
▁66	-14512
192.	-14513
ETAR	-14514
Lond	-14515
anew	-14516
erpr	-14517
foll	-14518
gium	-14519
grad	-14520
iolo	-14521
manf	-14522
pris	-14523
rick	-14524
ride	-14525
rman	-14526
rond	-14527
tick	-14528
ulpr	-14529
uppl	-14530
wick	-14531
▁"%5	-14532
▁"%6	-14533
▁183	-14534
▁189	-14535
▁BET	-14536
▁Bio	-14537
▁Lew	-14538
▁Mov	-14539
▁Spr	-14540
▁bio	-14541
▁sha	-14542
▁spr	-14543
0000.	-14544
0000?	-14545
20000	-14546
Death	-14547
IRPOR	-14548
ailab	-14549
enrol	-14550
grams	-14551
inute	-14552
iolog	-14553
irthd	-14554
neurs	-14555
odels	-14556
ooked	-14557
ovann	-14558
prere	-14559
upply	-14560
▁Heff	-14561
▁Lond	-14562
▁Nick	-14563
▁Unit	-14564
▁tick	-14565
ISITOR	-14566
Suppli	-14567
hipman	-14568
hology	-14569
ivered	-14570
lation	-14571
layers	-14572
laying	-14573
leason	-14574
lients	-14575
lights	-14576
limber	-14577
lished	-14578
livery	-14579
llions	-14580
llment	-14581
locity	-14582
mateid	-14583
mation	-14584
mentID	-14585
mentid	-14586
minent	-14587
mounts	-14588
nation	-14589
nction	-14590
ndance	-14591
ndingl	-14592
ndones	-14593
nician	-14594
nitial	-14595
nities	-14596
nivers	-14597
nnding	-14598
ntment	-14599
842	-14600
ODE	-14601
SAL	-14602
Wee	-14603
▁ke	-14604
103.	-14605
Arre	-14606
Awar	-14607
COMP	-14608
Grou	-14609
Lock	-14610
Proc	-14611
SACT	-14612
drib	-14613
ghan	-14614
grou	-14615
isco	-14616
midd	-14617
oodr	-14618
ough	-14619
ribb	-14620
rmed	-14621
▁'19	-14622
▁HOS	-14623
▁POS	-14624
▁Wee	-14625
▁und	-14626
USEUM	-14627
aterb	-14628
coast	-14629
decis	-14630
dward	-14631
ercis	-14632
etwor	-14633
fghan	-14634
gship	-14635
igins	-14636
irmed	-14637
irths	-14638
jures	-14639
medic	-14640
nings	-14641
onsid	-14642
ormed	-14643
shipp	-14644
ttrib	-14645
wimme	-14646
works	-14647
▁Lock	-14648
▁Rese	-14649
▁Surg	-14650
▁grou	-14651
CheckO	-14652
adiums	-14653
approv	-14654
arning	-14655
erence	-14656
inence	-14657
kshops	-14658
laints	-14659
mative	-14660
metown	-14661
mongst	-14662
mories	-14663
ntries	-14664
oaster	-14665
obcode	-14666
object	-14667
ocking	-14668
oining	-14669
oldner	-14670
ollars	-14671
ollect	-14672
olorad	-14673
olored	-14674
olours	-14675
olumes	-14676
omName	-14677
omeone	-14678
omerat	-14679
ommiss	-14680
omname	-14681
ompany	-14682
omtype	-14683
onated	-14684
onator	-14685
onding	-14686
ongest	-14687
onging	-14688
ontact	-14689
ontain	-14690
ontent	-14691
ontere	-14692
oodrof	-14693
oodwin	-14694
ooking	-14695
opular	-14696
orated	-14697
ording	-14698
oreded	-14699
11"	-14700
11'	-14701
11-	-14702
180	-14703
20,	-14704
ACH	-14705
USE	-14706
VIC	-14707
▁yC	-14708
Amer	-14709
Brow	-14710
ERAC	-14711
ICES	-14712
aual	-14713
augh	-14714
brow	-14715
cert	-14716
ertz	-14717
noll	-14718
nses	-14719
okia	-14720
sset	-14721
stau	-14722
xfor	-14723
▁"11	-14724
▁15,	-14725
▁Dau	-14726
▁Orb	-14727
▁Tok	-14728
▁lab	-14729
▁neg	-14730
ACHER	-14731
CONRA	-14732
Heath	-14733
ISTIC	-14734
arfor	-14735
forme	-14736
isite	-14737
lowed	-14738
mises	-14739
mster	-14740
ollar	-14741
ootup	-14742
ought	-14743
peeds	-14744
towns	-14745
urses	-14746
▁Amer	-14747
▁Brow	-14748
▁Cert	-14749
▁Foot	-14750
▁Kert	-14751
▁amer	-14752
▁brow	-14753
▁cert	-14754
▁laun	-14755
▁repa	-14756
-08-26	-14757
Direct	-14758
UCTION	-14759
allery	-14760
anjing	-14761
berton	-14762
emales	-14763
former	-14764
iduals	-14765
isites	-14766
isitor	-14767
orking	-14768
ormall	-14769
orming	-14770
orname	-14771
orphyr	-14772
orship	-14773
ortage	-14774
ortest	-14775
orting	-14776
ortion	-14777
orward	-14778
osmith	-14779
osting	-14780
otalen	-14781
others	-14782
ounder	-14783
ountin	-14784
ountry	-14785
ources	-14786
oviest	-14787
owners	-14788
partic	-14789
partit	-14790
pation	-14791
peared	-14792
pening	-14793
petrat	-14794
phabet	-14795
phical	-14796
planes	-14797
pnurse	-14798
portRe	-14799
-13	-14800
192	-14801
199	-14802
Ash	-14803
BUM	-14804
Koh	-14805
Rod	-14806
UST	-14807
koh	-14808
sha	-14809
6484	-14810
AMIL	-14811
Chec	-14812
Chen	-14813
Chin	-14814
ESUL	-14815
Malt	-14816
Plat	-14817
Walt	-14818
bons	-14819
cons	-14820
days	-14821
eleg	-14822
luse	-14823
ohan	-14824
onsu	-14825
plat	-14826
ycho	-14827
▁Alb	-14828
▁Als	-14829
▁Ash	-14830
▁Cha	-14831
▁DPh	-14832
▁Joh	-14833
Agent	-14834
Britt	-14835
Champ	-14836
Chand	-14837
Compt	-14838
Deleg	-14839
aults	-14840
aulty	-14841
bandm	-14842
glish	-14843
ssues	-14844
▁Alis	-14845
▁Alme	-14846
▁Chen	-14847
▁Chil	-14848
▁Cons	-14849
▁Malt	-14850
▁SOUR	-14851
▁Walt	-14852
▁logg	-14853
▁plat	-14854
▁prec	-14855
▁pref	-14856
▁refu	-14857
Chines	-14858
Comput	-14859
Republ	-14860
Schust	-14861
adband	-14862
anuary	-14863
essons	-14864
nglish	-14865
portsI	-14866
ppened	-14867
proble	-14868
profil	-14869
provin	-14870
ptance	-14871
ptatem	-14872
ptions	-14873
quires	-14874
rading	-14875
radley	-14876
rained	-14877
rancis	-14878
randon	-14879
ranted	-14880
razole	-14881
reated	-14882
rected	-14883
rector	-14884
redate	-14885
rement	-14886
rescri	-14887
resent	-14888
ressed	-14889
retary	-14890
rganis	-14891
rganiz	-14892
riendl	-14893
riends	-14894
rimary	-14895
ritish	-14896
ritist	-14897
rivate	-14898
rivers	-14899
55.	-14900
MPL	-14901
OMP	-14902
nsy	-14903
saf	-14904
-261	-14905
CORD	-14906
GORD	-14907
Inde	-14908
Invo	-14909
Khan	-14910
Oper	-14911
Peet	-14912
arns	-14913
eets	-14914
gins	-14915
iley	-14916
nsat	-14917
ohns	-14918
peri	-14919
tern	-14920
trat	-14921
uite	-14922
umns	-14923
▁841	-14924
▁Ani	-14925
▁Ann	-14926
ACULT	-14927
[...]
