<pad>	0
<s>	0
</s>	0
<unk>	0
▁t	-0
▁W	-1
he	-2
le	-3
▁S	-4
at	-5
▁F	-6
▁=	-7
an	-8
▁the	-9
er	-10
ab	-11
able	-12
LE	-13
ER	-14
▁table	-15
RO	-16
CT	-17
▁SE	-18
ROM	-19
▁FROM	-20
▁WH	-21
LECT	-22
▁SELECT	-23
ERE	-24
▁WHERE	-25
▁w	-26
in	-27
on	-28
or	-29
is	-30
▁Wh	-31
as	-32
▁A	-33
am	-34
▁o	-35
ar	-36
en	-37
▁1	-38
▁is	-39
it	-40
▁of	-41
al	-42
▁s	-43
▁What	-44
▁a	-45
es	-46
▁2	-47
▁C	-48
▁p	-49
ion	-50
▁f	-51
▁h	-52
▁m	-53
▁P	-54
ic	-55
ND	-56
▁AND	-57
▁T	-58
▁c	-59
re	-60
▁d	-61
ed	-62
and	-63
ou	-64
▁R	-65
▁D	-66
▁M	-67
ay	-68
▁th	-69
cor	-70
ent	-71
▁N	-72
eam	-73
om	-74
▁was	-75
00	-76
ame	-77
ate	-78
▁n	-79
▁and	-80
st	-81
▁(	-82
▁for	-83
▁H	-84
▁b	-85
▁l	-86
▁g	-87
ow	-88
hen	-89
▁in	-90
ce	-91
▁r	-92
▁L	-93
▁than	-94
um	-95
ing	-96
ber	-97
il	-98
ot	-99
▁team	-100
ol	-101
▁when	-102
ation	-103
ith	-104
lay	-105
core	-106
▁G	-107
ig	-108
▁3	-109
os	-110
oun	-111
▁19	-112
▁with	-113
ver	-114
▁O	-115
ich	-116
el	-117
▁has	-118
ts	-119
ad	-120
ear	-121
ct	-122
id	-123
▁wh	-124
od	-125
ul	-126
ag	-127
▁B	-128
▁200	-129
▁4	-130
et	-131
un	-132
▁Date	-133
▁Which	-134
▁>	-135
ch	-136
▁Name	-137
im	-138
▁<	-139
▁E	-140
pp	-141
ir	-142
umber	-143
ue	-144
oin	-145
ome	-146
▁v	-147
les	-148
▁I	-149
tr	-150
▁5	-151
ur	-152
▁6	-153
▁Y	-154
▁e	-155
▁man	-156
▁CO	-157
otal	-158
NT	-159
ition	-160
▁score	-161
layer	-162
UNT	-163
▁COUNT	-164
▁what	-165
▁number	-166
oints	-167
est	-168
▁re	-169
oc	-170
ank	-171
th	-172
end	-173
▁Year	-174
ve	-175
▁many	-176
▁V	-177
ri	-178
▁Re	-179
ity	-180
▁How	-181
ound	-182
▁20	-183
▁7	-184
▁0	-185
▁that	-186
ap	-187
age	-188
ac	-189
ers	-190
op	-191
▁at	-192
ass	-193
onent	-194
pponent	-195
ace	-196
art	-197
way	-198
▁y	-199
ance	-200
cord	-201
▁Score	-202
▁st	-203
▁Who	-204
osition	-205
▁Team	-206
ain	-207
▁j	-208
▁on	-209
▁J	-210
us	-211
ult	-212
igh	-213
tend	-214
our	-215
▁8	-216
▁St	-217
ick	-218
IN	-219
esult	-220
are	-221
ode	-222
▁MA	-223
▁MIN	-224
ee	-225
inal	-226
ub	-227
▁date	-228
▁Player	-229
less	-230
ime	-231
▁MAX	-232
▁201	-233
tendance	-234
▁less	-235
▁had	-236
ner	-237
ie	-238
ore	-239
ill	-240
▁9	-241
all	-242
ra	-243
em	-244
▁an	-245
arg	-246
▁total	-247
als	-248
▁game	-249
▁Opponent	-250
▁k	-251
▁Win	-252
▁Home	-253
▁play	-254
ason	-255
ire	-256
▁se	-257
ist	-258
▁10	-259
▁as	-260
if	-261
enue	-262
ard	-263
▁In	-264
itle	-265
▁199	-266
ia	-267
▁"	-268
ge	-269
▁by	-270
ountr	-271
▁did	-272
▁Points	-273
ountry	-274
▁are	-275
▁win	-276
▁U	-277
▁ch	-278
▁Rank	-279
up	-280
▁points	-281
ies	-282
▁year	-283
pis	-284
ip	-285
ourn	-286
ut	-287
▁le	-288
▁Ch	-289
ro	-290
▁ha	-291
verage	-292
eek	-293
ocation	-294
ter	-295
alle	-296
ost	-297
▁Position	-298
▁Total	-299
▁Se	-300
▁12	-301
.1	-302
▁AV	-303
▁11	-304
▁At	-305
▁Away	-306
▁Record	-307
▁larg	-308
▁AVG	-309
-1	-310
ast	-311
ere	-312
here	-313
gain	-314
pisode	-315
lass	-316
ze	-317
ary	-318
gainst	-319
▁more	-320
UM	-321
rom	-322
▁SUM	-323
lub	-324
▁sm	-325
▁Result	-326
old	-327
ian	-328
oss	-329
▁player	-330
▁larger	-331
▁Venue	-332
ool	-333
▁Attendance	-334
oals	-335
▁were	-336
lace	-337
qu	-338
▁average	-339
▁K	-340
ens	-341
▁18	-342
▁smalle	-343
pe	-344
▁rank	-345
▁#	-346
▁have	-347
ak	-348
ong	-349
▁de	-350
cted	-351
ament	-352
ction	-353
aps	-354
chool	-355
▁home	-356
ict	-357
ight	-358
ournament	-359
▁14	-360
▁Round	-361
▁Country	-362
ions	-363
▁Location	-364
▁to	-365
ron	-366
ighe	-367
omp	-368
▁un	-369
▁name	-370
▁record	-371
)?	-372
▁15	-373
▁Time	-374
▁played	-375
▁No	-376
▁Gr	-377
▁When	-378
raw	-379
▁13	-380
ell	-381
▁highe	-382
▁En	-383
amp	-384
ish	-385
▁smaller	-386
ctor	-387
ort	-388
ant	-389
▁from	-390
▁par	-391
0?	-392
▁198	-393
ning	-394
▁episode	-395
▁where	-396
mber	-397
▁be	-398
▁16	-399
-2	-400
ru	-401
▁low	-402
ount	-403
▁gr	-404
ine	-405
ew	-406
▁position	-407
-7	-408
own	-409
ment	-410
ates	-411
▁pr	-412
▁against	-413
ack	-414
ames	-415
olle	-416
▁highest	-417
eries	-418
▁no	-419
her	-420
istr	-421
river	-422
▁Week	-423
ud	-424
opul	-425
▁gre	-426
ater	-427
▁Title	-428
ational	-429
▁Le	-430
ff	-431
▁De	-432
irst	-433
iv	-434
iginal	-435
ey	-436
▁or	-437
▁season	-438
▁lowest	-439
iew	-440
ated	-441
▁Game	-442
▁away	-443
ilver	-444
ronze	-445
ust	-446
▁time	-447
▁round	-448
vent	-449
opulation	-450
"?	-451
▁title	-452
▁result	-453
ond	-454
ollege	-455
rit	-456
ess	-457
▁per	-458
2?	-459
nd	-460
▁he	-461
row	-462
ans	-463
-6	-464
pr	-465
fer	-466
1?	-467
land	-468
▁2008	-469
.5	-470
▁sh	-471
▁opponent	-472
3?	-473
▁who	-474
istrict	-475
▁17	-476
▁Pr	-477
▁(1	-478
ium	-479
▁Or	-480
ton	-481
▁Season	-482
4?	-483
odu	-484
ang	-485
che	-486
ague	-487
▁air	-488
ice	-489
5?	-490
▁there	-491
▁attendance	-492
ly	-493
umb	-494
io	-495
ug	-496
av	-497
▁Part	-498
ory	-499
▁Tournament	-500
der	-501
▁won	-502
.0	-503
6?	-504
▁me	-505
▁con	-506
orm	-507
rowd	-508
7?	-509
oll	-510
▁Goals	-511
ype	-512
▁ele	-513
iewers	-514
.2	-515
▁greater	-516
hip	-517
▁)	-518
▁scor	-519
cy	-520
▁197	-521
▁Con	-522
og	-523
-0	-524
▁Pick	-525
se	-526
▁which	-527
ence	-528
assis	-529
ited	-530
▁Wins	-531
9?	-532
▁$	-533
ember	-534
eb	-535
▁School	-536
▁Class	-537
▁class	-538
▁To	-539
▁mat	-540
pt	-541
▁final	-542
–1	-543
eng	-544
ld	-545
ik	-546
ov	-547
ry	-548
ive	-549
ompet	-550
.8	-551
ober	-552
▁Place	-553
cumb	-554
▁25	-555
▁(2	-556
.4	-557
▁Draw	-558
cumbent	-559
000	-560
ired	-561
▁21	-562
▁val	-563
▁High	-564
ark	-565
▁code	-566
port	-567
ompetition	-568
▁22	-569
▁week	-570
anu	-571
ision	-572
▁Laps	-573
oh	-574
▁Gold	-575
▁24	-576
▁College	-577
8?	-578
oduction	-579
.9	-580
ft	-581
unner	-582
.7	-583
irected	-584
son	-585
ok	-586
▁City	-587
6,	-588
▁Bronze	-589
eight	-590
▁series	-591
ock	-592
.3	-593
▁2010	-594
verall	-595
ork	-596
cent	-597
osses	-598
ationality	-599
▁Silver	-600
iver	-601
adium	-602
vember	-603
ication	-604
.6	-605
▁goals	-606
▁Grid	-607
▁Original	-608
▁196	-609
ial	-610
▁23	-611
▁Un	-612
▁Play	-613
ency	-614
pril	-615
▁Driver	-616
ole	-617
▁viewers	-618
isit	-619
otes	-620
▁2009	-621
▁Ar	-622
▁part	-623
▁2011	-624
▁+	-625
face	-626
▁Eng	-627
ward	-628
▁Event	-629
cc	-630
▁2007	-631
urface	-632
ampions	-633
▁Club	-634
▁1,	-635
ale	-636
te	-637
ign	-638
▁place	-639
ord	-640
ier	-641
ure	-642
01	-643
ctober	-644
ob	-645
outh	-646
▁Number	-647
man	-648
▁value	-649
▁med	-650
ification	-651
illion	-652
▁sum	-653
ph	-654
▁mar	-655
▁Q	-656
▁school	-657
▁Al	-658
▁pick	-659
▁wins	-660
ite	-661
▁tr	-662
act	-663
come	-664
▁District	-665
iel	-666
ten	-667
leas	-668
▁country	-669
omin	-670
ors	-671
▁30	-672
ach	-673
▁27	-674
cember	-675
aw	-676
▁do	-677
odel	-678
▁al	-679
uit	-680
▁am	-681
▁/	-682
ane	-683
iss	-684
uil	-685
▁car	-686
▁Winning	-687
▁scored	-688
ohn	-689
▁195	-690
▁Population	-691
▁Winner	-692
▁%	-693
▁First	-694
▁Tr	-695
gion	-696
▁af	-697
anuary	-698
▁2006	-699
ampionship	-700
▁tournament	-701
▁Crowd	-702
▁being	-703
ference	-704
ax	-705
=2	-706
▁club	-707
▁match	-708
▁venue	-709
ose	-710
▁first	-711
▁29	-712
ah	-713
▁Mar	-714
enn	-715
▁6–	-716
ade	-717
▁2012	-718
▁how	-719
elb	-720
ritten	-721
▁Cup	-722
ann	-723
val	-724
orn	-725
▁games	-726
km	-727
▁Played	-728
▁League	-729
irc	-730
ounty	-731
▁population	-732
ourne	-733
▁laps	-734
andid	-735
anc	-736
▁location	-737
AT	-738
elbourne	-739
4,	-740
▁Nationality	-741
ath	-742
▁pe	-743
▁Against	-744
ile	-745
▁Lost	-746
▁high	-747
pen	-748
30	-749
ebru	-750
ebruary	-751
requ	-752
oy	-753
ptember	-754
3,	-755
orth	-756
▁Competition	-757
▁city	-758
requency	-759
:00	-760
1,	-761
▁28	-762
▁does	-763
▁elected	-764
▁On	-765
illions	-766
rea	-767
▁us	-768
une	-769
▁Per	-770
▁Nation	-771
▁sp	-772
▁draw	-773
ateg	-774
ries	-775
ric	-776
▁united	-777
ield	-778
ches	-779
irector	-780
oup	-781
▁br	-782
▁Incumbent	-783
ina	-784
▁after	-785
5,	-786
isitor	-787
▁cap	-788
inish	-789
▁Sh	-790
stru	-791
▁gold	-792
▁Series	-793
0,	-794
bound	-795
ix	-796
ood	-797
▁driver	-798
▁26	-799
▁winner	-800
▁ar	-801
▁For	-802
▁years	-803
ons	-804
▁list	-805
ategory	-806
mer	-807
▁eng	-808
▁1?	-809
▁Area	-810
erv	-811
ille	-812
form	-813
ual	-814
▁2,	-815
▁type	-816
▁qu	-817
▁Out	-818
ib	-819
ider	-820
ircuit	-821
per	-822
▁leg	-823
▁Where	-824
▁State	-825
▁Party	-826
ck	-827
bounds	-828
▁Mat	-829
▁The	-830
▁Type	-831
▁original	-832
ide	-833
▁race	-834
▁medals	-835
▁Overall	-836
centage	-837
2,	-838
oub	-839
▁2?	-840
▁app	-841
ugust	-842
▁Surface	-843
eth	-844
lease	-845
ss	-846
▁Episode	-847
▁grid	-848
ele	-849
uly	-850
ubl	-851
atal	-852
ilm	-853
▁Years	-854
▁silver	-855
▁Th	-856
▁new	-857
2)	-858
ont	-859
one	-860
tern	-861
cot	-862
▁Car	-863
▁all	-864
ern	-865
▁under	-866
▁ent	-867
ating	-868
▁ad	-869
atus	-870
▁Top	-871
▁Br	-872
ne	-873
▁min	-874
▁district	-875
/1	-876
ower	-877
▁Race	-878
▁most	-879
fore	-880
▁Tell	-881
▁2005	-882
▁classification	-883
▁over	-884
ral	-885
ivers	-886
▁bronze	-887
8,	-888
▁state	-889
abel	-890
▁Losses	-891
ats	-892
▁area	-893
andidates	-894
ote	-895
▁pro	-896
▁sing	-897
etired	-898
lo	-899
-3	-900
AA	-901
vin	-902
▁US	-903
ople	-904
▁production	-905
▁co	-906
▁april	-907
▁assis	-908
▁event	-909
▁assists	-910
oney	-911
▁before	-912
oubles	-913
▁0?	-914
orld	-915
▁Ele	-916
▁Pro	-917
▁pl	-918
▁Runner	-919
omm	-920
atalog	-921
ivision	-922
▁Average	-923
ange	-924
Retired	-925
10	-926
▁ex	-927
▁New	-928
structor	-929
▁(7	-930
▁Games	-931
ail	-932
▁App	-933
▁2004	-934
▁&	-935
▁rebounds	-936
ards	-937
▁runner	-938
▁Directed	-939
99	-940
▁directed	-941
ake	-942
▁3,	-943
ind	-944
let	-945
ther	-946
▁ear	-947
ican	-948
az	-949
7,	-950
▁Production	-951
▁Written	-952
ior	-953
oal	-954
▁people	-955
▁Visitor	-956
▁crowd	-957
▁ass	-958
▁may	-959
▁stadium	-960
gh	-961
ude	-962
▁loc	-963
▁Sp	-964
▁Drawn	-965
ird	-966
oint	-967
rd	-968
raft	-969
-4	-970
imum	-971
lish	-972
–2	-973
▁1:	-974
▁listed	-975
-5	-976
▁TH	-977
▁Height	-978
▁Co	-979
▁November	-980
▁november	-981
14	-982
ex	-983
▁tim	-984
▁nomin	-985
",	-986
▁3?	-987
▁it	-988
Club	-989
cond	-990
stit	-991
▁pre	-992
acing	-993
iversity	-994
▁Stadium	-995
uk	-996
odes	-997
pl	-998
▁Can	-999
▁percentage	-1000
▁An	-1001
▁october	-1002
▁35	-1003
▁Region	-1004
▁Cap	-1005
▁County	-1006
▁Frequency	-1007
itude	-1008
iz	-1009
▁end	-1010
▁college	-1011
▁winning	-1012
▁show	-1013
oot	-1014
▁made	-1015
▁south	-1016
▁December	-1017
ike	-1018
▁(6	-1019
▁(8	-1020
▁states	-1021
argin	-1022
▁pri	-1023
▁-	-1024
res	-1025
▁4?	-1026
▁,	-1027
▁38	-1028
iam	-1029
▁31	-1030
▁cup	-1031
ners	-1032
▁park	-1033
▁Final	-1034
▁league	-1035
▁incumbent	-1036
ator	-1037
gr	-1038
ley	-1039
▁Form	-1040
▁melbourne	-1041
▁million	-1042
ets	-1043
▁2003	-1044
▁col	-1045
13	-1046
▁model	-1047
eat	-1048
ler	-1049
enter	-1050
▁Outcome	-1051
▁4,	-1052
▁Bl	-1053
▁Loss	-1054
▁amount	-1055
▁doubles	-1056
ese	-1057
uns	-1058
vel	-1059
ouse	-1060
▁comp	-1061
▁October	-1062
▁day	-1063
▁they	-1064
▁fr	-1065
▁buil	-1066
▁party	-1067
▁losses	-1068
▁oval	-1069
▁Chassis	-1070
ree	-1071
▁Set	-1072
▁Engine	-1073
▁Championship	-1074
▁32	-1075
▁Pri	-1076
12	-1077
icip	-1078
▁194	-1079
ethod	-1080
▁2001	-1081
▁34	-1082
▁January	-1083
▁ind	-1084
▁Opponents	-1085
nes	-1086
▁lost	-1087
▁Director	-1088
05	-1089
ounded	-1090
▁gu	-1091
erson	-1092
▁Tie	-1093
ins	-1094
▁5?	-1095
▁Pre	-1096
▁dif	-1097
▁John	-1098
▁April	-1099
▁september	-1100
▁Col	-1101
▁few	-1102
▁out	-1103
acity	-1104
▁If	-1105
▁Dec	-1106
ll	-1107
ustral	-1108
▁engine	-1109
ous	-1110
▁Ex	-1111
irth	-1112
▁Res	-1113
day	-1114
ony	-1115
ager	-1116
▁Circuit	-1117
15	-1118
ash	-1119
▁100	-1120
pisodes	-1121
▁z	-1122
▁English	-1123
▁max	-1124
off	-1125
urr	-1126
alif	-1127
ative	-1128
▁off	-1129
▁march	-1130
bur	-1131
uth	-1132
by	-1133
▁Fr	-1134
att	-1135
co	-1136
ize	-1137
▁Ind	-1138
▁Model	-1139
osing	-1140
mi	-1141
▁i	-1142
erm	-1143
9,	-1144
li	-1145
▁spe	-1146
▁john	-1147
FL	-1148
ild	-1149
icket	-1150
▁times	-1151
98	-1152
uch	-1153
▁United	-1154
aj	-1155
▁held	-1156
etw	-1157
ham	-1158
ense	-1159
▁res	-1160
annel	-1161
▁competition	-1162
red	-1163
25	-1164
▁km	-1165
▁least	-1166
▁Pl	-1167
▁2000	-1168
▁q	-1169
▁la	-1170
▁2002	-1171
▁Catalog	-1172
▁singles	-1173
ings	-1174
▁overall	-1175
▁bl	-1176
%?	-1177
ced	-1178
▁THE	-1179
▁december	-1180
roll	-1181
▁Art	-1182
▁vict	-1183
▁February	-1184
ena	-1185
oci	-1186
▁May	-1187
▁Draws	-1188
0)	-1189
1)	-1190
ocr	-1191
emocr	-1192
angu	-1193
lete	-1194
▁one	-1195
uring	-1196
▁championship	-1197
▁WHAT	-1198
inc	-1199
ickn	-1200
omet	-1201
ution	-1202
▁March	-1203
▁january	-1204
06	-1205
hed	-1206
▁–	-1207
▁5,	-1208
ical	-1209
▁trans	-1210
–6,	-1211
mond	-1212
▁award	-1213
ues	-1214
▁IS	-1215
▁Gen	-1216
ampion	-1217
▁Category	-1218
road	-1219
▁Mc	-1220
aces	-1221
▁Open	-1222
ai	-1223
fact	-1224
▁attend	-1225
ris	-1226
▁La	-1227
ville	-1228
▁Air	-1229
ington	-1230
▁start	-1231
ama	-1232
vince	-1233
▁whose	-1234
millions	-1235
aced	-1236
▁Comp	-1237
▁grand	-1238
▁Z	-1239
lor	-1240
publ	-1241
astest	-1242
▁nation	-1243
-10	-1244
▁Label	-1245
rollment	-1246
▁Buil	-1247
vg	-1248
▁top	-1249
▁2013	-1250
ret	-1251
▁36	-1252
▁best	-1253
▁sign	-1254
▁finish	-1255
any	-1256
itt	-1257
▁Qu	-1258
▁Call	-1259
anguage	-1260
▁Format	-1261
▁february	-1262
11	-1263
-71	-1264
▁ge	-1265
avid	-1266
tain	-1267
unior	-1268
ission	-1269
▁Trans	-1270
erman	-1271
▁open	-1272
amil	-1273
▁dec	-1274
etwork	-1275
▁associ	-1276
▁u	-1277
▁ph	-1278
urer	-1279
emocrat	-1280
▁ver	-1281
▁loss	-1282
▁serv	-1283
▁Finish	-1284
04	-1285
ari	-1286
aul	-1287
lin	-1288
▁you	-1289
esent	-1290
▁votes	-1291
ternational	-1292
ds	-1293
:30	-1294
ada	-1295
▁ed	-1296
▁Reg	-1297
▁bel	-1298
▁west	-1299
illiam	-1300
▁Partner	-1301
vi	-1302
▁FA	-1303
ales	-1304
wood	-1305
▁Money	-1306
▁Artist	-1307
▁form	-1308
go	-1309
ven	-1310
▁el	-1311
▁Lane	-1312
▁august	-1313
-9	-1314
16	-1315
▁if	-1316
▁Man	-1317
▁Grand	-1318
02	-1319
09	-1320
ng	-1321
onus	-1322
▁june	-1323
▁Release	-1324
▁smallest	-1325
▁sw	-1326
omen	-1327
–6	-1328
▁[	-1329
▁6?	-1330
▁su	-1331
ital	-1332
▁yes	-1333
nings	-1334
▁Rider	-1335
18	-1336
▁33	-1337
ford	-1338
gment	-1339
▁Lead	-1340
yd	-1341
▁South	-1342
▁episodes	-1343
▁(5	-1344
owns	-1345
rist	-1346
ults	-1347
▁Tries	-1348
facturer	-1349
),	-1350
au	-1351
ago	-1352
▁Song	-1353
▁lead	-1354
▁gen	-1355
▁Status	-1356
eral	-1357
▁Gre	-1358
▁north	-1359
eg	-1360
mp	-1361
▁June	-1362
unicip	-1363
▁surface	-1364
-8	-1365
08	-1366
uthor	-1367
26	-1368
ney	-1369
ensity	-1370
icense	-1371
▁Award	-1372
ickname	-1373
▁Constructor	-1374
uck	-1375
▁Ad	-1376
▁str	-1377
▁fewer	-1378
unicipal	-1379
DP	-1380
▁Par	-1381
▁not	-1382
▁song	-1383
▁Notes	-1384
▁associated	-1385
97	-1386
-68	-1387
▁7?	-1388
urrent	-1389
bum	-1390
rew	-1391
▁ab	-1392
▁group	-1393
07	-1394
err	-1395
ita	-1396
▁Ge	-1397
bert	-1398
cast	-1399
▁(201	-1400
apan	-1401
ists	-1402
▁size	-1403
ki	-1404
ael	-1405
ometown	-1406
sh	-1407
-70	-1408
org	-1409
amed	-1410
▁10,	-1411
▁Min	-1412
▁Spe	-1413
▁1999	-1414
▁Entr	-1415
▁manager	-1416
▁Ed	-1417
▁en	-1418
▁bar	-1419
me	-1420
▁Candidates	-1421
34	-1422
ect	-1423
out	-1424
▁42	-1425
ances	-1426
▁july	-1427
.14	-1428
itz	-1429
▁45	-1430
mm	-1431
▁Bar	-1432
▁September	-1433
/2	-1434
af	-1435
uss	-1436
▁7,	-1437
▁wr	-1438
▁lap	-1439
▁run	-1440
-69	-1441
ular	-1442
▁(200	-1443
▁much	-1444
▁Film	-1445
▁draws	-1446
▁x	-1447
ett	-1448
atur	-1449
ough	-1450
▁Off	-1451
▁Qual	-1452
air	-1453
▁cl	-1454
ress	-1455
ished	-1456
▁located	-1457
17	-1458
▁40	-1459
ched	-1460
▁char	-1461
▁world	-1462
33	-1463
▁6,	-1464
reet	-1465
very	-1466
▁North	-1467
▁Viewers	-1468
▁category	-1469
▁37	-1470
▁Run	-1471
▁Margin	-1472
▁height	-1473
▁Melbourne	-1474
▁Long	-1475
its	-1476
▁Apps	-1477
▁long	-1478
▁54	-1479
▁can	-1480
▁used	-1481
9)	-1482
▁8?	-1483
▁1998	-1484
▁teams	-1485
▁region	-1486
36	-1487
CA	-1488
ino	-1489
▁1996	-1490
▁August	-1491
cl	-1492
▁Pos	-1493
▁July	-1494
0000	-1495
elev	-1496
▁com	-1497
▁shows	-1498
ec	-1499
▁39	-1500
▁Goal	-1501
▁ticket	-1502
publican	-1503
▁release	-1504
▁University	-1505
4)	-1506
IT	-1507
ox	-1508
yr	-1509
que	-1510
ustralia	-1511
▁Entrant	-1512
orts	-1513
▁0,	-1514
▁50	-1515
ster	-1516
▁art	-1517
▁film	-1518
▁tell	-1519
▁bonus	-1520
istance	-1521
▁election	-1522
37	-1523
▁44	-1524
▁49	-1525
▁Ph	-1526
▁46	-1527
▁GDP	-1528
riter	-1529
ied	-1530
len	-1531
▁fin	-1532
▁States	-1533
▁Matches	-1534
stitution	-1535
▁maximum	-1536
sc	-1537
uts	-1538
▁68	-1539
▁West	-1540
ountain	-1541
▁county	-1542
uel	-1543
ident	-1544
▁2008?	-1545
%)	-1546
-72	-1547
ars	-1548
ger	-1549
ouis	-1550
▁Char	-1551
ichael	-1552
olling	-1553
▁matches	-1554
unicipality	-1555
yl	-1556
ope	-1557
▁des	-1558
▁ste	-1559
22	-1560
ull	-1561
▁Ath	-1562
▁director	-1563
ures	-1564
▁1994	-1565
▁station	-1566
50	-1567
oles	-1568
part	-1569
▁Park	-1570
▁Method	-1571
▁member	-1572
▁division	-1573
▁nationality	-1574
38	-1575
96	-1576
▁cor	-1577
▁1990	-1578
ichmond	-1579
▁@	-1580
ave	-1581
▁sl	-1582
▁14,	-1583
▁named	-1584
▁largest	-1585
▁20,	-1586
▁reg	-1587
▁He	-1588
over	-1589
▁12,	-1590
▁16,	-1591
▁every	-1592
▁victory	-1593
isiting	-1594
▁during	-1595
▁players	-1596
▁service	-1597
▁nominated	-1598
24	-1599
Hz	-1600
ks	-1601
ald	-1602
ica	-1603
ota	-1604
▁47	-1605
▁11,	-1606
▁Ass	-1607
present	-1608
emocratic	-1609
▁mc	-1610
▁Start	-1611
▁chassis	-1612
▁written	-1613
3)	-1614
eter	-1615
▁ranked	-1616
▁candidates	-1617
20	-1618
▁71	-1619
▁mon	-1620
ascot	-1621
ource	-1622
kg	-1623
▁48	-1624
▁As	-1625
▁ER	-1626
ball	-1627
▁draft	-1628
▁Weight	-1629
▁attended	-1630
▁millions	-1631
28	-1632
▁70	-1633
ccess	-1634
tra	-1635
▁8,	-1636
▁El	-1637
field	-1638
ption	-1639
.12	-1640
▁sc	-1641
▁rate	-1642
▁site	-1643
▁frequency	-1644
▁69	-1645
▁Power	-1646
und	-1647
▁Sw	-1648
▁sub	-1649
▁Stage	-1650
▁Division	-1651
27	-1652
HL	-1653
▁(4	-1654
imin	-1655
va	-1656
ensus	-1657
na	-1658
view	-1659
▁second	-1660
19	-1661
55	-1662
ha	-1663
ij	-1664
▁9?	-1665
▁Ste	-1666
▁status	-1667
-73	-1668
▁Best	-1669
▁Prix	-1670
oad	-1671
▁2:	-1672
29	-1673
uc	-1674
ara	-1675
▁ERP	-1676
▁def	-1677
icago	-1678
▁1995	-1679
▁Manu	-1680
▁aired	-1681
▁racing	-1682
roadcast	-1683
ka	-1684
ati	-1685
▁15,	-1686
▁Men	-1687
▁Tor	-1688
ister	-1689
▁wind	-1690
anding	-1691
▁Match	-1692
▁change	-1693
fl	-1694
=28	-1695
ston	-1696
▁Avg	-1697
▁List	-1698
▁circuit	-1699
ida	-1700
▁Pe	-1701
club	-1702
iana	-1703
▁rece	-1704
▁stage	-1705
etro	-1706
lex	-1707
▁TV	-1708
▁fl	-1709
ving	-1710
▁wat	-1711
▁1997	-1712
▁rider	-1713
▁rounds	-1714
▁Station	-1715
▁55	-1716
▁big	-1717
arter	-1718
odium	-1719
▁Member	-1720
▁Capacity	-1721
mph	-1722
▁Dif	-1723
▁Med	-1724
leased	-1725
▁channel	-1726
br	-1727
eh	-1728
ana	-1729
▁tor	-1730
▁host	-1731
▁built	-1732
▁rating	-1733
ona	-1734
▁9,	-1735
onto	-1736
▁(%)	-1737
▁And	-1738
endon	-1739
▁Scor	-1740
▁cont	-1741
▁mark	-1742
▁Inter	-1743
▁artist	-1744
elevision	-1745
hel	-1746
ics	-1747
isp	-1748
▁est	-1749
ander	-1750
▁1991	-1751
▁Mark	-1752
▁World	-1753
▁license	-1754
▁perform	-1755
23	-1756
yn	-1757
▁Ear	-1758
▁opponents	-1759
gg	-1760
.11	-1761
▁41	-1762
▁67	-1763
atest	-1764
▁Birth	-1765
▁Other	-1766
aly	-1767
▁Group	-1768
million	-1769
bo	-1770
min	-1771
wner	-1772
▁10?	-1773
acter	-1774
35	-1775
ps	-1776
.16	-1777
ray	-1778
yle	-1779
▁1993	-1780
ase	-1781
ung	-1782
lton	-1783
▁Hometown	-1784
-25	-1785
▁By	-1786
oston	-1787
▁wrote	-1788
▁person	-1789
.13	-1790
ATA	-1791
els	-1792
▁57	-1793
▁19,	-1794
▁hard	-1795
▁office	-1796
▁Athlete	-1797
▁constructor	-1798
ams	-1799
▁Comm	-1800
▁Rating	-1801
ili	-1802
atio	-1803
▁ath	-1804
▁Pole	-1805
▁Sing	-1806
▁density	-1807
ays	-1808
▁43	-1809
sion	-1810
▁San	-1811
▁vac	-1812
▁last	-1813
antity	-1814
▁higher	-1815
▁Segment	-1816
)-	-1817
urn	-1818
▁66	-1819
urope	-1820
▁Nomin	-1821
▁power	-1822
▁Perform	-1823
44	-1824
US	-1825
cer	-1826
▁72	-1827
▁sk	-1828
▁haw	-1829
▁san	-1830
thorn	-1831
▁prix	-1832
▁Nickname	-1833
▁Enrollment	-1834
▁Manufacturer	-1835
ITH	-1836
cott	-1837
inia	-1838
going	-1839
▁feat	-1840
▁Women	-1841
▁Is	-1842
▁NHL	-1843
obert	-1844
▁money	-1845
▁Conference	-1846
45	-1847
OR	-1848
pm	-1849
▁11?	-1850
ove	-1851
ural	-1852
olina	-1853
onsor	-1854
▁1992	-1855
▁WITH	-1856
▁goal	-1857
▁dates	-1858
▁Champion	-1859
03	-1860
oe	-1861
▁Cl	-1862
▁12?	-1863
▁18,	-1864
ength	-1865
▁Oval	-1866
▁word	-1867
tt	-1868
uper	-1869
▁13,	-1870
ya	-1871
▁17,	-1872
▁Ends	-1873
▁comm	-1874
▁Length	-1875
.15	-1876
▁GP	-1877
elong	-1878
▁house	-1879
▁their	-1880
▁Second	-1881
56	-1882
AN	-1883
HS	-1884
CAO	-1885
usic	-1886
liest	-1887
loors	-1888
▁2010?	-1889
▁2011?	-1890
▁titled	-1891
▁earliest	-1892
▁university	-1893
00?	-1894
bin	-1895
back	-1896
oving	-1897
ameter	-1898
uthority	-1899
▁Fastest	-1900
▁appoint	-1901
ones	-1902
▁tries	-1903
▁Difference	-1904
▁difference	-1905
48	-1906
6)	-1907
iod	-1908
ise	-1909
▁58	-1910
▁men	-1911
icles	-1912
▁From	-1913
▁Last	-1914
▁foot	-1915
▁Japan	-1916
uration	-1917
▁Events	-1918
▁income	-1919
▁ranking	-1920
21	-1921
led	-1922
roy	-1923
lymp	-1924
▁MHz	-1925
vious	-1926
▁york	-1927
pposing	-1928
▁Network	-1929
▁minimum	-1930
alt	-1931
ania	-1932
oice	-1933
ssue	-1934
▁IHS	-1935
oined	-1936
omens	-1937
ydney	-1938
▁call	-1939
▁report	-1940
▁scorer	-1941
▁Founded	-1942
▁ID	-1943
ancy	-1944
ants	-1945
arts	-1946
omas	-1947
ferent	-1948
▁point	-1949
▁qualif	-1950
57	-1951
-67	-1952
ren	-1953
idge	-1954
▁Won	-1955
▁IATA	-1956
▁share	-1957
▁Report	-1958
▁Republican	-1959
ush	-1960
▁Me	-1961
date	-1962
ornia	-1963
▁Amer	-1964
ermany	-1965
▁speed	-1966
andidate	-1967
alifornia	-1968
▁Language	-1969
-11	-1970
▁51	-1971
▁dr	-1972
anel	-1973
exas	-1974
▁14?	-1975
ansas	-1976
areer	-1977
odiums	-1978
▁IHSAA	-1979
40	-1980
95	-1981
de	-1982
–0	-1983
▁pm	-1984
erem	-1985
▁Lat	-1986
▁Mon	-1987
▁lane	-1988
▁count	-1989
rs	-1990
ico	-1991
ims	-1992
ages	-1993
erry	-1994
ixed	-1995
offs	-1996
▁With	-1997
▁2007?	-1998
▁Classification	-1999
uff	-2000
rica	-2001
amily	-2002
▁ICAO	-2003
▁birth	-2004
▁drawn	-2005
▁numbers	-2006
ollingwood	-2007
AR	-2008
ko	-2009
ela	-2010
use	-2011
-200	-2012
ject	-2013
oria	-2014
▁act	-2015
ersey	-2016
scray	-2017
▁cent	-2018
▁town	-2019
▁Center	-2020
▁Province	-2021
31	-2022
ano	-2023
ling	-2024
▁Des	-2025
▁fri	-2026
▁format	-2027
▁different	-2028
of	-2029
lot	-2030
the	-2031
▁52	-2032
▁kn	-2033
000?	-2034
▁pat	-2035
▁Town	-2036
▁appear	-2037
▁center	-2038
▁visitor	-2039
7)	-2040
▁3:	-2041
▁Gu	-2042
▁up	-2043
cher	-2044
ngth	-2045
▁Com	-2046
▁notes	-2047
unction	-2048
▁having	-2049
▁Institution	-2050
but	-2051
▁56	-2052
ouch	-2053
▁clay	-2054
etroit	-2055
▁Cr	-2056
▁OF	-2057
oper	-2058
▁mot	-2059
inese	-2060
▁1989	-2061
▁York	-2062
placed	-2063
▁actor	-2064
▁plays	-2065
▁Mascot	-2066
▁Transfer	-2067
▁capacity	-2068
AL	-2069
AM	-2070
bor	-2071
oph	-2072
▁+1	-2073
▁ac	-2074
hold	-2075
▁1987	-2076
▁Site	-2077
▁Third	-2078
▁founded	-2079
▁released	-2080
be	-2081
ech	-2082
▁($	-2083
▁22,	-2084
stitu	-2085
▁Bill	-2086
▁results	-2087
ma	-2088
aff	-2089
elph	-2090
ocial	-2091
▁qual	-2092
▁term	-2093
junior	-2094
▁David	-2095
▁label	-2096
▁other	-2097
iameter	-2098
▁nomination	-2099
▁Municipality	-2100
oul	-2101
▁Pat	-2102
▁Sem	-2103
▁tie	-2104
▁Code	-2105
▁length	-2106
▁william	-2107
39	-2108
75	-2109
onn	-2110
urs	-2111
▁73	-2112
▁Sk	-2113
▁23,	-2114
▁24,	-2115
▁25,	-2116
▁captain	-2117
46	-2118
to	-2119
▁CFL	-2120
▁death	-2121
58	-2122
eff	-2123
▁Su	-2124
▁Host	-2125
lorida	-2126
▁coach	-2127
retired	-2128
▁Democratic	-2129
▁International	-2130
32	-2131
ke	-2132
ata	-2133
cri	-2134
▁cr	-2135
ilad	-2136
mier	-2137
▁21,	-2138
▁bill	-2139
asseng	-2140
elphia	-2141
itzroy	-2142
▁Field	-2143
▁margin	-2144
▁Mountain	-2145
iladelphia	-2146
ta	-2147
The	-2148
ody	-2149
▁76	-2150
ilda	-2151
▁met	-2152
▁inter	-2153
▁capita	-2154
▁Distance	-2155
▁visiting	-2156
▁59	-2157
▁74	-2158
▁hill	-2159
▁depart	-2160
▁qualify	-2161
▁seasons	-2162
.17	-2163
azz	-2164
▁Laun	-2165
▁david	-2166
▁field	-2167
▁method	-2168
▁weight	-2169
▁Election	-2170
imm	-2171
irg	-2172
iro	-2173
irt	-2174
olv	-2175
▁Ob	-2176
udio	-2177
▁AAA	-2178
▁Net	-2179
▁fee	-2180
▁Cent	-2181
▁Head	-2182
▁2009?	-2183
▁Poles	-2184
▁Track	-2185
▁Af	-2186
gate	-2187
▁mag	-2188
ities	-2189
▁Speed	-2190
▁third	-2191
▁Ground	-2192
▁Channel	-2193
stituency	-2194
▁appointment	-2195
zz	-2196
-74	-2197
con	-2198
ince	-2199
year	-2200
▁ess	-2201
▁got	-2202
▁ship	-2203
nesota	-2204
▁street	-2205
▁tournaments	-2206
ny	-2207
▁53	-2208
cies	-2209
▁13?	-2210
itles	-2211
ifinal	-2212
▁Sport	-2213
▁build	-2214
▁Current	-2215
▁language	-2216
isc	-2217
▁set	-2218
▁1986	-2219
▁Actor	-2220
▁Album	-2221
▁Earnings	-2222
▁champion	-2223
▁originally	-2224
66	-2225
kw	-2226
ti	-2227
▁√	-2228
ask	-2229
mon	-2230
▁Be	-2231
000)	-2232
▁16?	-2233
leted	-2234
▁Races	-2235
▁produ	-2236
▁fastest	-2237
47	-2238
=14	-2239
ani	-2240
oth	-2241
▁64	-2242
alen	-2243
lant	-2244
osed	-2245
ockey	-2246
venue	-2247
▁Heat	-2248
▁manu	-2249
▁Racing	-2250
▁catalog	-2251
▁outcome	-2252
▁version	-2253
77	-2254
88	-2255
oung	-2256
▁All	-2257
▁McC	-2258
▁head	-2259
▁Prize	-2260
▁entry	-2261
▁Writer	-2262
cription	-2263
▁richmond	-2264
▁international	-2265
▁X	-2266
-1?	-2267
.10	-2268
ado	-2269
ents	-2270
ison	-2271
ickets	-2272
▁Decile	-2273
▁airport	-2274
▁conference	-2275
BA	-2276
ty	-2277
-12	-2278
den	-2279
▁65	-2280
▁Fl	-2281
▁Day	-2282
icial	-2283
▁pole	-2284
▁Built	-2285
▁Issue	-2286
▁album	-2287
▁guard	-2288
▁essendon	-2289
ns	-2290
▁£	-2291
▁60	-2292
▁FL	-2293
ians	-2294
sign	-2295
▁Los	-2296
artin	-2297
▁Paul	-2298
errari	-2299
▁friend	-2300
▁scores	-2301
▁current	-2302
ban	-2303
sen	-2304
yst	-2305
▁97	-2306
berg	-2307
iles	-2308
okes	-2309
▁30,	-2310
▁6–4,	-2311
▁Decision	-2312
▁(9	-2313
▁Ne	-2314
ench	-2315
igin	-2316
isco	-2317
▁Mot	-2318
▁Rom	-2319
▁pol	-2320
▁ser	-2321
▁Byes	-2322
▁jack	-2323
▁mean	-2324
▁want	-2325
▁went	-2326
▁vacancy	-2327
▁It	-2328
▁Fin	-2329
▁inv	-2330
lands	-2331
▁Jack	-2332
▁decision	-2333
▁?	-2334
amb	-2335
oke	-2336
▁61	-2337
▁ag	-2338
ally	-2339
ured	-2340
▁27,	-2341
▁Lap	-2342
▁tom	-2343
ouchd	-2344
▁1983	-2345
▁Foot	-2346
▁prof	-2347
vening	-2348
▁Green	-2349
▁western	-2350
▁Australia	-2351
▁represent	-2352
85	-2353
ON	-2354
ii	-2355
ism	-2356
▁sem	-2357
▁peak	-2358
▁Owner	-2359
▁enter	-2360
▁order	-2361
▁Michael	-2362
▁airdate	-2363
▁network	-2364
▁Percentage	-2365
64	-2366
alo	-2367
ots	-2368
ylv	-2369
reak	-2370
▁Haw	-2371
▁she	-2372
▁Miss	-2373
estant	-2374
lation	-2375
▁Chinese	-2376
▁enrollment	-2377
5)	-2378
–3	-2379
ene	-2380
oor	-2381
ova	-2382
burg	-2383
▁fre	-2384
▁iss	-2385
▁ret	-2386
ender	-2387
▁1985	-2388
▁Cuts	-2389
▁Mens	-2390
▁Oper	-2391
▁medal	-2392
▁events	-2393
▁Airport	-2394
▁William	-2395
▁success	-2396
▁broadcast	-2397
8)	-2398
hz	-2399
–4	-2400
▁Sl	-2401
▁Ty	-2402
▁hc	-2403
adio	-2404
lier	-2405
orge	-2406
▁15?	-2407
▁Penn	-2408
atform	-2409
▁Census	-2410
▁Source	-2411
▁chicago	-2412
▁transfer	-2413
.?	-2414
hes	-2415
imb	-2416
osh	-2417
ury	-2418
▁62	-2419
▁80	-2420
▁bo	-2421
▁del	-2422
▁her	-2423
▁Ship	-2424
▁paul	-2425
vation	-2426
▁price	-2427
▁Social	-2428
▁values	-2429
AS	-2430
-0?	-2431
▁get	-2432
ceded	-2433
iders	-2434
▁Rock	-2435
▁Term	-2436
▁born	-2437
▁bigger	-2438
▁window	-2439
abl	-2440
amm	-2441
opa	-2442
▁2.0	-2443
▁bay	-2444
▁his	-2445
▁occ	-2446
▁Peak	-2447
▁king	-2448
▁vote	-2449
imsuit	-2450
▁Louis	-2451
▁green	-2452
ES	-2453
alk	-2454
▁Li	-2455
▁1.0	-2456
▁Cle	-2457
▁USD	-2458
imary	-2459
orgia	-2460
▁Role	-2461
▁Roll	-2462
▁Builder	-2463
▁partner	-2464
▁63	-2465
▁Est	-2466
arden	-2467
▁Work	-2468
▁apps	-2469
▁entr	-2470
▁Yards	-2471
▁guest	-2472
▁yards	-2473
eremony	-2474
▁canada	-2475
▁company	-2476
ouchdowns	-2477
com	-2478
▁75	-2479
▁tw	-2480
ourse	-2481
▁6–3,	-2482
▁oper	-2483
▁runs	-2484
elaide	-2485
▁ended	-2486
▁Assists	-2487
▁carlton	-2488
▁drafted	-2489
▁Japanese	-2490
▁recorded	-2491
76	-2492
92	-2493
▁*	-2494
▁4:	-2495
▁ty	-2496
▁we	-2497
▁Ser	-2498
▁Str	-2499
ystem	-2500
▁1980	-2501
▁Pres	-2502
▁laun	-2503
asters	-2504
ensive	-2505
▁period	-2506
▁Podiums	-2507
▁Results	-2508
ae	-2509
la	-2510
gar	-2511
ajor	-2512
▁Aug	-2513
▁bob	-2514
aster	-2515
▁Cont	-2516
▁2006?	-2517
▁ratio	-2518
▁entries	-2519
lb	-2520
oo	-2521
idd	-2522
ula	-2523
cial	-2524
play	-2525
▁Bob	-2526
▁equ	-2527
▁red	-2528
▁port	-2529
▁took	-2530
enness	-2531
▁seats	-2532
▁Street	-2533
▁playing	-2534
ustralian	-2535
▁championships	-2536
TV	-2537
▁−	-2538
-66	-2539
ces	-2540
urt	-2541
▁#1	-2542
▁78	-2543
pper	-2544
real	-2545
▁Loc	-2546
▁sun	-2547
▁Coach	-2548
▁james	-2549
ination	-2550
▁Jersey	-2551
▁hcards	-2552
ennessee	-2553
▁Leading	-2554
▁athlete	-2555
▁friendly	-2556
▁hawthorn	-2557
▁province	-2558
rie	-2559
yan	-2560
▁#2	-2561
▁08	-2562
pend	-2563
rian	-2564
▁Pts	-2565
▁Try	-2566
▁back	-2567
▁mont	-2568
▁titles	-2569
▁general	-2570
▁Quantity	-2571
▁australia	-2572
86	-2573
94	-2574
za	-2575
=27	-2576
gan	-2577
oto	-2578
unt	-2579
▁(0	-2580
▁7–	-2581
▁ft	-2582
igan	-2583
iger	-2584
▁29,	-2585
▁Red	-2586
▁Val	-2587
ctric	-2588
ports	-2589
▁1988	-2590
▁4–6,	-2591
ritish	-2592
▁Genre	-2593
▁kilda	-2594
irginia	-2595
▁Europe	-2596
▁Moving	-2597
▁belong	-2598
▁Outgoing	-2599
▁Performer	-2600
▁Television	-2601
bit	-2602
▁17?	-2603
▁den	-2604
final	-2605
geles	-2606
ility	-2607
overn	-2608
▁tour	-2609
▁work	-2610
andard	-2611
lement	-2612
▁Seats	-2613
▁black	-2614
▁track	-2615
mission	-2616
articles	-2617
▁Interview	-2618
IS	-2619
fa	-2620
500	-2621
=13	-2622
▁Sc	-2623
▁go	-2624
icle	-2625
▁Bel	-2626
▁Pol	-2627
▁Tim	-2628
▁che	-2629
▁har	-2630
aland	-2631
▁publ	-2632
▁vill	-2633
▁louis	-2634
iminated	-2635
54	-2636
91	-2637
Le	-2638
fc	-2639
ym	-2640
ini	-2641
ink	-2642
ume	-2643
onda	-2644
▁18?	-2645
▁Mil	-2646
ample	-2647
miere	-2648
▁Rate	-2649
▁Vers	-2650
▁Black	-2651
▁Extra	-2652
▁lower	-2653
▁olymp	-2654
▁departure	-2655
ca	-2656
awa	-2657
opp	-2658
ria	-2659
▁Sm	-2660
▁Bow	-2661
▁NFL	-2662
▁Sen	-2663
▁Tom	-2664
▁dri	-2665
▁8:00	-2666
▁Left	-2667
▁Road	-2668
angers	-2669
▁Joined	-2670
▁boston	-2671
▁picked	-2672
▁geelong	-2673
por	-2674
▁90	-2675
atch	-2676
iter	-2677
orse	-2678
▁mil	-2679
ffili	-2680
pport	-2681
▁this	-2682
weight	-2683
▁Share	-2684
▁prize	-2685
▁Office	-2686
▁christ	-2687
▁latest	-2688
ablished	-2689
lacement	-2690
▁General	-2691
▁sponsor	-2692
▁winners	-2693
assengers	-2694
.19	-2695
ows	-2696
▁Am	-2697
▁er	-2698
omot	-2699
▁26,	-2700
▁Sub	-2701
▁fat	-2702
ouple	-2703
▁Port	-2704
▁cons	-2705
▁wash	-2706
▁2012?	-2707
ylvania	-2708
▁Floors	-2709
▁Ranking	-2710
▁Regular	-2711
▁entrant	-2712
▁candidate	-2713
▁footscray	-2714
▁collingwood	-2715
kn	-2716
200	-2717
inn	-2718
▁Ab	-2719
▁cd	-2720
▁ma	-2721
▁ne	-2722
site	-2723
ustin	-2724
▁Runs	-2725
▁down	-2726
▁House	-2727
▁Losing	-2728
mentator	-2729
▁germany	-2730
▁Authority	-2731
dom	-2732
ife	-2733
iny	-2734
oft	-2735
qmi	-2736
▁FC	-2737
ines	-2738
▁187	-2739
▁1984	-2740
▁happ	-2741
▁Super	-2742
▁(2011)	-2743
▁Christ	-2744
▁Company	-2745
▁Toronto	-2746
▁segment	-2747
▁watched	-2748
▁manufacturer	-2749
ief	-2750
ira	-2751
▁77	-2752
▁fa	-2753
▁fig	-2754
▁jim	-2755
▁squ	-2756
League	-2757
▁Gross	-2758
▁Order	-2759
▁Robert	-2760
▁Rebounds	-2761
LA	-2762
uj	-2763
▁'	-2764
ola	-2765
▁em	-2766
▁im	-2767
ophy	-2768
▁Max	-2769
▁gar	-2770
▁net	-2771
▁days	-2772
▁pres	-2773
ichard	-2774
▁races	-2775
▁france	-2776
sylvania	-2777
▁michael	-2778
ashington	-2779
▁National	-2780
▁national	-2781
90	-2782
-16	-2783
-2?	-2784
uro	-2785
▁es	-2786
▁tv	-2787
ived	-2788
allen	-2789
▁East	-2790
▁Hill	-2791
▁amer	-2792
▁Color	-2793
▁Peter	-2794
▁local	-2795
billion	-2796
▁Sydney	-2797
▁household	-2798
.5?	-2799
olf	-2800
,000	-2801
ache	-2802
aser	-2803
▁mov	-2804
▁rob	-2805
▁war	-2806
burgh	-2807
ondon	-2808
▁1982	-2809
ension	-2810
▁Teams	-2811
▁women	-2812
istered	-2813
▁ground	-2814
▁Opposing	-2815
▁Championships	-2816
ys	-2817
0)?	-2818
iet	-2819
iga	-2820
▁fc	-2821
▁ol	-2822
olog	-2823
▁19?	-2824
▁20?	-2825
▁22?	-2826
▁Den	-2827
▁Sun	-2828
alian	-2829
known	-2830
stell	-2831
▁Vict	-2832
▁Vill	-2833
▁mike	-2834
▁rock	-2835
▁2003?	-2836
▁career	-2837
▁family	-2838
▁Elector	-2839
stellation	-2840
▁Longitude	-2841
▁washington	-2842
42	-2843
53	-2844
wa	-2845
▁Ag	-2846
▁Dr	-2847
aker	-2848
tage	-2849
urch	-2850
wick	-2851
▁Web	-2852
▁pet	-2853
▁ends	-2854
▁side	-2855
ighest	-2856
▁2005?	-2857
▁Theme	-2858
▁princ	-2859
▁england	-2860
▁fitzroy	-2861
▁Richmond	-2862
▁distance	-2863
▁nickname	-2864
▁Washington	-2865
93	-2866
fe	-2867
raz	-2868
ased	-2869
eden	-2870
utes	-2871
▁188	-2872
▁Mal	-2873
▁mem	-2874
▁mor	-2875
▁1981	-2876
▁Land	-2877
▁role	-2878
Junior	-2879
ations	-2880
▁2004?	-2881
▁Arena	-2882
▁later	-2883
▁Scored	-2884
▁Highest	-2885
▁250	-2886
▁7–6	-2887
▁Nor	-2888
attle	-2889
ected	-2890
ights	-2891
ments	-2892
ussia	-2893
▁gain	-2894
chester	-2895
▁Womens	-2896
▁source	-2897
▁writer	-2898
▁Winners	-2899
▁ferrari	-2900
▁American	-2901
43	-2902
FC	-2903
bs	-2904
.18	-2905
ned	-2906
oen	-2907
▁ir	-2908
▁vs	-2909
leet	-2910
rick	-2911
▁($)	-2912
▁Che	-2913
▁Dan	-2914
▁heat	-2915
▁hold	-2916
▁Panel	-2917
▁Scott	-2918
▁progr	-2919
▁sport	-2920
▁leading	-2921
▁Playoffs	-2922
▁carolina	-2923
▁character	-2924
▁California	-2925
67	-2926
ja	-2927
arm	-2928
oan	-2929
▁500	-2930
▁ben	-2931
▁cle	-2932
▁los	-2933
▁sim	-2934
▁web	-2935
inois	-2936
▁cred	-2937
irdate	-2938
▁Music	-2939
▁Density	-2940
▁Runners	-2941
struction	-2942
▁Latitude	-2943
▁building	-2944
ffiliation	-2945
▁Mountains	-2946
OT	-2947
SI	-2948
ga	-2949
hio	-2950
oma	-2951
▁88	-2952
▁98	-2953
▁BB	-2954
▁Em	-2955
▁fm	-2956
apol	-2957
▁Agg	-2958
▁Fre	-2959
▁pit	-2960
allas	-2961
▁1971	-2962
▁Frank	-2963
▁Votes	-2964
▁japan	-2965
▁design	-2966
▁detroit	-2967
▁premier	-2968
▁started	-2969
▁Constituency	-2970
52	-2971
II	-2972
ao	-2973
we	-2974
-17	-2975
▁89	-2976
▁Ac	-2977
▁Of	-2978
▁SC	-2979
▁av	-2980
rook	-2981
▁Cor	-2982
▁End	-2983
▁dan	-2984
▁vot	-2985
▁lake	-2986
ouston	-2987
uffalo	-2988
▁Texas	-2989
▁admin	-2990
▁arena	-2991
▁happen	-2992
▁involv	-2993
▁recent	-2994
ondition	-2995
▁Version	-2996
▁Callsign	-2997
▁victoria	-2998
gy	-2999
hl	-3000
kl	-3001
ky	-3002
1)?	-3003
men	-3004
ump	-3005
–6?	-3006
▁TD	-3007
anic	-3008
heel	-3009
▁192	-3010
▁28,	-3011
▁Age	-3012
▁Kar	-3013
▁Pil	-3014
▁Pur	-3015
errit	-3016
iller	-3017
lanta	-3018
thern	-3019
▁alex	-3020
▁miss	-3021
▁2001?	-3022
▁weeks	-3023
ichigan	-3024
omotive	-3025
▁Change	-3026
▁census	-3027
▁quarter	-3028
▁toronto	-3029
▁television	-3030
▁commentator	-3031
.00	-3032
ori	-3033
ura	-3034
–10	-3035
▁HD	-3036
▁UK	-3037
▁li	-3038
▁ze	-3039
draw	-3040
hers	-3041
olen	-3042
▁30?	-3043
▁Del	-3044
▁Gar	-3045
▁Und	-3046
▁ann	-3047
▁cal	-3048
romin	-3049
▁1977	-3050
▁3–6,	-3051
▁Jeff	-3052
▁Skip	-3053
▁Wind	-3054
▁kind	-3055
▁left	-3056
▁test	-3057
ehicle	-3058
▁Dates	-3059
▁Debut	-3060
▁capital	-3061
▁earlier	-3062
rominence	-3063
▁Official	-3064
kW	-3065
2)?	-3066
oon	-3067
ste	-3068
ute	-3069
win	-3070
▁79	-3071
▁92	-3072
▁95	-3073
▁ev	-3074
iven	-3075
▁27?	-3076
▁Bul	-3077
▁Har	-3078
▁Met	-3079
▁don	-3080
▁hen	-3081
ified	-3082
oenix	-3083
▁1979	-3084
▁Serv	-3085
▁Price	-3086
▁fewest	-3087
▁strokes	-3088
▁Previous	-3089
60	-3090
aa	-3091
/09	-3092
▁(3	-3093
▁87	-3094
ears	-3095
ours	-3096
▁21?	-3097
▁31,	-3098
▁cas	-3099
alley	-3100
oseph	-3101
ourth	-3102
unity	-3103
▁1974	-3104
▁east	-3105
▁poll	-3106
▁Death	-3107
▁Progr	-3108
▁occur	-3109
▁spain	-3110
▁union	-3111
aserati	-3112
outhern	-3113
▁Replaced	-3114
▁earnings	-3115
▁Character	-3116
▁philadelphia	-3117
49	-3118
FA	-3119
cm	-3120
ploy	-3121
▁6–1	-3122
▁War	-3123
▁mcg	-3124
▁nor	-3125
▁roy	-3126
▁Mike	-3127
▁land	-3128
▁road	-3129
regate	-3130
veland	-3131
▁Coast	-3132
▁color	-3133
▁Doubles	-3134
▁percent	-3135
▁unknown	-3136
▁Broadcast	-3137
▁appearances	-3138
-13	-3139
aug	-3140
eld	-3141
emp	-3142
int	-3143
ves	-3144
▁09	-3145
ador	-3146
avis	-3147
mark	-3148
▁Lab	-3149
▁Vol	-3150
▁lat	-3151
▁1970	-3152
▁Alex	-3153
▁line	-3154
▁mens	-3155
▁James	-3156
▁chris	-3157
tsburgh	-3158
ountries	-3159
▁billion	-3160
▁finished	-3161
▁mountain	-3162
▁Touchdowns	-3163
41	-3164
59	-3165
bl	-3166
–7	-3167
▁]	-3168
-15	-3169
bre	-3170
enz	-3171
▁$)	-3172
▁Ol	-3173
/200	-3174
acht	-3175
udge	-3176
▁0.2	-3177
▁Act	-3178
▁Roy	-3179
▁age	-3180
▁cos	-3181
▁mal	-3182
▁sol	-3183
▁van	-3184
0,000	-3185
beral	-3186
▁Chris	-3187
ancisco	-3188
cotland	-3189
▁origin	-3190
▁placed	-3191
▁License	-3192
▁previous	-3193
▁Australian	-3194
.)	-3195
een	-3196
ipp	-3197
▁AT	-3198
▁cy	-3199
aine	-3200
echn	-3201
ival	-3202
line	-3203
▁0.5	-3204
▁125	-3205
▁Jim	-3206
▁Leg	-3207
▁Sol	-3208
▁sch	-3209
conom	-3210
▁2–6,	-3211
▁7:00	-3212
▁penn	-3213
atural	-3214
▁Mixed	-3215
▁music	-3216
elected	-3217
uckland	-3218
ultural	-3219
▁robert	-3220
▁Chicago	-3221
▁Visiting	-3222
%,	-3223
-09	-3224
ila	-3225
oni	-3226
▁91	-3227
▁ur	-3228
head	-3229
ream	-3230
▁25?	-3231
▁Pet	-3232
▁acc	-3233
▁lee	-3234
▁que	-3235
▁sec	-3236
▁tur	-3237
▁Jazz	-3238
▁Mary	-3239
▁Draft	-3240
▁Produ	-3241
▁scott	-3242
▁Starts	-3243
▁choice	-3244
▁Nominee	-3245
▁records	-3246
▁hometown	-3247
▁junction	-3248
▁Represent	-3249
▁completed	-3250
At	-3251
ls	-3252
-05	-3253
.35	-3254
ert	-3255
ras	-3256
▁81	-3257
▁99	-3258
▁fe	-3259
▁ke	-3260
anes	-3261
fold	-3262
rang	-3263
▁Sch	-3264
immer	-3265
▁1978	-3266
▁THAN	-3267
▁Tour	-3268
▁bron	-3269
▁glen	-3270
▁slam	-3271
▁10:00	-3272
▁Water	-3273
▁train	-3274
▁(2010)	-3275
▁Canada	-3276
▁Thomas	-3277
▁Torque	-3278
▁elector	-3279
▁regular	-3280
▁Adelaide	-3281
▁Carolina	-3282
▁President	-3283
▁contestant	-3284
-07	-3285
aki	-3286
arn	-3287
emb	-3288
oys	-3289
uke	-3290
▁83	-3291
▁93	-3292
▁my	-3293
ayne	-3294
iami	-3295
pect	-3296
vers	-3297
▁24?	-3298
▁add	-3299
▁pal	-3300
▁nick	-3301
usical	-3302
▁1999?	-3303
▁Value	-3304
▁fight	-3305
▁Captain	-3306
▁support	-3307
▁Diameter	-3308
▁featured	-3309
estination	-3310
▁performer	-3311
▁municipality	-3312
87	-3313
PP	-3314
–5	-3315
.7%	-3316
▁07	-3317
▁84	-3318
▁Ir	-3319
▁PO	-3320
▁iv	-3321
-201	-3322
idth	-3323
mitt	-3324
▁Ben	-3325
▁Rec	-3326
▁Rob	-3327
▁att	-3328
▁but	-3329
▁dem	-3330
▁mer	-3331
▁rec	-3332
inyin	-3333
limin	-3334
▁free	-3335
▁stud	-3336
▁wood	-3337
monton	-3338
▁issue	-3339
▁smith	-3340
herlands	-3341
▁Episodes	-3342
▁received	-3343
▁williams	-3344
▁Socialist	-3345
▁qualifying	-3346
-3?	-3347
▁mp	-3348
resp	-3349
▁102	-3350
▁107	-3351
▁bow	-3352
▁mad	-3353
▁tak	-3354
iants	-3355
ocess	-3356
▁1950	-3357
▁1966	-3358
▁1976	-3359
▁6–2,	-3360
▁Publ	-3361
▁take	-3362
▁2002?	-3363
▁given	-3364
▁peter	-3365
▁texas	-3366
▁totals	-3367
affected	-3368
▁Florida	-3369
▁Singles	-3370
▁masters	-3371
▁Platform	-3372
▁particip	-3373
▁positions	-3374
▁democratic	-3375
GC	-3376
sp	-3377
ady	-3378
alf	-3379
put	-3380
▁86	-3381
enny	-3382
leed	-3383
▁FOR	-3384
▁Pit	-3385
▁Pop	-3386
▁Vac	-3387
ancou	-3388
aylor	-3389
elson	-3390
leans	-3391
orial	-3392
▁roll	-3393
▁tack	-3394
onnage	-3395
▁calle	-3396
▁names	-3397
leeding	-3398
▁Boston	-3399
▁Rounds	-3400
▁torque	-3401
ancouver	-3402
▁Evening	-3403
pposition	-3404
▁diameter	-3405
iy	-3406
án	-3407
aco	-3408
ees	-3409
hab	-3410
rey	-3411
str	-3412
uan	-3413
▁Ma	-3414
imal	-3415
last	-3416
lers	-3417
▁23?	-3418
▁bul	-3419
adian	-3420
craft	-3421
ennis	-3422
lando	-3423
razil	-3424
worth	-3425
▁Poll	-3426
▁cuts	-3427
▁sant	-3428
▁will	-3429
apolis	-3430
▁1998?	-3431
▁Block	-3432
▁Satur	-3433
ardinal	-3434
respond	-3435
▁Airdate	-3436
▁Western	-3437
▁meaning	-3438
▁Duration	-3439
▁successor	-3440
isplacement	-3441
▁california	-3442
▁—	-3443
4)?	-3444
car	-3445
cha	-3446
cos	-3447
isb	-3448
▁"1	-3449
iego	-3450
ific	-3451
ipal	-3452
rizz	-3453
▁Ann	-3454
▁Mem	-3455
▁bye	-3456
drawn	-3457
ilers	-3458
tonio	-3459
▁1967	-3460
▁Fall	-3461
▁King	-3462
▁meas	-3463
ackage	-3464
▁Enter	-3465
▁golds	-3466
00000000	-3467
erritory	-3468
▁montreal	-3469
▁opposing	-3470
▁Semifinal	-3471
▁correspond	-3472
ür	-3473
.1%	-3474
.22	-3475
ipi	-3476
osa	-3477
▁GT	-3478
▁Ke	-3479
▁ow	-3480
▁sa	-3481
cats	-3482
▁(10	-3483
▁101	-3484
▁Sim	-3485
▁avg	-3486
▁kar	-3487
▁sen	-3488
▁Caps	-3489
▁Gain	-3490
▁Nick	-3491
▁cast	-3492
▁Ratio	-3493
▁Steve	-3494
▁frank	-3495
▁italy	-3496
▁Design	-3497
▁French	-3498
▁Reason	-3499
▁Studio	-3500
▁martin	-3501
▁starts	-3502
▁Elected	-3503
▁florida	-3504
▁Football	-3505
▁Catalogue	-3506
▁defensive	-3507
▁minnesota	-3508
▁republican	-3509
▁translation	-3510
St	-3511
–8	-3512
.0?	-3513
▁94	-3514
ques	-3515
romb	-3516
ucky	-3517
well	-3518
▁0–1	-3519
▁106	-3520
▁193	-3521
▁Mor	-3522
▁aut	-3523
▁bru	-3524
▁old	-3525
agles	-3526
inson	-3527
istan	-3528
▁Wood	-3529
▁Princ	-3530
▁Train	-3531
▁Island	-3532
▁McCain	-3533
▁compet	-3534
▁europe	-3535
▁floors	-3536
▁leader	-3537
▁thomas	-3538
▁Capital	-3539
▁Carlton	-3540
▁zealand	-3541
Attendance	-3542
▁interview	-3543
▁Pennsylvania	-3544
Ar	-3545
ms	-3546
erb	-3547
ops	-3548
▁96	-3549
▁kW	-3550
▁ro	-3551
ardo	-3552
▁als	-3553
▁ang	-3554
▁inf	-3555
▁tra	-3556
Final	-3557
natch	-3558
riots	-3559
▁1975	-3560
▁Local	-3561
▁Obama	-3562
▁React	-3563
▁clubs	-3564
▁level	-3565
amilton	-3566
▁German	-3567
▁sydney	-3568
▁system	-3569
▁British	-3570
▁Geelong	-3571
▁Species	-3572
▁forward	-3573
▁Branding	-3574
▁Hawthorn	-3575
▁happened	-3576
▁Elevation	-3577
▁institution	-3578
bc	-3579
-65	-3580
.0%	-3581
adi	-3582
anz	-3583
era	-3584
ius	-3585
▁06	-3586
▁85	-3587
▁lu	-3588
▁ly	-3589
aint	-3590
ette	-3591
gary	-3592
ites	-3593
kins	-3594
▁1.4	-3595
▁190	-3596
▁26?	-3597
▁Pal	-3598
▁led	-3599
▁pur	-3600
▁rom	-3601
▁tri	-3602
alent	-3603
illic	-3604
isher	-3605
▁1973	-3606
▁9:00	-3607
▁Bike	-3608
▁also	-3609
▁2000?	-3610
▁Quest	-3611
▁gross	-3612
yrillic	-3613
▁During	-3614
▁island	-3615
▁womens	-3616
▁Georgia	-3617
▁Revenue	-3618
▁nations	-3619
▁olympic	-3620
▁electric	-3621
▁premiere	-3622
▁resulted	-3623
▁qualification	-3624
-04	-3625
-29	-3626
.4?	-3627
.5%	-3628
aha	-3629
aji	-3630
aph	-3631
avy	-3632
irm	-3633
rel	-3634
▁ra	-3635
▁te	-3636
fect	-3637
hern	-3638
sqmi	-3639
▁1-1	-3640
▁105	-3641
▁Bas	-3642
▁Nat	-3643
▁Nov	-3644
▁Wed	-3645
▁ber	-3646
▁ray	-3647
▁rel	-3648
ement	-3649
▁7:30	-3650
▁Blue	-3651
▁gown	-3652
ritain	-3653
▁Guest	-3654
▁honda	-3655
▁month	-3656
▁owner	-3657
▁steve	-3658
ailable	-3659
mercial	-3660
ownship	-3661
▁mascot	-3662
▁Champions	-3663
fm	-3664
9)?	-3665
ala	-3666
cel	-3667
ott	-3668
una	-3669
▁We	-3670
amie	-3671
bury	-3672
ible	-3673
lies	-3674
▁1.2	-3675
▁186	-3676
▁Don	-3677
▁Tra	-3678
▁Wil	-3679
▁bor	-3680
▁ran	-3681
▁sam	-3682
▁try	-3683
achus	-3684
erved	-3685
ience	-3686
ional	-3687
thony	-3688
▁Main	-3689
▁Mont	-3690
igital	-3691
▁1997?	-3692
▁Cover	-3693
▁above	-3694
▁panel	-3695
▁prior	-3696
▁radio	-3697
▁young	-3698
Country	-3699
ardinia	-3700
entucky	-3701
opposed	-3702
veloper	-3703
▁Appear	-3704
▁Career	-3705
▁Gender	-3706
▁africa	-3707
▁deaths	-3708
▁square	-3709
Ceremony	-3710
▁Charles	-3711
▁Detroit	-3712
▁England	-3713
▁authority	-3714
▁Performance	-3715
▁performance	-3716
80	-3717
:2	-3718
AD	-3719
IC	-3720
ME	-3721
.1?	-3722
han	-3723
oug	-3724
rop	-3725
▁gl	-3726
clud	-3727
inas	-3728
▁113	-3729
▁agg	-3730
▁arg	-3731
▁asc	-3732
▁fem	-3733
▁gir	-3734
bined	-3735
ishop	-3736
▁1969	-3737
▁Ball	-3738
▁Free	-3739
▁skip	-3740
▁Family	-3741
▁awards	-3742
▁single	-3743
▁Swimsuit	-3744
▁Virginia	-3745
▁duration	-3746
▁replaced	-3747
▁Nominated	-3748
▁countries	-3749
82	-3750
fr	-3751
je	-3752
-21	-3753
.06	-3754
.8%	-3755
aya	-3756
ero	-3757
ima	-3758
▁3-	-3759
▁ML	-3760
▁cc	-3761
arry	-3762
mann	-3763
raig	-3764
▁28?	-3765
▁Bor	-3766
▁Joe	-3767
acher	-3768
ators	-3769
imate	-3770
lotte	-3771
umbia	-3772
▁1964	-3773
▁8:30	-3774
▁Body	-3775
▁Carl	-3776
▁Mass	-3777
▁Prod	-3778
▁Show	-3779
▁Tues	-3780
action	-3781
arters	-3782
ildren	-3783
▁Young	-3784
▁theme	-3785
allenge	-3786
ization	-3787
rizzlies	-3788
▁Service	-3789
▁address	-3790
▁charles	-3791
ianapolis	-3792
▁Launched	-3793
▁standard	-3794
▁Minnesota	-3795
AC	-3796
-06	-3797
-08	-3798
-14	-3799
.20	-3800
aka	-3801
alc	-3802
gon	-3803
owa	-3804
▁7:	-3805
▁LO	-3806
▁Up	-3807
▁id	-3808
ario	-3809
oute	-3810
trol	-3811
▁(8)	-3812
▁3-0	-3813
▁NGC	-3814
▁Oct	-3815
arian	-3816
trodu	-3817
▁1968	-3818
▁Greg	-3819
atting	-3820
▁Olymp	-3821
▁Proto	-3822
▁super	-3823
▁Income	-3824
▁Median	-3825
▁Senior	-3826
▁arrang	-3827
▁finale	-3828
issioned	-3829
▁actress	-3830
▁classic	-3831
▁johnson	-3832
▁primary	-3833
▁retired	-3834
▁silvers	-3835
▁american	-3836
▁semifinal	-3837
▁Centerfold	-3838
▁Eliminated	-3839
▁Prominence	-3840
▁description	-3841
EO	-3842
Up	-3843
ci	-3844
▁°	-3845
-22	-3846
-75	-3847
aut	-3848
ien	-3849
iff	-3850
ogr	-3851
▁$1	-3852
▁+2	-3853
▁82	-3854
2000	-3855
ella	-3856
phen	-3857
pool	-3858
reek	-3859
west	-3860
▁(1)	-3861
▁1.8	-3862
▁Mag	-3863
▁Tur	-3864
▁dev	-3865
▁gra	-3866
▁joe	-3867
▁law	-3868
▁mpg	-3869
athan	-3870
epend	-3871
igers	-3872
▁1958	-3873
▁arri	-3874
▁come	-3875
▁seat	-3876
▁view	-3877
▁writ	-3878
amming	-3879
ingham	-3880
nesday	-3881
▁exact	-3882
▁found	-3883
▁jones	-3884
▁major	-3885
borough	-3886
▁athlet	-3887
▁joined	-3888
▁Manager	-3889
▁entered	-3890
▁Conceded	-3891
▁maserati	-3892
▁locomotive	-3893
▁administered	-3894
51	-3895
79	-3896
ET	-3897
GS	-3898
In	-3899
bt	-3900
oz	-3901
=21	-3902
ato	-3903
cus	-3904
esh	-3905
lav	-3906
mit	-3907
odd	-3908
osc	-3909
riz	-3910
utr	-3911
▁5–	-3912
▁CD	-3913
▁ps	-3914
-199	-3915
ivil	-3916
rows	-3917
▁(2)	-3918
▁Equ	-3919
▁Ess	-3920
▁fif	-3921
▁rem	-3922
▁vol	-3923
ocket	-3924
▁1965	-3925
▁1972	-3926
▁greg	-3927
ursday	-3928
▁Chief	-3929
▁poles	-3930
▁water	-3931
ispanic	-3932
▁Author	-3933
▁Manner	-3934
▁decile	-3935
▁motors	-3936
▁tackle	-3937
▁thromb	-3938
ervative	-3939
▁Germany	-3940
▁Orlando	-3941
▁Success	-3942
▁princes	-3943
▁raceway	-3944
▁Candidate	-3945
▁Philadelphia	-3946
GA	-3947
ST	-3948
ba	-3949
uy	-3950
.57	-3951
.73	-3952
aro	-3953
ean	-3954
ips	-3955
urg	-3956
▁05	-3957
▁Kn	-3958
▁Ra	-3959
▁ST	-3960
akes	-3961
ando	-3962
chie	-3963
etts	-3964
iano	-3965
▁0-1	-3966
▁1.9	-3967
▁191	-3968
▁29?	-3969
▁8.8	-3970
▁Big	-3971
▁Sam	-3972
▁cam	-3973
▁row	-3974
▁ton	-3975
ahoma	-3976
brevi	-3977
ifier	-3978
imore	-3979
itzer	-3980
ledon	-3981
olong	-3982
ouble	-3983
stone	-3984
▁Sign	-3985
▁Size	-3986
▁Unit	-3987
▁caps	-3988
▁magn	-3989
▁Dance	-3990
▁Perth	-3991
▁debut	-3992
▁genre	-3993
▁range	-3994
▁right	-3995
▁white	-3996
olonged	-3997
▁Africa	-3998
▁Course	-3999
▁Jockey	-4000
▁moving	-4001
▁summer	-4002
anderers	-4003
imbledon	-4004
▁Central	-4005
achusetts	-4006
▁involved	-4007
▁longitude	-4008
▁Constellation	-4009
$)	-4010
.,	-4011
no	-4012
xx	-4013
7)?	-4014
arr	-4015
erk	-4016
lad	-4017
ros	-4018
rpm	-4019
–1?	-4020
▁01	-4021
▁Bo	-4022
▁Id	-4023
▁Rd	-4024
utch	-4025
▁Att	-4026
▁Ill	-4027
▁jan	-4028
▁two	-4029
aints	-4030
arget	-4031
omest	-4032
▁1959	-4033
▁byes	-4034
▁hand	-4035
▁real	-4036
▁wing	-4037
opular	-4038
titude	-4039
▁block	-4040
▁brand	-4041
▁hawks	-4042
▁Streak	-4043
▁Entered	-4044
▁kingdom	-4045
▁minutes	-4046
▁schools	-4047
▁Auckland	-4048
▁conceded	-4049
▁latitude	-4050
69	-4051
70	-4052
72	-4053
-4?	-4054
.3?	-4055
8)?	-4056
oli	-4057
–0?	-4058
▁Ep	-4059
▁mi	-4060
ampa	-4061
▁6–3	-4062
▁8.7	-4063
▁Pct	-4064
▁Sab	-4065
▁its	-4066
▁rfc	-4067
▁wil	-4068
amaha	-4069
andro	-4070
▁Copa	-4071
▁Make	-4072
▁Semi	-4073
▁requ	-4074
▁same	-4075
ickoff	-4076
isbane	-4077
▁1993?	-4078
▁1996?	-4079
▁Latin	-4080
▁index	-4081
▁marri	-4082
▁style	-4083
estival	-4084
klahoma	-4085
unswick	-4086
▁George	-4087
▁Govern	-4088
▁Launch	-4089
▁called	-4090
altimore	-4091
quarters	-4092
▁central	-4093
▁exactly	-4094
▁members	-4095
▁Maryland	-4096
▁Williams	-4097
▁outgoing	-4098
▁ascension	-4099
▁Passengers	-4100
▁Construction	-4101
ji	-4102
uz	-4103
-1)	-4104
.6%	-4105
ION	-4106
akh	-4107
och	-4108
rad	-4109
utt	-4110
wan	-4111
–13	-4112
▁LM	-4113
▁Wr	-4114
▁ii	-4115
adem	-4116
ello	-4117
oven	-4118
▁(12	-4119
▁2-0	-4120
▁400	-4121
▁Bru	-4122
▁Hen	-4123
▁Low	-4124
▁NBA	-4125
▁PLA	-4126
▁pan	-4127
▁1961	-4128
▁Lake	-4129
▁blue	-4130
▁sett	-4131
▁Index	-4132
ocessor	-4133
omestic	-4134
liminary	-4135
▁Angeles	-4136
▁Edition	-4137
▁Johnson	-4138
▁Premier	-4139
▁Primary	-4140
istration	-4141
▁greatest	-4142
▁Footscray	-4143
▁Tennessee	-4144
▁unaffected	-4145
▁Collingwood	-4146
▁established	-4147
71	-4148
CE	-4149
RE	-4150
rn	-4151
}}	-4152
▁•	-4153
.2%	-4154
.44	-4155
.6?	-4156
100	-4157
cle	-4158
las	-4159
▁Ly	-4160
icks	-4161
icts	-4162
illa	-4163
immy	-4164
ounc	-4165
rett	-4166
–199	-4167
▁1-0	-4168
▁Dev	-4169
▁GEO	-4170
▁Lee	-4171
▁She	-4172
▁any	-4173
▁lab	-4174
▁map	-4175
apsed	-4176
ories	-4177
urtis	-4178
▁Back	-4179
▁Russ	-4180
▁band	-4181
▁been	-4182
astern	-4183
ferrie	-4184
othrom	-4185
▁Build	-4186
▁Fleet	-4187
▁Smith	-4188
▁asian	-4189
▁china	-4190
▁windy	-4191
▁Albert	-4192
▁Church	-4193
▁centre	-4194
▁couple	-4195
▁course	-4196
▁opened	-4197
▁parish	-4198
▁sweden	-4199
othrombin	-4200
▁Democrat	-4201
▁Essendon	-4202
▁Winnings	-4203
▁produced	-4204
▁swimsuit	-4205
▁Appearances	-4206
Sh	-4207
hp	-4208
.21	-4209
bar	-4210
ici	-4211
ify	-4212
ika	-4213
pet	-4214
–12	-4215
▁00	-4216
▁IN	-4217
▁di	-4218
▁gt	-4219
▁ny	-4220
▁uk	-4221
ells	-4222
sets	-4223
▁2-1	-4224
▁Int	-4225
▁aud	-4226
▁dam	-4227
▁jun	-4228
▁mel	-4229
▁non	-4230
▁vel	-4231
apore	-4232
illed	-4233
ittle	-4234
▁1:00	-4235
▁Down	-4236
▁came	-4237
▁stan	-4238
ffield	-4239
mitted	-4240
public	-4241
▁Medal	-4242
▁distr	-4243
▁miles	-4244
▁movie	-4245
▁river	-4246
itional	-4247
▁Finals	-4248
▁Listed	-4249
▁Martin	-4250
▁Opened	-4251
▁dallas	-4252
▁finals	-4253
▁losing	-4254
aturated	-4255
▁Italian	-4256
▁Mission	-4257
▁Placing	-4258
▁rangers	-4259
▁Louisiana	-4260
▁arrangement	-4261
▁designation	-4262
SP	-4263
ui	-4264
▁×	-4265
-01	-4266
-02	-4267
-20	-4268
-49	-4269
.3%	-4270
.66	-4271
3)?	-4272
afs	-4273
cia	-4274
die	-4275
ipe	-4276
ito	-4277
▁6:	-4278
▁AN	-4279
▁bu	-4280
▁ca	-4281
anne	-4282
bers	-4283
elly	-4284
ided	-4285
orea	-4286
ukee	-4287
▁111	-4288
▁Bay	-4289
▁Mad	-4290
▁Ski	-4291
▁bus	-4292
▁mac	-4293
▁use	-4294
eslot	-4295
ierre	-4296
ivery	-4297
stein	-4298
ttawa	-4299
velop	-4300
▁1955	-4301
▁1956	-4302
▁bank	-4303
▁coll	-4304
▁feet	-4305
waukee	-4306
▁1987?	-4307
▁Cross	-4308
▁Style	-4309
▁extra	-4310
▁three	-4311
▁Pinyin	-4312
▁george	-4313
▁launch	-4314
▁trophy	-4315
▁weekly	-4316
▁Natural	-4317
▁Percent	-4318
▁angeles	-4319
▁atlanta	-4320
▁evening	-4321
▁vehicle	-4322
itzerland	-4323
▁numbered	-4324
▁quantity	-4325
▁champions	-4326
▁elevation	-4327
▁tennessee	-4328
▁households	-4329
▁pittsburgh	-4330
▁Affiliation	-4331
PM	-4332
UK	-4333
VD	-4334
.02	-4335
.23	-4336
iac	-4337
nic	-4338
oyd	-4339
par	-4340
ved	-4341
▁AA	-4342
▁du	-4343
▁ob	-4344
▁qf	-4345
▁sf	-4346
airs	-4347
argo	-4348
bast	-4349
iday	-4350
uman	-4351
▁$1,	-4352
▁1.5	-4353
▁103	-4354
▁108	-4355
▁120	-4356
▁41,	-4357
▁6–2	-4358
▁6–7	-4359
▁Bin	-4360
▁Que	-4361
▁Ray	-4362
▁USA	-4363
▁bre	-4364
▁fed	-4365
▁mcc	-4366
▁mex	-4367
iddle	-4368
ining	-4369
▁Bowl	-4370
▁Bush	-4371
▁Line	-4372
▁Prof	-4373
▁Ties	-4374
▁Tyre	-4375
▁ball	-4376
▁carl	-4377
▁tall	-4378
▁unit	-4379
ground	-4380
stream	-4381
▁Asian	-4382
▁Clubs	-4383
▁Names	-4384
▁River	-4385
▁White	-4386
▁Works	-4387
▁(2009)	-4388
▁govern	-4389
standing	-4390
▁Rangers	-4391
▁Seasons	-4392
▁awarded	-4393
▁ratings	-4394
▁wickets	-4395
▁Producer	-4396
▁aircraft	-4397
▁vancouver	-4398
▁Opposition	-4399
FS	-4400
ID	-4401
MW	-4402
sl	-4403
tv	-4404
-76	-4405
6)?	-4406
kov	-4407
ora	-4408
▁Do	-4409
▁Lu	-4410
▁da	-4411
gium	-4412
heim	-4413
ices	-4414
oger	-4415
otus	-4416
ront	-4417
rove	-4418
–200	-4419
▁180	-4420
▁6–4	-4421
▁Acc	-4422
▁Fem	-4423
▁Law	-4424
▁Ton	-4425
▁bud	-4426
▁eth	-4427
▁ham	-4428
▁jac	-4429
▁rod	-4430
aysia	-4431
board	-4432
icker	-4433
▁1960	-4434
▁6–1,	-4435
▁Hand	-4436
▁Took	-4437
▁camp	-4438
▁cost	-4439
▁fred	-4440
▁main	-4441
▁mass	-4442
akland	-4443
ampton	-4444
incinn	-4445
ipinas	-4446
lastin	-4447
ominal	-4448
▁arden	-4449
▁great	-4450
▁night	-4451
▁shown	-4452
▁Assets	-4453
▁Weekly	-4454
▁includ	-4455
▁market	-4456
▁sports	-4457
troduced	-4458
▁Fitzroy	-4459
▁Raceway	-4460
▁Tonnage	-4461
▁english	-4462
▁figures	-4463
▁georgia	-4464
▁measure	-4465
▁phoenix	-4466
▁present	-4467
▁richard	-4468
▁running	-4469
▁subject	-4470
incinnati	-4471
istrative	-4472
▁Junction	-4473
▁Saturday	-4474
▁Victoria	-4475
▁football	-4476
▁playoffs	-4477
breviation	-4478
61	-4479
83	-4480
Re	-4481
da	-4482
mo	-4483
-64	-4484
.4%	-4485
.9%	-4486
.95	-4487
ami	-4488
for	-4489
ias	-4490
ski	-4491
ued	-4492
zes	-4493
▁04	-4494
▁MC	-4495
▁Tw	-4496
anch	-4497
anny	-4498
arch	-4499
hill	-4500
ipts	-4501
ixon	-4502
▁0.8	-4503
▁112	-4504
▁300	-4505
▁45,	-4506
▁Inv	-4507
▁Mac	-4508
▁Non	-4509
▁sky	-4510
▁wal	-4511
cture	-4512
ested	-4513
place	-4514
▁1951	-4515
▁Fuel	-4516
▁Span	-4517
▁dave	-4518
▁inst	-4519
▁jeff	-4520
▁mart	-4521
▁rome	-4522
ailway	-4523
coming	-4524
idence	-4525
▁1994?	-4526
▁Broad	-4527
▁Right	-4528
▁Under	-4529
▁clark	-4530
▁coast	-4531
▁mixed	-4532
▁since	-4533
▁urban	-4534
▁France	-4535
▁London	-4536
▁eagles	-4537
▁french	-4538
▁places	-4539
oplastin	-4540
▁Rockets	-4541
▁formula	-4542
▁jackson	-4543
▁Illinois	-4544
▁Developer	-4545
▁Electorate	-4546
▁submission	-4547
▁constituency	-4548
▁thromboplastin	-4549
73	-4550
:3	-4551
SU	-4552
▁€	-4553
5)?	-4554
don	-4555
ges	-4556
ids	-4557
isa	-4558
oln	-4559
pin	-4560
ran	-4561
uer	-4562
ugu	-4563
uki	-4564
vis	-4565
▁Ro	-4566
▁SM	-4567
▁na	-4568
▁pa	-4569
▁ts	-4570
aged	-4571
ares	-4572
ippi	-4573
ives	-4574
oser	-4575
ourt	-4576
rier	-4577
thew	-4578
uder	-4579
yota	-4580
▁0.6	-4581
▁117	-4582
▁150	-4583
▁3.5	-4584
▁Fri	-4585
▁Ham	-4586
▁Mex	-4587
▁One	-4588
▁Rel	-4589
▁Spr	-4590
▁bas	-4591
▁tax	-4592
▁tre	-4593
abama	-4594
adion	-4595
ancer	-4596
essel	-4597
iesel	-4598
igion	-4599
ordan	-4600
oscow	-4601
▁1963	-4602
▁7–5,	-4603
▁Ohio	-4604
▁ford	-4605
▁info	-4606
▁matt	-4607
▁tony	-4608
ustria	-4609
▁Found	-4610
▁Horse	-4611
▁horse	-4612
▁hours	-4613
issippi	-4614
▁Andrew	-4615
▁Couple	-4616
▁Edward	-4617
▁Period	-4618
▁kansas	-4619
▁profit	-4620
▁Liberal	-4621
▁musical	-4622
▁podiums	-4623
▁receive	-4624
▁website	-4625
▁Condition	-4626
▁Established	-4627
▁Tournaments	-4628
▁conservative	-4629
▁Representative	-4630
89	-4631
-23	-4632
.2?	-4633
ali	-4634
aun	-4635
haw	-4636
irk	-4637
nip	-4638
flix	-4639
owth	-4640
rban	-4641
uart	-4642
▁31?	-4643
▁BBC	-4644
▁Cru	-4645
▁DVD	-4646
▁Tro	-4647
▁hol	-4648
▁kim	-4649
alker	-4650
▁Arch	-4651
▁Camp	-4652
▁Larg	-4653
▁Sant	-4654
▁Vote	-4655
▁brad	-4656
▁fern	-4657
▁sand	-4658
▁sele	-4659
▁star	-4660
ouncil	-4661
▁Bonus	-4662
▁Count	-4663
▁Weeks	-4664
▁bills	-4665
itation	-4666
▁Motors	-4667
▁Stolen	-4668
▁earned	-4669
▁buffalo	-4670
▁Canadian	-4671
▁platform	-4672
▁Cleveland	-4673
▁aggregate	-4674
▁passengers	-4675
CL	-4676
GE	-4677
vo	-4678
wh	-4679
-19	-4680
.45	-4681
acy	-4682
alb	-4683
amo	-4684
lie	-4685
lyn	-4686
ois	-4687
owb	-4688
rik	-4689
–2?	-4690
▁Cy	-4691
▁Ut	-4692
▁ep	-4693
▁et	-4694
/198	-4695
aron	-4696
enna	-4697
iley	-4698
imit	-4699
rell	-4700
vate	-4701
▁(18	-4702
▁(6)	-4703
▁0.7	-4704
▁136	-4705
▁Ber	-4706
▁Def	-4707
▁Not	-4708
▁Wat	-4709
▁inc	-4710
▁jul	-4711
▁pay	-4712
▁ren	-4713
▁sal	-4714
arent	-4715
atche	-4716
ishes	-4717
▁Cost	-4718
▁Crew	-4719
▁Matt	-4720
▁Post	-4721
▁item	-4722
▁pass	-4723
▁semi	-4724
atelet	-4725
backer	-4726
enault	-4727
incoln	-4728
ternet	-4729
▁1983?	-4730
▁Brand	-4731
▁China	-4732
▁Davis	-4733
▁Ident	-4734
▁Jamie	-4735
▁Jones	-4736
▁using	-4737
▁Market	-4738
▁active	-4739
▁albert	-4740
▁andrew	-4741
▁author	-4742
▁edward	-4743
▁giants	-4744
▁public	-4745
lination	-4746
▁example	-4747
▁revenue	-4748
▁writers	-4749
omination	-4750
▁Released	-4751
▁programs	-4752
▁scotland	-4753
▁Grizzlies	-4754
/4	-4755
65	-4756
dy	-4757
gs	-4758
ih	-4759
oa	-4760
ón	-4761
-6?	-4762
.25	-4763
get	-4764
gin	-4765
ift	-4766
roe	-4767
ted	-4768
umn	-4769
unc	-4770
uzz	-4771
▁Ba	-4772
▁Ev	-4773
▁hp	-4774
▁ru	-4775
acks	-4776
anet	-4777
arat	-4778
inch	-4779
ouri	-4780
▁110	-4781
▁Cas	-4782
▁Hol	-4783
▁Jul	-4784
▁Ken	-4785
▁ill	-4786
▁mid	-4787
atell	-4788
etail	-4789
▁Ford	-4790
▁Glen	-4791
▁Hard	-4792
▁Lind	-4793
▁Will	-4794
▁jerk	-4795
▁make	-4796
▁phil	-4797
▁post	-4798
kansas	-4799
oberts	-4800
▁AAAAA	-4801
▁Sales	-4802
▁Shirt	-4803
▁Wheel	-4804
▁press	-4805
▁ranks	-4806
olution	-4807
▁Econom	-4808
▁Indust	-4809
▁Kansas	-4810
▁Origin	-4811
▁Snatch	-4812
▁bridge	-4813
▁hosted	-4814
▁london	-4815
▁others	-4816
▁yamaha	-4817
▁Richard	-4818
▁nominee	-4819
▁species	-4820
▁Minister	-4821
▁Standard	-4822
▁virginia	-4823
▁eliminated	-4824
▁Destination	-4825
84	-4826
ek	-4827
ez	-4828
gi	-4829
-28	-4830
ORE	-4831
afe	-4832
ape	-4833
edy	-4834
hib	-4835
met	-4836
onz	-4837
▁$2	-4838
▁(£	-4839
▁HO	-4840
▁My	-4841
▁WC	-4842
acon	-4843
enzo	-4844
hard	-4845
ideo	-4846
indi	-4847
itan	-4848
list	-4849
olph	-4850
ovak	-4851
zech	-4852
▁+1:	-4853
▁104	-4854
▁122	-4855
▁2.5	-4856
▁54,	-4857
▁9.6	-4858
▁Bud	-4859
▁FCC	-4860
▁Mer	-4861
▁WAS	-4862
▁aug	-4863
▁dep	-4864
▁spr	-4865
▁tem	-4866
▁ter	-4867
▁tko	-4868
▁usa	-4869
▁ven	-4870
▁vfl	-4871
-68=2	-4872
ature	-4873
heast	-4874
iling	-4875
ology	-4876
shire	-4877
urity	-4878
▁9:30	-4879
▁Band	-4880
▁Cast	-4881
▁Most	-4882
▁Pict	-4883
▁aver	-4884
▁fifa	-4885
▁loan	-4886
▁only	-4887
▁ties	-4888
celona	-4889
estyle	-4890
ikings	-4891
ilomet	-4892
legate	-4893
person	-4894
▁After	-4895
▁Brown	-4896
▁Purse	-4897
▁Roman	-4898
▁Techn	-4899
▁WHich	-4900
▁diego	-4901
▁drama	-4902
▁sales	-4903
anthers	-4904
▁Centre	-4905
▁Trophy	-4906
▁Volume	-4907
▁assist	-4908
▁Package	-4909
▁Sponsor	-4910
▁houston	-4911
▁Arkansas	-4912
▁Cyrillic	-4913
▁Finalist	-4914
▁michigan	-4915
ricultural	-4916
▁Successor	-4917
▁francisco	-4918
..	-4919
OL	-4920
su	-4921
ua	-4922
Art	-4923
leg	-4924
ugh	-4925
–11	-4926
▁II	-4927
▁ba	-4928
chen	-4929
ista	-4930
ruck	-4931
trib	-4932
ware	-4933
▁1.3	-4934
▁2.6	-4935
▁ant	-4936
▁dar	-4937
▁ken	-4938
▁mic	-4939
▁rpm	-4940
anger	-4941
athon	-4942
ester	-4943
ilipp	-4944
itive	-4945
nipeg	-4946
ooter	-4947
▁(10)	-4948
▁1954	-4949
▁1957	-4950
▁Cons	-4951
▁Dave	-4952
▁Gown	-4953
▁PLAY	-4954
▁half	-4955
▁mary	-4956
▁ryan	-4957
alcons	-4958
argers	-4959
ifying	-4960
▁1988?	-4961
▁Labor	-4962
▁Level	-4963
▁voice	-4964
ireland	-4965
▁Depart	-4966
▁Others	-4967
▁figure	-4968
▁jersey	-4969
▁russia	-4970
▁served	-4971
▁Houston	-4972
▁Ratings	-4973
▁Tuesday	-4974
▁builder	-4975
▁credits	-4976
▁edmonton	-4977
▁occurred	-4978
▁students	-4979
▁Pilipinas	-4980
▁available	-4981
▁community	-4982
▁mountains	-4983
▁prolonged	-4984
▁settlement	-4985
▁Description	-4986
▁Programming	-4987
9%	-4988
BN	-4989
CC	-4990
RT	-4991
TC	-4992
mw	-4993
oj	-4994
rm	-4995
⁄2	-4996
-24	-4997
/12	-4998
ils	-4999
lan	-5000
nam	-5001
pro	-5002
rid	-5003
▁NC	-5004
▁SP	-5005
/199	-5006
aren	-5007
ione	-5008
ised	-5009
olic	-5010
ommy	-5011
rome	-5012
ryst	-5013
stra	-5014
wich	-5015
yrac	-5016
▁185	-5017
▁350	-5018
▁7.8	-5019
▁Gra	-5020
▁Mic	-5021
▁Sal	-5022
▁Tri	-5023
▁hyd	-5024
▁nov	-5025
▁oct	-5026
ancel	-5027
ewart	-5028
olley	-5029
onday	-5030
▁5–7,	-5031
▁AAAA	-5032
▁Elev	-5033
▁Feat	-5034
▁Meet	-5035
▁Stan	-5036
▁Test	-5037
▁dick	-5038
▁just	-5039
▁nort	-5040
▁sold	-5041
▁tier	-5042
▁wild	-5043
adiens	-5044
bridge	-5045
etails	-5046
lantic	-5047
▁1000)	-5048
▁18-49	-5049
▁1992?	-5050
▁Tiger	-5051
▁achie	-5052
▁picks	-5053
yracuse	-5054
▁Athlet	-5055
▁Barang	-5056
▁Bulgar	-5057
▁Mexico	-5058
▁System	-5059
▁mexico	-5060
▁valley	-5061
hibition	-5062
▁America	-5063
▁Formula	-5064
▁Vacator	-5065
▁Wickets	-5066
▁calgary	-5067
▁edition	-5068
▁product	-5069
▁Colorado	-5070
▁Garfield	-5071
▁Southern	-5072
▁colorado	-5073
▁Questions	-5074
▁withdrawn	-5075
▁electorates	-5076
BS	-5077
-18	-5078
.47	-5079
.75	-5080
400	-5081
EFA	-5082
Spe	-5083
aby	-5084
igi	-5085
mar	-5086
oba	-5087
oud	-5088
uda	-5089
vey	-5090
–3?	-5091
▁Ap	-5092
▁Go	-5093
▁LE	-5094
▁Sa	-5095
▁hy	-5096
Team	-5097
ansk	-5098
elli	-5099
iang	-5100
▁(7)	-5101
▁0.0	-5102
▁1.7	-5103
▁115	-5104
▁8.5	-5105
▁800	-5106
▁Dam	-5107
▁Mov	-5108
▁Rnd	-5109
▁Tre	-5110
▁fox	-5111
▁mur	-5112
▁pos	-5113
▁ros	-5114
▁sur	-5115
▁ufc	-5116
-72=2	-5117
ached	-5118
empts	-5119
onsin	-5120
organ	-5121
orman	-5122
oster	-5123
other	-5124
press	-5125
▁1000	-5126
▁Sett	-5127
▁adam	-5128
▁both	-5129
▁core	-5130
▁data	-5131
▁gary	-5132
▁know	-5133
▁tech	-5134
▁verb	-5135
▁Hawks	-5136
▁India	-5137
▁Judge	-5138
▁below	-5139
▁space	-5140
▁Daniel	-5141
▁Employ	-5142
▁Fourth	-5143
▁Golden	-5144
▁Howard	-5145
▁driven	-5146
▁joseph	-5147
▁miller	-5148
Articles	-5149
isconsin	-5150
▁Buffalo	-5151
▁Largest	-5152
▁Netflix	-5153
▁british	-5154
▁Bleeding	-5155
▁Cardinal	-5156
▁Kentucky	-5157
▁Michigan	-5158
▁accident	-5159
▁kardinia	-5160
▁partners	-5161
▁Wednesday	-5162
▁locations	-5163
▁linebacker	-5164
▁netherlands	-5165
Un	-5166
cu	-5167
dr	-5168
ić	-5169
.28	-5170
.42	-5171
.8?	-5172
AME	-5173
elt	-5174
gen	-5175
med	-5176
ram	-5177
–14	-5178
▁$4	-5179
▁0:	-5180
anda	-5181
atin	-5182
aver	-5183
bell	-5184
dale	-5185
iago	-5186
orst	-5187
side	-5188
tegr	-5189
▁1-2	-5190
▁128	-5191
▁140	-5192
▁2.9	-5193
▁32?	-5194
▁63,	-5195
▁Cal	-5196
▁Far	-5197
▁Kit	-5198
▁Mel	-5199
▁Old	-5200
▁PBA	-5201
▁Pan	-5202
▁Ros	-5203
▁Was	-5204
▁esp	-5205
▁pts	-5206
▁sab	-5207
akers	-5208
habit	-5209
ijing	-5210
mouth	-5211
occer	-5212
opher	-5213
rough	-5214
▁1948	-5215
▁1952	-5216
▁5,00	-5217
▁Adam	-5218
▁Bank	-5219
▁Days	-5220
▁ISBN	-5221
▁Kenn	-5222
▁Over	-5223
▁UEFA	-5224
▁Utah	-5225
▁dire	-5226
▁love	-5227
▁none	-5228
▁stat	-5229
ackers	-5230
rystal	-5231
uderia	-5232
▁0–100	-5233
▁1989?	-5234
▁2008,	-5235
▁2009,	-5236
▁Clark	-5237
▁Point	-5238
▁drove	-5239
▁henry	-5240
▁kevin	-5241
▁light	-5242
▁motor	-5243
▁organ	-5244
▁storm	-5245
▁talle	-5246
▁wheel	-5247
ability	-5248
▁Annual	-5249
▁Leader	-5250
▁Object	-5251
▁Romaji	-5252
▁annual	-5253
▁assets	-5254
▁daniel	-5255
▁watson	-5256
▁Antonio	-5257
▁Masters	-5258
▁Mintage	-5259
▁Village	-5260
▁bronzes	-5261
▁popular	-5262
▁swimmer	-5263
▁Thursday	-5264
▁billions	-5265
▁callsign	-5266
▁memorial	-5267
▁patriots	-5268
▁southern	-5269
▁Principal	-5270
▁performed	-5271
▁supporting	-5272
▁outstanding	-5273
▁abbreviation	-5274
63	-5275
PS	-5276
SF	-5277
TE	-5278
UR	-5279
]?	-5280
sk	-5281
sy	-5282
ão	-5283
.27	-5284
GER	-5285
edo	-5286
eva	-5287
feo	-5288
oha	-5289
ser	-5290
tre	-5291
▁5:	-5292
▁FI	-5293
▁Nm	-5294
▁RE	-5295
▁TO	-5296
▁Ze	-5297
▁cf	-5298
▁kg	-5299
▁so	-5300
▁zh	-5301
game	-5302
rial	-5303
▁123	-5304
▁3.0	-5305
▁38,	-5306
▁4.5	-5307
▁8.9	-5308
▁Dar	-5309
▁VFL	-5310
▁exp	-5311
▁gol	-5312
▁jon	-5313
▁mod	-5314
▁pen	-5315
▁rub	-5316
5,000	-5317
bital	-5318
ublin	-5319
verse	-5320
▁1953	-5321
▁1962	-5322
▁2014	-5323
▁Coll	-5324
▁Disc	-5325
▁Hall	-5326
▁Phil	-5327
▁alfa	-5328
▁base	-5329
▁cosp	-5330
▁drag	-5331
▁ener	-5332
▁full	-5333
▁prov	-5334
aining	-5335
finals	-5336
owboys	-5337
▁1990?	-5338
▁1995?	-5339
▁Admin	-5340
▁Kerry	-5341
▁Loser	-5342
▁Marri	-5343
▁Three	-5344
▁acres	-5345
▁miami	-5346
▁royal	-5347
anskrit	-5348
ensions	-5349
isation	-5350
ongress	-5351
▁(2006)	-5352
▁Brazil	-5353
▁Joseph	-5354
▁dances	-5355
▁fourth	-5356
▁hockey	-5357
▁winter	-5358
assenger	-5359
atellite	-5360
▁Content	-5361
▁Indiana	-5362
habitants	-5363
▁Premiere	-5364
▁illinois	-5365
▁launched	-5366
▁official	-5367
▁catalogue	-5368
▁magnitude	-5369
▁processor	-5370
▁glenferrie	-5371
▁Translation	-5372
▁Headquarters	-5373
/3	-5374
EN	-5375
.26	-5376
.46	-5377
.48	-5378
.85	-5379
806	-5380
enc	-5381
inz	-5382
ker	-5383
uez	-5384
uji	-5385
wen	-5386
▁1-	-5387
▁Av	-5388
▁BR	-5389
▁Er	-5390
▁cb	-5391
▁lp	-5392
aper	-5393
boro	-5394
iant	-5395
ivid	-5396
math	-5397
rael	-5398
town	-5399
▁145	-5400
▁34?	-5401
▁Bur	-5402
▁HAS	-5403
▁Rap	-5404
▁ash	-5405
▁bbc	-5406
▁cla	-5407
▁far	-5408
▁ger	-5409
▁hur	-5410
▁kit	-5411
▁pav	-5412
▁pil	-5413
▁saw	-5414
▁via	-5415
-70=2	-5416
-71=2	-5417
abham	-5418
asket	-5419
chedu	-5420
earch	-5421
enson	-5422
inary	-5423
iseum	-5424
itary	-5425
izona	-5426
liter	-5427
obile	-5428
oming	-5429
ordon	-5430
ropol	-5431
▁Airc	-5432
▁Euro	-5433
▁Fire	-5434
▁Mean	-5435
▁Nord	-5436
▁Nort	-5437
▁Real	-5438
▁fall	-5439
▁life	-5440
▁male	-5441
▁mand	-5442
▁ohio	-5443
▁rest	-5444
▁some	-5445
▁spec	-5446
▁tyre	-5447
-71=28	-5448
Option	-5449
mathrm	-5450
ograph	-5451
▁Italy	-5452
▁Lyric	-5453
▁Miami	-5454
▁Pilot	-5455
▁Radio	-5456
▁SCORE	-5457
▁Yacht	-5458
▁brown	-5459
▁cover	-5460
▁judge	-5461
▁spect	-5462
▁tiger	-5463
ibining	-5464
▁(2002)	-5465
▁Deaths	-5466
▁Finale	-5467
▁argent	-5468
▁growth	-5469
▁plural	-5470
Hispanic	-5471
▁Example	-5472
▁Ferrari	-5473
▁Orleans	-5474
▁Quarter	-5475
▁arizona	-5476
▁feature	-5477
▁ireland	-5478
▁runners	-5479
▁Aircraft	-5480
▁Combined	-5481
▁Montreal	-5482
▁adelaide	-5483
▁condition	-5484
▁districts	-5485
▁wimbledon	-5486
▁Partnering	-5487
▁manchester	-5488
▁affiliation	-5489
▁Massachusetts	-5490
CI	-5491
Ch	-5492
.96	-5493
EST	-5494
MHz	-5495
aur	-5496
cal	-5497
dds	-5498
iba	-5499
ios	-5500
kin	-5501
mhz	-5502
nik	-5503
ogs	-5504
spe	-5505
▁+3	-5506
▁03	-5507
▁NO	-5508
▁TE	-5509
▁df	-5510
▁gp	-5511
▁ot	-5512
ains	-5513
ials	-5514
itor	-5515
ogan	-5516
ties	-5517
uefa	-5518
▁(14	-5519
▁116	-5520
▁24:	-5521
▁3-2	-5522
▁70,	-5523
▁Eff	-5524
▁Gal	-5525
▁Hor	-5526
▁Kim	-5527
▁Num	-5528
▁Row	-5529
▁Sky	-5530
▁aaa	-5531
▁cat	-5532
▁der	-5533
Cards	-5534
being	-5535
igned	-5536
ivity	-5537
ocity	-5538
ument	-5539
▁5:00	-5540
▁Born	-5541
▁Debt	-5542
▁Fast	-5543
▁Mart	-5544
▁girl	-5545
▁lind	-5546
▁stra	-5547
eelers	-5548
reland	-5549
▁1979?	-5550
▁1984?	-5551
▁2007/	-5552
▁2011,	-5553
▁Arden	-5554
▁Great	-5555
▁Urban	-5556
▁domin	-5557
▁fleet	-5558
▁wales	-5559
▁while	-5560
ailures	-5561
▁Serial	-5562
▁double	-5563
▁replay	-5564
▁tigers	-5565
▁Classic	-5566
▁Digital	-5567
▁Drivers	-5568
▁Website	-5569
▁elapsed	-5570
▁tallest	-5571
▁admitted	-5572
▁finalist	-5573
literation	-5574
▁Christian	-5575
▁Francisco	-5576
▁challenge	-5577
▁directors	-5578
▁unopposed	-5579
▁Settlement	-5580
▁Displacement	-5581
▁constellation	-5582
'?	-5583
SC	-5584
_{	-5585
gn	-5586
-03	-5587
-31	-5588
.63	-5589
.77	-5590
.7?	-5591
.9?	-5592
BER	-5593
Par	-5594
aga	-5595
app	-5596
elf	-5597
eme	-5598
gio	-5599
oel	-5600
omb	-5601
pes	-5602
▁$3	-5603
▁lb	-5604
▁sq	-5605
▁ut	-5606
Laps	-5607
Rank	-5608
alph	-5609
ctic	-5610
eman	-5611
ijay	-5612
ivis	-5613
oman	-5614
ould	-5615
ring	-5616
thur	-5617
▁(9)	-5618
▁109	-5619
▁130	-5620
▁34,	-5621
▁4-1	-5622
▁6-2	-5623
▁6.0	-5624
▁Aut	-5625
▁Hay	-5626
▁Jun	-5627
▁RFC	-5628
▁brm	-5629
▁bur	-5630
▁cre	-5631
▁hay	-5632
▁kWh	-5633
▁sus	-5634
avier	-5635
brity	-5636
eline	-5637
ering	-5638
iguel	-5639
▁1943	-5640
▁6–3?	-5641
▁Bats	-5642
▁Core	-5643
▁Laid	-5644
▁Male	-5645
▁Save	-5646
▁fuel	-5647
▁mail	-5648
▁page	-5649
▁rich	-5650
▁samp	-5651
▁shot	-5652
▁soft	-5653
▁yard	-5654
-69=28	-5655
orenzo	-5656
rizona	-5657
second	-5658
ungary	-5659
▁2010,	-5660
▁Brian	-5661
▁Brook	-5662
▁Henry	-5663
▁Royal	-5664
▁Windy	-5665
▁brook	-5666
▁dance	-5667
▁drive	-5668
▁ident	-5669
▁india	-5670
▁jason	-5671
▁lions	-5672
▁males	-5673
▁taken	-5674
acility	-5675
plified	-5676
▁Assist	-5677
▁Dallas	-5678
▁Invest	-5679
▁Medals	-5680
▁Sports	-5681
▁Sweden	-5682
▁ethnic	-5683
▁manner	-5684
▁median	-5685
▁norway	-5686
▁reason	-5687
▁studio	-5688
askatche	-5689
ependent	-5690
iverpool	-5691
▁Ireland	-5692
▁Partial	-5693
▁Russian	-5694
▁Zealand	-5695
▁drivers	-5696
▁install	-5697
▁orleans	-5698
▁polling	-5699
▁raymond	-5700
▁scoring	-5701
ropolitan	-5702
▁Hamilton	-5703
▁Aggregate	-5704
▁cleveland	-5705
▁presenter	-5706
askatchewan	-5707
▁Commercial	-5708
▁Identifier	-5709
▁Commissioned	-5710
▁displacement	-5711
▁representative	-5712
BC	-5713
IG	-5714
VA	-5715
ni	-5716
sw	-5717
-27	-5718
.32	-5719
ATE	-5720
ads	-5721
agu	-5722
chi	-5723
esl	-5724
igr	-5725
usk	-5726
–16	-5727
▁.3	-5728
▁BP	-5729
▁CP	-5730
▁Du	-5731
▁Ho	-5732
▁PM	-5733
▁ng	-5734
ALLE	-5735
anja	-5736
anna	-5737
atre	-5738
dart	-5739
elle	-5740
ocal	-5741
olas	-5742
oted	-5743
pose	-5744
▁1.1	-5745
▁1.6	-5746
▁119	-5747
▁135	-5748
▁147	-5749
▁44,	-5750
▁Ang	-5751
▁Dur	-5752
▁Fed	-5753
▁MLS	-5754
▁Mid	-5755
▁Sum	-5756
▁Two	-5757
▁bmw	-5758
▁bol	-5759
▁gal	-5760
▁mck	-5761
▁nic	-5762
-2000	-5763
Issue	-5764
raine	-5765
▁Bern	-5766
▁Dick	-5767
▁Mult	-5768
▁Wall	-5769
▁Word	-5770
▁fire	-5771
▁five	-5772
▁hall	-5773
▁jets	-5774
▁seen	-5775
▁sqmi	-5776
etween	-5777
pendit	-5778
▁1991?	-5779
▁2007,	-5780
▁Short	-5781
▁Telev	-5782
▁balle	-5783
▁davis	-5784
▁grass	-5785
▁korea	-5786
▁techn	-5787
ividual	-5788
upation	-5789
▁Friday	-5790
▁Lowest	-5791
▁Taylor	-5792
▁Trofeo	-5793
▁credit	-5794
▁diesel	-5795
▁econom	-5796
▁formal	-5797
▁garden	-5798
▁gender	-5799
▁hCards	-5800
▁junior	-5801
▁lasted	-5802
▁memory	-5803
elebrity	-5804
▁Anthony	-5805
▁Arizona	-5806
▁Kickoff	-5807
▁Kingdom	-5808
▁Phoenix	-5809
▁content	-5810
▁mission	-5811
ucational	-5812
▁Barangay	-5813
▁Timeslot	-5814
▁branding	-5815
▁receipts	-5816
▁reporters	-5817
▁Birthplace	-5818
▁touchdowns	-5819
▁Netherlands	-5820
▁represented	-5821
▁installation	-5822
▁Semifinalists	-5823
/0	-5824
/6	-5825
DS	-5826
Pr	-5827
SR	-5828
SW	-5829
do	-5830
hi	-5831
sa	-5832
ux	-5833
ye	-5834
ét	-5835
′′	-5836
-00	-5837
-6,	-5838
-7?	-5839
.29	-5840
.43	-5841
.74	-5842
/03	-5843
Met	-5844
cks	-5845
eds	-5846
icc	-5847
osé	-5848
sea	-5849
uka	-5850
▁)?	-5851
▁DC	-5852
▁FM	-5853
▁Lo	-5854
▁PA	-5855
▁ap	-5856
▁ga	-5857
▁sn	-5858
▁wy	-5859
-1)?	-5860
ader	-5861
alth	-5862
amar	-5863
auer	-5864
aven	-5865
itiz	-5866
roat	-5867
ulls	-5868
▁(11	-5869
▁0-4	-5870
▁5.8	-5871
▁51,	-5872
▁6.5	-5873
▁9.8	-5874
▁Gil	-5875
▁MCG	-5876
▁Pen	-5877
▁Whe	-5878
▁fly	-5879
▁las	-5880
▁let	-5881
▁lin	-5882
▁mas	-5883
▁mir	-5884
▁pac	-5885
▁rep	-5886
▁ten	-5887
▁vis	-5888
ather	-5889
house	-5890
iding	-5891
unter	-5892
utral	-5893
▁(24)	-5894
▁1500	-5895
▁Gary	-5896
▁Pass	-5897
▁Prov	-5898
▁Rich	-5899
▁Sand	-5900
▁Slam	-5901
▁Star	-5902
▁body	-5903
▁coed	-5904
▁crew	-5905
▁diff	-5906
▁mile	-5907
▁mult	-5908
▁span	-5909
▁tied	-5910
▁uefa	-5911
▁wide	-5912
acters	-5913
castle	-5914
helsea	-5915
season	-5916
ternal	-5917
▁1986?	-5918
▁2013?	-5919
▁Blank	-5920
▁Major	-5921
▁Motor	-5922
▁Story	-5923
▁analy	-5924
▁andre	-5925
▁began	-5926
▁broad	-5927
▁grids	-5928
▁jerry	-5929
▁kings	-5930
▁prote	-5931
▁route	-5932
▁simon	-5933
▁users	-5934
estants	-5935
iciency	-5936
ossible	-5937
ternate	-5938
▁Steals	-5939
▁Valley	-5940
▁Winter	-5941
▁brazil	-5942
▁bruins	-5943
▁bulgar	-5944
▁energy	-5945
▁meters	-5946
▁senior	-5947
▁stroke	-5948
▁Atlanta	-5949
▁Borough	-5950
▁Pennant	-5951
▁Vehicle	-5952
▁britain	-5953
▁seattle	-5954
▁someone	-5955
Territory	-5956
aditional	-5957
▁European	-5958
▁Township	-5959
▁columbia	-5960
▁religion	-5961
▁velocity	-5962
▁Singapore	-5963
▁brunswick	-5964
▁Contestant	-5965
▁Manchester	-5966
▁Prothrombin	-5967
▁indianapolis	-5968
/9	-5969
74	-5970
EP	-5971
GN	-5972
TH	-5973
di	-5974
gu	-5975
ho	-5976
)"?	-5977
.31	-5978
.62	-5979
/10	-5980
600	-5981
Att	-5982
_{\	-5983
orf	-5984
pal	-5985
unn	-5986
vet	-5987
▁$5	-5988
▁02	-5989
▁FS	-5990
▁Jo	-5991
▁Kh	-5992
▁Pa	-5993
▁Te	-5994
▁dn	-5995
▁ho	-5996
▁mo	-5997
▁nc	-5998
▁pi	-5999
▁ry	-6000
▁wc	-6001
▁wk	-6002
-17?	-6003
agle	-6004
apon	-6005
fall	-6006
gest	-6007
loss	-6008
phis	-6009
▁126	-6010
▁175	-6011
▁189	-6012
▁33,	-6013
▁35,	-6014
▁38?	-6015
▁4.9	-6016
▁43,	-6017
▁Mod	-6018
▁Van	-6019
▁gas	-6020
▁num	-6021
▁ord	-6022
▁pop	-6023
▁por	-6024
▁wed	-6025
ALLER	-6026
aries	-6027
cedes	-6028
etter	-6029
iving	-6030
oslav	-6031
useum	-6032
uzzle	-6033
▁1941	-6034
▁ANSI	-6035
▁Bang	-6036
▁Cart	-6037
▁HDTV	-6038
▁Jose	-6039
▁Verb	-6040
▁bern	-6041
▁flor	-6042
▁leon	-6043
▁live	-6044
▁mill	-6045
▁ross	-6046
iverse	-6047
ovakia	-6048
uthors	-6049
▁1982?	-6050
▁Clock	-6051
▁Conne	-6052
▁Crude	-6053
▁Honda	-6054
▁Kilda	-6055
▁Range	-6056
▁Tyres	-6057
▁Wales	-6058
▁brian	-6059
▁cache	-6060
▁civil	-6061
▁jimmy	-6062
▁saint	-6063
▁short	-6064
aterial	-6065
▁Former	-6066
▁Oliver	-6067
▁Socket	-6068
▁airing	-6069
▁howard	-6070
▁issued	-6071
▁proper	-6072
ashville	-6073
structed	-6074
▁Bowling	-6075
▁Britain	-6076
▁Minutes	-6077
▁SMALLER	-6078
▁aprilia	-6079
▁freight	-6080
▁liberal	-6081
▁lincoln	-6082
▁oakland	-6083
▁stewart	-6084
▁Scotland	-6085
▁athletic	-6086
▁bleeding	-6087
▁children	-6088
▁fernando	-6089
▁hamilton	-6090
▁selected	-6091
▁stations	-6092
▁straight	-6093
▁township	-6094
▁currently	-6095
▁sheffield	-6096
▁sponsored	-6097
▁Binibining	-6098
▁preliminary	-6099
▁Administrative	-6100
-5?	-6101
.05	-6102
.50	-6103
.76	-6104
/11	-6105
201	-6106
iki	-6107
ilo	-6108
oly	-6109
ple	-6110
rav	-6111
vro	-6112
▁(°	-6113
▁2)	-6114
▁Rh	-6115
▁Sy	-6116
▁sr	-6117
▁sy	-6118
-10?	-6119
Spec	-6120
anga	-6121
ante	-6122
ardi	-6123
arks	-6124
burn	-6125
edro	-6126
empt	-6127
hens	-6128
ivan	-6129
quis	-6130
▁(3)	-6131
▁(5)	-6132
▁(99	-6133
▁0.1	-6134
▁127	-6135
▁132	-6136
▁33?	-6137
▁4-2	-6138
▁48,	-6139
▁65,	-6140
▁III	-6141
▁Ice	-6142
▁Jac	-6143
▁LOA	-6144
▁Map	-6145
▁Sat	-6146
▁Squ	-6147
▁Ter	-6148
▁cop	-6149
▁flo	-6150
▁nak	-6151
▁six	-6152
itche	-6153
overs	-6154
oviet	-6155
rence	-6156
senal	-6157
unist	-6158
▁1934	-6159
▁Bron	-6160
▁Stud	-6161
▁andy	-6162
▁arch	-6163
▁fans	-6164
▁fore	-6165
▁good	-6166
▁iowa	-6167
▁juan	-6168
▁kenn	-6169
▁legs	-6170
▁prop	-6171
▁secs	-6172
▁sets	-6173
-73=28	-6174
achine	-6175
change	-6176
cticut	-6177
essive	-6178
ipient	-6179
vrolet	-6180
▁11:00	-6181
▁2011/	-6182
▁Clean	-6183
▁Domin	-6184
▁Irish	-6185
▁Jason	-6186
▁Month	-6187
▁Spain	-6188
▁bears	-6189
▁bobby	-6190
▁chart	-6191
▁chief	-6192
▁craig	-6193
▁equiv	-6194
▁franc	-6195
▁maria	-6196
▁mount	-6197
▁owned	-6198
▁sSpec	-6199
▁sound	-6200
▁those	-6201
atholic	-6202
▁Colors	-6203
▁Labour	-6204
▁Miller	-6205
▁Parish	-6206
▁church	-6207
▁golfer	-6208
▁oilers	-6209
▁toyota	-6210
▁voters	-6211
poration	-6212
tainment	-6213
▁Appoint	-6214
▁Batting	-6215
▁Jackson	-6216
▁Matthew	-6217
▁Polling	-6218
▁Raiders	-6219
▁america	-6220
▁antonio	-6221
▁broncos	-6222
▁females	-6223
▁playoff	-6224
▁private	-6225
▁profile	-6226
▁renault	-6227
▁scorers	-6228
▁tourism	-6229
asketball	-6230
irmingham	-6231
▁Building	-6232
▁Internet	-6233
▁altitude	-6234
▁brisbane	-6235
▁cardinal	-6236
▁festival	-6237
▁minister	-6238
▁winnings	-6239
▁charlotte	-6240
▁wanderers	-6241
▁australian	-6242
▁successors	-6243
▁constructed	-6244
▁destination	-6245
:4	-6246
dt	-6247
.03	-6248
.36	-6249
Age	-6250
USD	-6251
asm	-6252
axy	-6253
elo	-6254
ext	-6255
har	-6256
jun	-6257
kyo	-6258
lia	-6259
weg	-6260
–25	-6261
▁DO	-6262
▁Ha	-6263
▁NT	-6264
▁Ry	-6265
▁UN	-6266
▁Wy	-6267
▁ko	-6268
-14?	-6269
None	-6270
alam	-6271
code	-6272
ests	-6273
onor	-6274
ryan	-6275
sted	-6276
time	-6277
▁(4)	-6278
▁(7–	-6279
▁121	-6280
▁124	-6281
▁129	-6282
▁3-1	-6283
▁3–6	-6284
▁Ash	-6285
▁Fig	-6286
▁LMS	-6287
▁Occ	-6288
▁YES	-6289
▁alf	-6290
▁arm	-6291
▁dim	-6292
▁kaz	-6293
▁lim	-6294
▁mhz	-6295
▁tar	-6296
-73=2	-6297
Share	-6298
aging	-6299
atory	-6300
igner	-6301
inger	-6302
inner	-6303
orean	-6304
▁1946	-6305
▁6–4?	-6306
▁Arri	-6307
▁Expl	-6308
▁Good	-6309
▁Rece	-6310
▁Ryan	-6311
▁TEAM	-6312
▁Vice	-6313
▁Virt	-6314
▁Zone	-6315
▁conf	-6316
▁euro	-6317
▁farm	-6318
▁join	-6319
▁russ	-6320
▁then	-6321
ompson	-6322
ources	-6323
ousand	-6324
rivers	-6325
tridge	-6326
uguese	-6327
▁(2010	-6328
▁10-11	-6329
▁15-16	-6330
▁Chart	-6331
▁Loses	-6332
▁Space	-6333
▁codes	-6334
▁dated	-6335
▁lotus	-6336
▁mario	-6337
▁react	-6338
▁shirt	-6339
▁small	-6340
▁Blocks	-6341
▁Libert	-6342
▁Memory	-6343
▁Monday	-6344
▁Public	-6345
▁Russia	-6346
▁Scores	-6347
▁Stuart	-6348
▁Target	-6349
▁carlos	-6350
▁denver	-6351
▁golden	-6352
▁integr	-6353
▁little	-6354
▁output	-6355
▁queens	-6356
▁saints	-6357
▁seated	-6358
▁serial	-6359
▁wilson	-6360
▁Prefect	-6361
▁belongs	-6362
▁between	-6363
▁develop	-6364
▁indiana	-6365
olleyball	-6366
▁Apparent	-6367
▁Children	-6368
▁Edmonton	-6369
▁Governor	-6370
▁Oklahoma	-6371
▁Operator	-6372
▁ceremony	-6373
▁european	-6374
▁pressure	-6375
▁Community	-6376
▁Milwaukee	-6377
▁canadiens	-6378
▁remaining	-6379
▁Qualifying	-6380
▁resolution	-6381
▁switzerland	-6382
81	-6383
HA	-6384
MA	-6385
SO	-6386
.40	-6387
/07	-6388
Eng	-6389
acr	-6390
aja	-6391
ble	-6392
bol	-6393
eep	-6394
ews	-6395
fan	-6396
iji	-6397
isk	-6398
iya	-6399
olm	-6400
olo	-6401
sal	-6402
til	-6403
tro	-6404
uca	-6405
udy	-6406
uma	-6407
via	-6408
–08	-6409
▁CB	-6410
▁PR	-6411
▁bt	-6412
▁hd	-6413
▁hu	-6414
▁je	-6415
▁mm	-6416
▁ni	-6417
-13?	-6418
000,	-6419
Year	-6420
alem	-6421
alom	-6422
amer	-6423
arus	-6424
cell	-6425
cont	-6426
eded	-6427
furt	-6428
ides	-6429
imir	-6430
load	-6431
mson	-6432
mund	-6433
oche	-6434
ondu	-6435
orpe	-6436
osse	-6437
stan	-6438
▁114	-6439
▁141	-6440
▁148	-6441
▁156	-6442
▁32,	-6443
▁50,	-6444
▁9.5	-6445
▁Ast	-6446
▁Bre	-6447
▁Cat	-6448
▁Cre	-6449
▁Did	-6450
▁Ell	-6451
▁Fox	-6452
▁Hot	-6453
▁Imp	-6454
▁Mir	-6455
▁Sec	-6456
▁Yes	-6457
▁ply	-6458
▁tel	-6459
▁whe	-6460
2000)	-6461
ademy	-6462
albot	-6463
eball	-6464
phone	-6465
retti	-6466
riors	-6467
share	-6468
urray	-6469
▁(199	-6470
▁1940	-6471
▁6–2?	-6472
▁7–6(	-6473
▁Chen	-6474
▁DATE	-6475
▁Fred	-6476
▁Link	-6477
▁Made	-6478
▁Mile	-6479
▁Sept	-6480
▁Sets	-6481
▁Tony	-6482
▁Wild	-6483
▁bart	-6484
▁bush	-6485
▁chen	-6486
▁disc	-6487
▁gear	-6488
▁lady	-6489
▁sunk	-6490
▁turn	-6491
adores	-6492
anucks	-6493
ecided	-6494
orials	-6495
ptions	-6496
reased	-6497
▁1966?	-6498
▁Bills	-6499
▁Lions	-6500
▁Malay	-6501
▁Tamil	-6502
▁Union	-6503
▁appro	-6504
▁romeo	-6505
▁stars	-6506
▁tower	-6507
▁voted	-6508
alencia	-6509
amilies	-6510
olation	-6511
onsored	-6512
ualties	-6513
umacher	-6514
urrency	-6515
▁Assemb	-6516
▁Capita	-6517
▁Oilers	-6518
▁Prince	-6519
▁Queens	-6520
▁Watson	-6521
▁births	-6522
▁dancer	-6523
▁indoor	-6524
▁jockey	-6525
▁letter	-6526
▁poland	-6527
▁temper	-6528
emocrats	-6529
province	-6530
▁2007–08	-6531
▁Arrival	-6532
▁Roberts	-6533
▁Spanish	-6534
▁Stephen	-6535
▁Trainer	-6536
▁anthony	-6537
▁contain	-6538
▁patrick	-6539
▁stephen	-6540
atalities	-6541
ilometers	-6542
▁Columbia	-6543
▁Domestic	-6544
▁Olympics	-6545
▁involves	-6546
▁receiver	-6547
▁Completed	-6548
▁Employees	-6549
▁Residence	-6550
▁Withdrawn	-6551
▁appointed	-6552
▁barcelona	-6553
▁Nomination	-6554
▁introduced	-6555
▁Designation	-6556
▁construction	-6557
▁pennsylvania	-6558
/5	-6559
/8	-6560
SS	-6561
Tr	-6562
-2)	-6563
.01	-6564
.86	-6565
/02	-6566
300	-6567
700	-6568
INT	-6569
enh	-6570
low	-6571
mad	-6572
pts	-6573
van	-6574
–15	-6575
▁(/	-6576
▁jo	-6577
▁si	-6578
▁ta	-6579
-101	-6580
-12?	-6581
Loss	-6582
agon	-6583
arge	-6584
came	-6585
enth	-6586
inth	-6587
itch	-6588
laus	-6589
omer	-6590
onen	-6591
onia	-6592
ores	-6593
wall	-6594
▁1-3	-6595
▁151	-6596
▁1–0	-6597
▁2.2	-6598
▁39,	-6599
▁40,	-6600
▁40?	-6601
▁4–6	-6602
▁60,	-6603
▁600	-6604
▁68,	-6605
▁78,	-6606
▁8.4	-6607
▁Alb	-6608
▁CON	-6609
▁Dav	-6610
▁Hal	-6611
▁Jan	-6612
▁Jon	-6613
▁Nos	-6614
▁Por	-6615
▁Rod	-6616
▁Ron	-6617
▁Sur	-6618
▁Ver	-6619
▁ale	-6620
▁box	-6621
▁ell	-6622
▁gil	-6623
▁ian	-6624
▁iii	-6625
▁imp	-6626
▁lie	-6627
▁mah	-6628
▁nhl	-6629
▁ram	-6630
▁rev	-6631
▁sil	-6632
Total	-6633
agues	-6634
illip	-6635
inent	-6636
ogers	-6637
rison	-6638
uther	-6639
▁(77)	-6640
▁10.8	-6641
▁1929	-6642
▁1939	-6643
▁2:00	-6644
▁Arab	-6645
▁Base	-6646
▁Fort	-6647
▁Solo	-6648
▁Tech	-6649
▁Tier	-6650
▁bell	-6651
▁chip	-6652
▁cups	-6653
▁cycl	-6654
▁golf	-6655
▁prom	-6656
▁them	-6657
▁wars	-6658
uation	-6659
ucture	-6660
▁Cache	-6661
▁Woods	-6662
▁colle	-6663
▁depth	-6664
▁equal	-6665
▁media	-6666
▁width	-6667
▁yacht	-6668
ipients	-6669
▁Austin	-6670
▁column	-6671
▁factor	-6672
▁female	-6673
▁german	-6674
▁johnny	-6675
▁oliver	-6676
▁taylor	-6677
▁2004-05	-6678
▁Belgium	-6679
▁Figures	-6680
▁Patrick	-6681
▁Pitcher	-6682
▁Shooter	-6683
▁council	-6684
▁married	-6685
▁packers	-6686
imination	-6687
▁2006-200	-6688
▁Patriots	-6689
▁Regional	-6690
▁Republic	-6691
▁Reserved	-6692
▁Sanskrit	-6693
▁cosworth	-6694
▁includes	-6695
▁manufact	-6696
▁possible	-6697
▁reported	-6698
▁Unopposed	-6699
▁baltimore	-6700
▁requested	-6701
▁satellite	-6702
▁commercial	-6703
▁cosponsored	-6704
FM	-6705
bi	-6706
dp	-6707
zh	-6708
▁\	-6709
apt	-6710
awn	-6711
bat	-6712
bay	-6713
bie	-6714
ema	-6715
esp	-6716
iah	-6717
ikh	-6718
lét	-6719
ová	-6720
pha	-6721
pur	-6722
uba	-6723
ups	-6724
vik	-6725
ynn	-6726
▁1)	-6727
▁LA	-6728
▁Wk	-6729
▁dx	-6730
▁gi	-6731
▁mb	-6732
▁mf	-6733
▁ss	-6734
-20?	-6735
/100	-6736
aldi	-6737
assi	-6738
augh	-6739
chez	-6740
engu	-6741
feld	-6742
ifer	-6743
ikos	-6744
ized	-6745
leng	-6746
lett	-6747
pson	-6748
reen	-6749
rone	-6750
tray	-6751
▁(98	-6752
▁133	-6753
▁155	-6754
▁2–0	-6755
▁3.3	-6756
▁35?	-6757
▁9.4	-6758
▁Der	-6759
▁FIS	-6760
▁Feb	-6761
▁Gir	-6762
▁Key	-6763
▁LAR	-6764
▁Lin	-6765
▁MLB	-6766
▁McG	-6767
▁POS	-6768
▁Pak	-6769
▁Rem	-6770
▁Sar	-6771
▁Wal	-6772
▁bra	-6773
▁imm	-6774
▁les	-6775
▁ore	-6776
▁pas	-6777
▁rab	-6778
▁ron	-6779
▁ski	-6780
▁vic	-6781
angul	-6782
annon	-6783
anton	-6784
aware	-6785
azers	-6786
cents	-6787
ebras	-6788
eston	-6789
inter	-6790
ivier	-6791
izont	-6792
olves	-6793
thard	-6794
uncan	-6795
ussen	-6796
uster	-6797
ynamo	-6798
▁(100	-6799
▁13.5	-6800
▁1:30	-6801
▁25–2	-6802
▁Burn	-6803
▁Clay	-6804
▁DCSF	-6805
▁Hong	-6806
▁Iowa	-6807
▁Legs	-6808
▁Live	-6809
▁Love	-6810
▁Seat	-6811
▁bowl	-6812
▁jess	-6813
▁todd	-6814
▁vers	-6815
-71=14	-6816
-72=14	-6817
-72=28	-6818
United	-6819
encing	-6820
estler	-6821
iction	-6822
lético	-6823
ussels	-6824
▁11.11	-6825
▁1974?	-6826
▁1977?	-6827
▁1981?	-6828
▁1985?	-6829
▁2006,	-6830
▁Balls	-6831
▁Civil	-6832
▁Diego	-6833
▁Guard	-6834
▁Larry	-6835
▁Mount	-6836
▁Night	-6837
▁climb	-6838
▁colts	-6839
▁corio	-6840
▁court	-6841
▁front	-6842
▁maple	-6843
▁polit	-6844
▁roman	-6845
ebraska	-6846
hampton	-6847
itchell	-6848
izontal	-6849
nominal	-6850
olphins	-6851
▁Killed	-6852
▁Polish	-6853
▁Rowers	-6854
▁Titles	-6855
▁carpet	-6856
▁colors	-6857
▁former	-6858
▁moscow	-6859
▁stolen	-6860
▁tonnes	-6861
▁volume	-6862
perience	-6863
▁beijing	-6864
▁control	-6865
▁italian	-6866
▁opening	-6867
▁package	-6868
▁partial	-6869
▁seconds	-6870
▁Electric	-6871
▁Malaysia	-6872
▁Missouri	-6873
▁Provider	-6874
▁Townland	-6875
▁panthers	-6876
▁scuderia	-6877
▁Charlotte	-6878
▁Wanderers	-6879
▁alexander	-6880
▁freestyle	-6881
▁panelists	-6882
▁president	-6883
▁principal	-6884
▁Bodyweight	-6885
▁Foundation	-6886
▁corresponds	-6887
▁Agricultural	-6888
▁Indianapolis	-6889
.(	-6890
An	-6891
DR	-6892
GP	-6893
hh	-6894
ju	-6895
uh	-6896
во	-6897
–9	-6898
.09	-6899
.67	-6900
.72	-6901
/19	-6902
07?	-6903
250	-6904
805	-6905
PPP	-6906
box	-6907
due	-6908
ety	-6909
fix	-6910
ily	-6911
kee	-6912
ubb	-6913
▁+4	-6914
▁Bu	-6915
▁Ca	-6916
▁EP	-6917
▁LP	-6918
▁PI	-6919
▁RO	-6920
▁So	-6921
▁az	-6922
▁lq	-6923
:30?	-6924
amps	-6925
chan	-6926
outs	-6927
umph	-6928
usen	-6929
vals	-6930
▁2-3	-6931
▁4-0	-6932
▁4-3	-6933
▁4-6	-6934
▁58,	-6935
▁62,	-6936
▁Arg	-6937
▁Arm	-6938
▁Bad	-6939
▁Ips	-6940
▁Lie	-6941
▁McK	-6942
▁Nic	-6943
▁TDP	-6944
▁adv	-6945
▁bad	-6946
▁bal	-6947
▁cur	-6948
▁hot	-6949
▁int	-6950
▁kwh	-6951
▁sar	-6952
▁tot	-6953
andra	-6954
apter	-6955
atial	-6956
eased	-6957
emple	-6958
miers	-6959
ppers	-6960
rican	-6961
▁(11)	-6962
▁(16)	-6963
▁3:00	-6964
▁Eric	-6965
▁Hart	-6966
▁Kong	-6967
▁Life	-6968
▁Rome	-6969
▁anna	-6970
▁barb	-6971
▁bear	-6972
▁coin	-6973
▁lock	-6974
▁mans	-6975
▁spir	-6976
▁wall	-6977
Region	-6978
caster	-6979
league	-6980
ouples	-6981
quired	-6982
▁1964?	-6983
▁1968?	-6984
▁1973?	-6985
▁1976?	-6986
▁1978?	-6987
▁Barry	-6988
▁Dutch	-6989
▁Kevin	-6990
▁Prime	-6991
▁Roger	-6992
▁Route	-6993
▁Spike	-6994
▁Wayne	-6995
▁beach	-6996
▁conne	-6997
▁lanes	-6998
▁leave	-6999
▁nickn	-7000
▁paris	-7001
▁queen	-7002
▁satur	-7003
▁story	-7004
▁tampa	-7005
tribute	-7006
▁Bruins	-7007
▁Common	-7008
▁Garden	-7009
▁Indian	-7010
▁LARGER	-7011
▁Nelson	-7012
▁PLAYER	-7013
▁Saints	-7014
▁Wicket	-7015
▁Wilson	-7016
▁cancel	-7017
▁justin	-7018
▁metres	-7019
▁middle	-7020
▁retire	-7021
▁riders	-7022
▁talbot	-7023
▁viewed	-7024
election	-7025
lication	-7026
opulsion	-7027
▁Eastern	-7028
▁Musical	-7029
▁batting	-7030
▁brabham	-7031
▁cricket	-7032
▁digital	-7033
▁placing	-7034
▁visited	-7035
formation	-7036
▁Reaction	-7037
▁chargers	-7038
▁combined	-7039
▁domestic	-7040
▁features	-7041
▁marathon	-7042
▁operator	-7043
▁timeslot	-7044
▁Baltimore	-7045
▁Departure	-7046
▁featuring	-7047
▁operation	-7048
▁Pittsburgh	-7049
▁cincinnati	-7050
▁Declination	-7051
FR	-7052
JC	-7053
Se	-7054
TS	-7055
si	-7056
zi	-7057
ía	-7058
ör	-7059
០០	-7060
▁†	-7061
.37	-7062
/05	-7063
197	-7064
SIP	-7065
abi	-7066
avi	-7067
fox	-7068
ige	-7069
igg	-7070
oga	-7071
phy	-7072
ppe	-7073
sec	-7074
▁AS	-7075
▁DX	-7076
▁Fa	-7077
▁Fe	-7078
▁HC	-7079
▁Hy	-7080
▁IV	-7081
▁Im	-7082
▁MJ	-7083
▁Ow	-7084
▁RR	-7085
▁SR	-7086
▁aa	-7087
▁ay	-7088
▁fb	-7089
▁ju	-7090
▁ky	-7091
▁rb	-7092
▁sg	-7093
/197	-7094
OTAL	-7095
agar	-7096
agen	-7097
aldo	-7098
alty	-7099
bank	-7100
cker	-7101
ente	-7102
gypt	-7103
ondo	-7104
orer	-7105
ovic	-7106
rain	-7107
ship	-7108
unny	-7109
yuns	-7110
▁(£)	-7111
▁0.4	-7112
▁0.9	-7113
▁118	-7114
▁131	-7115
▁137	-7116
▁152	-7117
▁166	-7118
▁184	-7119
▁20'	-7120
▁204	-7121
▁274	-7122
▁5.9	-7123
▁55,	-7124
▁64,	-7125
▁7.9	-7126
▁Add	-7127
▁Aud	-7128
▁Bus	-7129
▁Cam	-7130
▁Dem	-7131
▁Her	-7132
▁Kaz	-7133
▁Pac	-7134
▁Pav	-7135
▁Ren	-7136
▁You	-7137
▁abd	-7138
▁alb	-7139
▁dav	-7140
▁die	-7141
▁din	-7142
▁eur	-7143
▁feb	-7144
▁mcl	-7145
▁wta	-7146
-69=2	-7147
00000	-7148
akota	-7149
azine	-7150
ensen	-7151
eremy	-7152
esteg	-7153
itial	-7154
night	-7155
oline	-7156
orgen	-7157
owell	-7158
rolle	-7159
ryant	-7160
width	-7161
▁(110	-7162
▁100+	-7163
▁1942	-7164
▁3:30	-7165
▁Bell	-7166
▁Brad	-7167
▁Disp	-7168
▁Doug	-7169
▁Fate	-7170
▁Jean	-7171
▁Jets	-7172
▁PSIP	-7173
▁Rams	-7174
▁Supp	-7175
▁arab	-7176
▁cars	-7177
▁doll	-7178
▁ever	-7179
▁hunt	-7180
▁nord	-7181
▁note	-7182
▁punt	-7183
aneiro	-7184
ighton	-7185
imated	-7186
imming	-7187
opical	-7188
▁(18-4	-7189
▁1954?	-7190
▁1969?	-7191
▁1970?	-7192
▁2004,	-7193
▁27-29	-7194
▁5,008	-7195
▁Billy	-7196
▁Entre	-7197
▁Franc	-7198
▁Greek	-7199
▁Paris	-7200
▁TOTAL	-7201
▁Tampa	-7202
▁Voice	-7203
▁begin	-7204
▁billy	-7205
▁break	-7206
▁leafs	-7207
▁singh	-7208
▁vijay	-7209
acional	-7210
enguins	-7211
ullivan	-7212
▁1987-8	-7213
▁Awards	-7214
▁Dennis	-7215
▁Female	-7216
▁Giants	-7217
▁Jordan	-7218
▁Morris	-7219
▁Norway	-7220
▁Sunday	-7221
▁Tonnes	-7222
▁became	-7223
▁common	-7224
▁indian	-7225
▁indust	-7226
▁movies	-7227
▁nelson	-7228
▁ottawa	-7229
▁soviet	-7230
▁walker	-7231
ivisions	-7232
ological	-7233
oulthard	-7234
outheast	-7235
▁2011–12	-7236
▁Austria	-7237
▁Females	-7238
▁Innings	-7239
▁Opening	-7240
▁Railway	-7241
▁Scorers	-7242
▁Windows	-7243
▁biggest	-7244
▁bowling	-7245
▁details	-7246
▁village	-7247
▁Brisbane	-7248
▁Broadway	-7249
▁Delegate	-7250
▁Facility	-7251
▁Festival	-7252
▁Platelet	-7253
▁arrivals	-7254
▁atlantic	-7255
▁governor	-7256
▁producer	-7257
▁steelers	-7258
▁Alexander	-7259
▁Appointed	-7260
▁Bulgarian	-7261
▁Operating	-7262
▁christian	-7263
▁louisiana	-7264
▁deficiency	-7265
▁motorsport	-7266
▁retirement	-7267
yunsaturated	-7268
▁Motorsports	-7269
▁electricity	-7270
▁mississippi	-7271
0000000000000	-7272
/7	-7273
/?	-7274
ED	-7275
SE	-7276
cr	-7277
pa	-7278
ré	-7279
▁:	-7280
▁г	-7281
-77	-7282
-94	-7283
.04	-7284
.07	-7285
.60	-7286
.89	-7287
/06	-7288
ece	-7289
igo	-7290
sex	-7291
tel	-7292
tha	-7293
ymn	-7294
–17	-7295
▁"2	-7296
▁-3	-7297
▁6'	-7298
▁CF	-7299
▁Ft	-7300
▁ON	-7301
▁RU	-7302
▁Ru	-7303
▁ak	-7304
▁hs	-7305
▁rh	-7306
▁xi	-7307
alog	-7308
asco	-7309
ashi	-7310
ecut	-7311
giro	-7312
idad	-7313
illy	-7314
imen	-7315
incl	-7316
ness	-7317
okie	-7318
term	-7319
wide	-7320
–25?	-7321
▁0-2	-7322
▁0-6	-7323
▁138	-7324
▁139	-7325
▁153	-7326
▁165	-7327
▁255	-7328
▁36,	-7329
▁44?	-7330
▁5.7	-7331
▁53,	-7332
▁7–5	-7333
▁ATM	-7334
▁Ale	-7335
▁Beg	-7336
▁Bol	-7337
▁Fel	-7338
▁ITV	-7339
▁MAN	-7340
▁Ram	-7341
▁Rub	-7342
▁Sid	-7343
▁Spo	-7344
▁Tel	-7345
▁UCI	-7346
▁cfl	-7347
▁cru	-7348
▁fra	-7349
▁hor	-7350
▁jay	-7351
▁oil	-7352
▁rad	-7353
-2005	-7354
adies	-7355
anner	-7356
ctive	-7357
ellow	-7358
prene	-7359
rease	-7360
stant	-7361
usted	-7362
▁1945	-7363
▁Circ	-7364
▁Drop	-7365
▁Hear	-7366
▁Rick	-7367
▁Rose	-7368
▁Ross	-7369
▁Sean	-7370
▁Soft	-7371
▁Spec	-7372
▁Terr	-7373
▁Tied	-7374
▁Turn	-7375
▁bang	-7376
▁cook	-7377
▁fort	-7378
▁hart	-7379
▁hong	-7380
▁jose	-7381
▁ride	-7382
▁uses	-7383
▁utah	-7384
Parish	-7385
atinum	-7386
ending	-7387
letion	-7388
ooting	-7389
rosoft	-7390
urname	-7391
wegian	-7392
▁08-09	-7393
▁1967?	-7394
▁Andre	-7395
▁Craig	-7396
▁Distr	-7397
▁Tally	-7398
▁Upper	-7399
▁about	-7400
▁arrow	-7401
▁clean	-7402
▁czech	-7403
▁eddie	-7404
▁items	-7405
▁still	-7406
▁units	-7407
▁weigh	-7408
▁wells	-7409
▁works	-7410
▁(2012)	-7411
▁Actual	-7412
▁Bishop	-7413
▁Bridge	-7414
▁Darren	-7415
▁Latest	-7416
▁Nordic	-7417
▁People	-7418
▁Scorer	-7419
▁Single	-7420
▁blocks	-7421
▁deport	-7422
▁expect	-7423
▁greece	-7424
▁madrid	-7425
▁oregon	-7426
▁streak	-7427
▁vessel	-7428
junctive	-7429
▁Alabama	-7430
▁Authors	-7431
▁Olympic	-7432
▁Philipp	-7433
▁Princes	-7434
▁Skipper	-7435
▁Voltage	-7436
▁eastern	-7437
▁finland	-7438
▁foreign	-7439
▁natural	-7440
▁parties	-7441
▁railway	-7442
▁reports	-7443
▁section	-7444
▁special	-7445
▁through	-7446
▁vikings	-7447
▁wounded	-7448
penditure	-7449
▁Altitude	-7450
▁Elevated	-7451
▁Memorial	-7452
▁Universe	-7453
▁achieved	-7454
▁estimate	-7455
▁jonathan	-7456
▁kentucky	-7457
▁oklahoma	-7458
▁santiago	-7459
▁standing	-7460
▁winnipeg	-7461
okesperson	-7462
▁Operation	-7463
▁Passenger	-7464
▁Publisher	-7465
▁Wisconsin	-7466
▁Background	-7467
▁Industrial	-7468
▁Pictorials	-7469
▁appearance	-7470
▁integrated	-7471
▁prominence	-7472
▁Prohibition	-7473
▁percentages	-7474
▁publication	-7475
▁Denomination	-7476
62	-7477
78	-7478
GR	-7479
Oy	-7480
iu	-7481
iw	-7482
jo	-7483
tz	-7484
zy	-7485
ño	-7486
▁→	-7487
.30	-7488
.5,	-7489
.58	-7490
99,	-7491
AGE	-7492
ING	-7493
UTC	-7494
agh	-7495
aru	-7496
bec	-7497
eda	-7498
eta	-7499
eto	-7500
hai	-7501
lap	-7502
mir	-7503
oiv	-7504
oku	-7505
ppa	-7506
rum	-7507
udd	-7508
uri	-7509
uve	-7510
vor	-7511
won	-7512
–0,	-7513
–19	-7514
▁AU	-7515
▁CH	-7516
▁Di	-7517
▁EU	-7518
▁GA	-7519
▁Kr	-7520
▁LL	-7521
▁cm	-7522
▁kh	-7523
▁mu	-7524
▁ou	-7525
▁vi	-7526
Oyly	-7527
abwe	-7528
alia	-7529
aria	-7530
gers	-7531
gian	-7532
hood	-7533
idae	-7534
iled	-7535
indu	-7536
ires	-7537
lake	-7538
onym	-7539
pass	-7540
rank	-7541
umed	-7542
umst	-7543
unda	-7544
zuki	-7545
–201	-7546
▁143	-7547
▁1–2	-7548
▁2.3	-7549
▁207	-7550
▁2–6	-7551
▁3.2	-7552
▁41?	-7553
▁49,	-7554
▁6.3	-7555
▁6.9	-7556
▁8.2	-7557
▁9.1	-7558
▁Aff	-7559
▁Cur	-7560
▁Dun	-7561
▁Jay	-7562
▁Job	-7563
▁LMP	-7564
▁Mur	-7565
▁Mus	-7566
▁REC	-7567
▁Sus	-7568
▁Tak	-7569
▁bbl	-7570
▁fil	-7571
▁gdp	-7572
▁key	-7573
▁sat	-7574
▁sav	-7575
▁sea	-7576
▁sep	-7577
▁und	-7578
▁wel	-7579
ITION	-7580
afari	-7581
anced	-7582
asaki	-7583
chair	-7584
class	-7585
edish	-7586
erald	-7587
grade	-7588
icens	-7589
ician	-7590
imous	-7591
inees	-7592
istic	-7593
itans	-7594
ittee	-7595
lines	-7596
orage	-7597
tario	-7598
velty	-7599
▁(115	-7600
▁(84)	-7601
▁1928	-7602
▁2-1?	-7603
▁Cycl	-7604
▁Leon	-7605
▁Liga	-7606
▁Mill	-7607
▁Prom	-7608
▁Rest	-7609
▁Ring	-7610
▁Shot	-7611
▁Whit	-7612
▁bike	-7613
▁burn	-7614
▁cole	-7615
▁duke	-7616
▁hour	-7617
▁move	-7618
▁rand	-7619
▁reds	-7620
▁safe	-7621
▁suns	-7622
▁vari	-7623
▁zone	-7624
ariant	-7625
artney	-7626
engals	-7627
ennett	-7628
entium	-7629
errick	-7630
esliga	-7631
intend	-7632
pinion	-7633
salary	-7634
steros	-7635
ushing	-7636
▁10.14	-7637
▁1965?	-7638
▁1971?	-7639
▁2005,	-7640
▁Cargo	-7641
▁Carte	-7642
▁Hanja	-7643
▁Kelly	-7644
▁Kings	-7645
▁Opera	-7646
▁Organ	-7647
▁Simon	-7648
▁Since	-7649
▁Staff	-7650
▁Stock	-7651
▁Worst	-7652
▁amend	-7653
▁choke	-7654
▁citiz	-7655
▁cross	-7656
▁milan	-7657
▁monte	-7658
▁tommy	-7659
▁visit	-7660
chedule	-7661
ennifer	-7662
imbabwe	-7663
ladimir	-7664
ression	-7665
rington	-7666
stitute	-7667
▁Asians	-7668
▁Barrel	-7669
▁Friend	-7670
▁Israel	-7671
▁Korean	-7672
▁Little	-7673
▁Marcus	-7674
▁Ofsted	-7675
▁Ottawa	-7676
▁Slalom	-7677
▁Strong	-7678
▁demand	-7679
▁graham	-7680
▁jordan	-7681
▁mother	-7682
▁snatch	-7683
▁social	-7684
▁socket	-7685
▁steals	-7686
▁strike	-7687
▁target	-7688
asmussen	-7689
ccession	-7690
inthians	-7691
▁(18-49)	-7692
▁2006-07	-7693
▁Calgary	-7694
▁Meaning	-7695
▁Support	-7696
▁alabama	-7697
▁austria	-7698
▁chinese	-7699
▁dragons	-7700
▁engines	-7701
▁innings	-7702
▁madison	-7703
▁profess	-7704
▁raiders	-7705
▁rebound	-7706
▁tonnage	-7707
lessandro	-7708
quisition	-7709
▁Cultural	-7710
▁Genitive	-7711
▁Marriage	-7712
▁Maserati	-7713
▁Question	-7714
▁averages	-7715
▁bulgaria	-7716
▁canadian	-7717
▁cyrillic	-7718
▁Brunswick	-7719
▁Commander	-7720
▁Democrats	-7721
▁Household	-7722
▁premiered	-7723
▁structure	-7724
▁territory	-7725
▁Cincinnati	-7726
▁Portuguese	-7727
▁equivalent	-7728
▁expectancy	-7729
▁individual	-7730
000000000000	-7731
▁Christopher	-7732
▁Educational	-7733
▁Preliminary	-7734
▁contestants	-7735
▁motorsports	-7736
▁entertainment	-7737
68	-7738
Be	-7739
De	-7740
NS	-7741
]]	-7742
cd	-7743
hr	-7744
pf	-7745
pi	-7746
ww	-7747
▁.	-7748
-30	-7749
-34	-7750
-84	-7751
-93	-7752
.41	-7753
.93	-7754
/08	-7755
800	-7756
995	-7757
ICK	-7758
aty	-7759
erg	-7760
lon	-7761
–05	-7762
▁-1	-7763
▁AR	-7764
▁CA	-7765
▁IP	-7766
▁MO	-7767
▁Mo	-7768
▁Os	-7769
▁Ul	-7770
-11?	-7771
=138	-7772
ahaw	-7773
amin	-7774
erve	-7775
ints	-7776
iors	-7777
lian	-7778
owed	-7779
pped	-7780
rive	-7781
▁(15	-7782
▁(68	-7783
▁15-	-7784
▁16:	-7785
▁179	-7786
▁205	-7787
▁220	-7788
▁297	-7789
▁4-4	-7790
▁42?	-7791
▁46?	-7792
▁47,	-7793
▁52,	-7794
▁69,	-7795
▁8.6	-7796
▁9.7	-7797
▁AAM	-7798
▁But	-7799
▁Cos	-7800
▁FIN	-7801
▁FSB	-7802
▁Fly	-7803
▁HAD	-7804
▁Ing	-7805
▁McN	-7806
▁Rad	-7807
▁ark	-7808
▁dis	-7809
▁eff	-7810
▁els	-7811
▁fel	-7812
▁fle	-7813
▁joh	-7814
▁lar	-7815
▁leh	-7816
▁mak	-7817
▁rac	-7818
-67=2	-7819
ained	-7820
ences	-7821
icana	-7822
icken	-7823
maker	-7824
mical	-7825
odiac	-7826
ymbol	-7827
▁1-0?	-7828
▁11.8	-7829
▁1920	-7830
▁1930	-7831
▁Conf	-7832
▁Freq	-7833
▁Gill	-7834
▁Quad	-7835
▁Tack	-7836
▁Tele	-7837
▁bass	-7838
▁book	-7839
▁card	-7840
▁dead	-7841
▁done	-7842
▁drop	-7843
▁expl	-7844
▁gene	-7845
▁gonz	-7846
▁josé	-7847
▁lose	-7848
▁ment	-7849
▁mick	-7850
▁pict	-7851
▁rodr	-7852
▁solo	-7853
▁well	-7854
aurant	-7855
ctions	-7856
ipline	-7857
ipment	-7858
ismiss	-7859
keeper	-7860
ladesh	-7861
liance	-7862
mitter	-7863
rolled	-7864
ymnast	-7865
▁(0-1)	-7866
▁11.14	-7867
▁1955?	-7868
▁1980?	-7869
▁2001,	-7870
▁2003,	-7871
▁2012,	-7872
▁21-22	-7873
▁Bobby	-7874
▁Sacks	-7875
▁Storm	-7876
▁Video	-7877
▁Width	-7878
▁audio	-7879
▁bruce	-7880
▁cable	-7881
▁cargo	-7882
▁clock	-7883
▁known	-7884
▁larry	-7885
▁loser	-7886
▁minor	-7887
▁purse	-7888
▁roger	-7889
▁ships	-7890
▁types	-7891
▁video	-7892
Drivers	-7893
ainfall	-7894
country	-7895
eration	-7896
icester	-7897
liament	-7898
lippers	-7899
ominees	-7900
preneur	-7901
ricanes	-7902
▁Associ	-7903
▁Browns	-7904
▁Carlos	-7905
▁Denver	-7906
▁Dublin	-7907
▁Hangul	-7908
▁Junior	-7909
▁Strike	-7910
▁Tigers	-7911
▁Walker	-7912
▁Weapon	-7913
▁bishop	-7914
▁colour	-7915
▁corner	-7916
▁gordon	-7917
▁inches	-7918
▁manuel	-7919
▁miguel	-7920
▁royals	-7921
▁stable	-7922
miership	-7923
▁Control	-7924
▁Monarch	-7925
▁Product	-7926
▁Purpose	-7927
▁Records	-7928
▁Surname	-7929
▁arrival	-7930
▁crystal	-7931
▁falcons	-7932
▁kickoff	-7933
▁mintage	-7934
▁reached	-7935
▁tickets	-7936
▁tourist	-7937
▁univers	-7938
ismissals	-7939
▁Attempts	-7940
▁Composer	-7941
▁Economic	-7942
▁Incoming	-7943
▁Stations	-7944
▁Syracuse	-7945
▁arkansas	-7946
▁auckland	-7947
▁audition	-7948
▁channels	-7949
▁contains	-7950
▁failures	-7951
▁incident	-7952
▁mercedes	-7953
▁portland	-7954
▁republic	-7955
▁wildcats	-7956
▁Billboard	-7957
▁Celebrity	-7958
▁Challenge	-7959
▁Undecided	-7960
▁Vancouver	-7961
▁islanders	-7962
▁published	-7963
▁Technology	-7964
▁basketball	-7965
▁kilometers	-7966
▁opposition	-7967
▁semifinals	-7968
▁spectators	-7969
▁viewership	-7970
▁Mississippi	-7971
▁Switzerland	-7972
▁Saskatchewan	-7973
▁Transmission	-7974
▁registration	-7975
)@	-7976
/(	-7977
:5	-7978
IE	-7979
MB	-7980
No	-7981
Qu	-7982
aq	-7983
íg	-7984
ан	-7985
-35	-7986
-39	-7987
-7,	-7988
-85	-7989
.08	-7990
.49	-7991
.81	-7992
.83	-7993
/16	-7994
12?	-7995
210	-7996
ahl	-7997
aux	-7998
ava	-7999
bek	-8000
gas	-8001
gie	-8002
ibb	-8003
ikk	-8004
inh	-8005
ixt	-8006
jan	-8007
key	-8008
khz	-8009
lim	-8010
mas	-8011
oux	-8012
pun	-8013
rol	-8014
ube	-8015
vir	-8016
zen	-8017
▁"?	-8018
▁6-	-8019
▁Ek	-8020
▁GB	-8021
▁Gl	-8022
▁OL	-8023
▁PF	-8024
▁RB	-8025
▁SI	-8026
▁WN	-8027
▁Zh	-8028
▁ah	-8029
▁kr	-8030
▁ti	-8031
/196	-8032
/201	-8033
=139	-8034
Poly	-8035
SPAR	-8036
ablo	-8037
ammy	-8038
anzi	-8039
ared	-8040
asia	-8041
athy	-8042
cury	-8043
days	-8044
enne	-8045
ersh	-8046
ghan	-8047
ichi	-8048
illo	-8049
jeld	-8050
onso	-8051
oshi	-8052
ourg	-8053
stro	-8054
uten	-8055
▁(0)	-8056
▁(69	-8057
▁12:	-8058
▁146	-8059
▁149	-8060
▁154	-8061
▁176	-8062
▁2-2	-8063
▁216	-8064
▁3.6	-8065
▁42,	-8066
▁48?	-8067
▁5.5	-8068
▁Beh	-8069
▁Box	-8070
▁Hyd	-8071
▁INT	-8072
▁MEP	-8073
▁McD	-8074
▁Ord	-8075
▁Pap	-8076
▁Rep	-8077
▁SEC	-8078
▁Sir	-8079
▁Toy	-8080
▁[10	-8081
▁aff	-8082
▁atp	-8083
▁bat	-8084
▁bom	-8085
▁boy	-8086
▁hew	-8087
▁pot	-8088
▁rap	-8089
▁say	-8090
▁tro	-8091
▁tun	-8092
▁vin	-8093
-66=2	-8094
ATION	-8095
South	-8096
UMBER	-8097
abbin	-8098
ading	-8099
afael	-8100
agner	-8101
allel	-8102
aples	-8103
cular	-8104
cycle	-8105
hawks	-8106
iness	-8107
irgin	-8108
itoba	-8109
jured	-8110
lesbr	-8111
neuve	-8112
ollen	-8113
quest	-8114
stern	-8115
ucati	-8116
uerto	-8117
umbus	-8118
uttle	-8119
▁(20)	-8120
▁(91)	-8121
▁0.00	-8122
▁1947	-8123
▁2-0?	-8124
▁7–6,	-8125
▁Andy	-8126
▁Barb	-8127
▁Dire	-8128
▁Gall	-8129
▁Gene	-8130
▁Hany	-8131
▁Jump	-8132
▁Lock	-8133
▁Marc	-8134
▁Pers	-8135
▁Samp	-8136
▁Soap	-8137
▁beat	-8138
▁bout	-8139
▁boys	-8140
▁fare	-8141
▁hale	-8142
▁jazz	-8143
▁jean	-8144
▁kbit	-8145
▁link	-8146
▁mort	-8147
▁past	-8148
▁pist	-8149
▁rick	-8150
▁sequ	-8151
▁yank	-8152
-68=27	-8153
-74=28	-8154
alleng	-8155
ambool	-8156
athina	-8157
eltics	-8158
igeria	-8159
ioneer	-8160
justed	-8161
nesian	-8162
ornell	-8163
ovenes	-8164
strong	-8165
useppe	-8166
▁(77)?	-8167
▁10.11	-8168
▁10.17	-8169
▁11.13	-8170
▁1961?	-8171
▁2006–	-8172
▁Bears	-8173
▁Hindu	-8174
▁Overs	-8175
▁cyber	-8176
▁ellis	-8177
▁kelly	-8178
▁large	-8179
▁overs	-8180
▁perth	-8181
▁prime	-8182
▁spell	-8183
▁terry	-8184
▁wings	-8185
agement	-8186
animous	-8187
ickness	-8188
roatian	-8189
seconds	-8190
stadion	-8191
vention	-8192
▁(2000)	-8193
▁10,000	-8194
▁Argent	-8195
▁Battle	-8196
▁COSPAR	-8197
▁Chrome	-8198
▁Lyrics	-8199
▁Moscow	-8200
▁Places	-8201
▁Rivers	-8202
▁carter	-8203
▁deacon	-8204
▁direct	-8205
▁medium	-8206
▁walter	-8207
ampshire	-8208
bability	-8209
iddlesbr	-8210
itecture	-8211
oorabbin	-8212
▁Cricket	-8213
▁Edwards	-8214
▁Falcons	-8215
▁Firefox	-8216
▁Neutral	-8217
▁Present	-8218
▁Profits	-8219
▁Seattle	-8220
▁analyst	-8221
▁belgium	-8222
▁denmark	-8223
▁hungary	-8224
▁lorenzo	-8225
▁pitcher	-8226
▁program	-8227
▁stanley	-8228
estegjeld	-8229
illeneuve	-8230
ternative	-8231
▁Athletic	-8232
▁Ballarat	-8233
▁Ceremony	-8234
▁Congress	-8235
▁Explorer	-8236
▁Finished	-8237
▁Hispanic	-8238
▁Industry	-8239
▁Particip	-8240
▁Wrestler	-8241
▁entering	-8242
▁finishes	-8243
▁incoming	-8244
▁maryland	-8245
▁platelet	-8246
▁security	-8247
Polynesian	-8248
athinaikos	-8249
orgenstern	-8250
▁Municipal	-8251
▁Wimbledon	-8252
▁argentina	-8253
▁attending	-8254
▁cancelled	-8255
▁cartridge	-8256
▁nicknamed	-8257
▁offensive	-8258
▁Introduced	-8259
▁Occupation	-8260
iddlesbrough	-8261
▁Inhabitants	-8262
▁participate	-8263
▁prothrombin	-8264
▁replacement	-8265
▁Registration	-8266
1–	-8267
CD	-8268
It	-8269
WA	-8270
fs	-8271
lu	-8272
td	-8273
▁¥	-8274
-91	-8275
-92	-8276
-96	-8277
...	-8278
.6,	-8279
.65	-8280
.82	-8281
/04	-8282
/17	-8283
10?	-8284
III	-8285
Int	-8286
UND	-8287
eem	-8288
esa	-8289
gil	-8290
isi	-8291
ivo	-8292
net	-8293
oka	-8294
tan	-8295
uum	-8296
–1,	-8297
▁$6	-8298
▁AC	-8299
▁AM	-8300
▁BY	-8301
▁Es	-8302
▁MW	-8303
▁Sn	-8304
▁Uk	-8305
▁Va	-8306
▁ax	-8307
▁ja	-8308
▁ye	-8309
▁−1	-8310
-05?	-8311
-15?	-8312
-2)?	-8313
-25?	-8314
Away	-8315
Died	-8316
Mark	-8317
Same	-8318
bine	-8319
down	-8320
ects	-8321
icer	-8322
icia	-8323
inya	-8324
ofed	-8325
ouns	-8326
▁+10	-8327
▁0-0	-8328
▁12-	-8329
▁134	-8330
▁142	-8331
▁206	-8332
▁210	-8333
▁45?	-8334
▁5-0	-8335
▁6-3	-8336
▁63?	-8337
▁9.9	-8338
▁DFL	-8339
▁Dis	-8340
▁Lok	-8341
▁PER	-8342
▁Pas	-8343
▁Ret	-8344
▁Ven	-8345
▁afc	-8346
▁dur	-8347
▁ern	-8348
▁fis	-8349
▁ghz	-8350
▁hal	-8351
▁hel	-8352
▁rus	-8353
▁sud	-8354
▁sup	-8355
ccane	-8356
celer	-8357
chess	-8358
ckout	-8359
iners	-8360
orted	-8361
ughes	-8362
years	-8363
▁(62)	-8364
▁12.9	-8365
▁140+	-8366
▁1600	-8367
▁7–5?	-8368
▁ATMs	-8369
▁Cham	-8370
▁Conv	-8371
▁Diff	-8372
▁Duke	-8373
▁Fore	-8374
▁Hale	-8375
▁Half	-8376
▁Jays	-8377
▁Jury	-8378
▁Navy	-8379
▁Past	-8380
▁Prec	-8381
▁Rand	-8382
▁Sail	-8383
▁Tong	-8384
▁boat	-8385
▁buck	-8386
▁dale	-8387
▁disp	-8388
▁fund	-8389
▁kong	-8390
▁laur	-8391
▁meet	-8392
▁pier	-8393
▁tele	-8394
▁tons	-8395
▁viet	-8396
▁wkts	-8397
-70=27	-8398
center	-8399
corpor	-8400
ivered	-8401
ressed	-8402
retary	-8403
ximate	-8404
▁12:30	-8405
▁2010/	-8406
▁69-69	-8407
▁Allen	-8408
▁Jimmy	-8409
▁Maple	-8410
▁Movie	-8411
▁POINT	-8412
▁ROUND	-8413
▁Saint	-8414
▁Terry	-8415
▁activ	-8416
▁among	-8417
▁categ	-8418
▁colon	-8419
▁corre	-8420
▁hydro	-8421
▁knows	-8422
▁lyric	-8423
▁marco	-8424
▁pedro	-8425
▁pilot	-8426
▁plant	-8427
▁relay	-8428
▁throw	-8429
▁woods	-8430
▁youth	-8431
Episode	-8432
icholas	-8433
ixtures	-8434
▁1,000)	-8435
▁Donald	-8436
▁Eagles	-8437
▁Johnny	-8438
▁Justin	-8439
▁Livery	-8440
▁Metric	-8441
▁Morgan	-8442
▁NUMBER	-8443
▁Spouse	-8444
▁Throws	-8445
▁Wright	-8446
▁animal	-8447
▁berlin	-8448
▁commun	-8449
▁curtis	-8450
▁flight	-8451
▁modern	-8452
▁morris	-8453
▁museum	-8454
▁palace	-8455
▁parent	-8456
▁pinyin	-8457
▁portug	-8458
▁sector	-8459
▁soccer	-8460
ccaneers	-8461
ungarian	-8462
▁2007-08	-8463
▁Broncos	-8464
▁Clemson	-8465
▁Forward	-8466
▁Raymond	-8467
▁Vikings	-8468
▁Wallace	-8469
▁arsenal	-8470
▁compete	-8471
▁cowboys	-8472
▁listing	-8473
▁orbital	-8474
▁project	-8475
▁regions	-8476
▁vacator	-8477
americana	-8478
umstances	-8479
▁Kardinia	-8480
▁Lawrence	-8481
▁POSITION	-8482
▁Pakistan	-8483
▁Placings	-8484
▁Standing	-8485
▁Wildcats	-8486
▁atlético	-8487
▁majority	-8488
▁nominees	-8489
▁property	-8490
▁resigned	-8491
▁starting	-8492
liminaries	-8493
▁Malayalam	-8494
▁Sheffield	-8495
▁liverpool	-8496
▁milwaukee	-8497
▁wednesday	-8498
Prestegjeld	-8499
▁Locomotive	-8500
▁Semifinals	-8501
▁characters	-8502
▁cornerback	-8503
▁dimensions	-8504
▁Connecticut	-8505
▁engineering	-8506
▁subjunctive	-8507
▁Libertadores	-8508
▁competitions	-8509
▁organization	-8510
▁Cardinalatial	-8511
▁quarterfinals	-8512
[|	-8513
rr	-8514
sf	-8515
ás	-8516
ør	-8517
-26	-8518
-59	-8519
.51	-8520
.78	-8521
.80	-8522
.84	-8523
08?	-8524
189	-8525
25?	-8526
ALL	-8527
BOL	-8528
For	-8529
VER	-8530
adu	-8531
aho	-8532
arz	-8533
asy	-8534
bal	-8535
ega	-8536
ery	-8537
ete	-8538
ido	-8539
iii	-8540
imp	-8541
mma	-8542
num	-8543
omi	-8544
reb	-8545
sis	-8546
uen	-8547
ulf	-8548
urb	-8549
uty	-8550
vez	-8551
yth	-8552
–7)	-8553
▁+0	-8554
▁+6	-8555
▁1.	-8556
▁5'	-8557
▁DT	-8558
▁GN	-8559
▁HB	-8560
▁Je	-8561
▁NY	-8562
▁Om	-8563
▁PP	-8564
▁SL	-8565
▁TR	-8566
▁gb	-8567
▁ku	-8568
▁ok	-8569
▁po	-8570
▁rd	-8571
-21?	-8572
.95?	-8573
CLIS	-8574
abri	-8575
ades	-8576
ambo	-8577
anto	-8578
aret	-8579
atec	-8580
atic	-8581
atta	-8582
aves	-8583
avia	-8584
azar	-8585
eara	-8586
enda	-8587
etta	-8588
fred	-8589
gart	-8590
igel	-8591
ilen	-8592
imon	-8593
inos	-8594
iras	-8595
ishi	-8596
isia	-8597
ková	-8598
laps	-8599
lend	-8600
lets	-8601
link	-8602
more	-8603
ophe	-8604
oran	-8605
quet	-8606
resh	-8607
zbek	-8608
▁(66	-8609
▁(70	-8610
▁158	-8611
▁170	-8612
▁174	-8613
▁183	-8614
▁19'	-8615
▁2.1	-8616
▁21:	-8617
▁229	-8618
▁234	-8619
▁36?	-8620
▁37,	-8621
▁380	-8622
▁3–0	-8623
▁6.8	-8624
▁7.6	-8625
▁73,	-8626
▁9.0	-8627
▁978	-8628
▁Boy	-8629
▁CER	-8630
▁CPU	-8631
▁Cla	-8632
▁Fif	-8633
▁Ger	-8634
▁HOW	-8635
▁ISO	-8636
▁Inf	-8637
▁Kat	-8638
▁Led	-8639
▁Les	-8640
▁PRR	-8641
▁Ric	-8642
▁Rio	-8643
▁Sud	-8644
▁Tao	-8645
▁Tem	-8646
▁Ten	-8647
▁apr	-8648
▁bit	-8649
▁cav	-8650
▁cer	-8651
▁dod	-8652
▁gpl	-8653
▁kat	-8654
▁kaw	-8655
▁kot	-8656
▁lav	-8657
▁rah	-8658
▁rio	-8659
▁sir	-8660
MEBOL	-8661
World	-8662
abeth	-8663
avian	-8664
carlo	-8665
empor	-8666
iance	-8667
icans	-8668
iques	-8669
itals	-8670
ittip	-8671
olade	-8672
olver	-8673
ommel	-8674
onder	-8675
ongol	-8676
orian	-8677
ormal	-8678
oughr	-8679
stown	-8680
uelta	-8681
water	-8682
íguez	-8683
ürgen	-8684
▁(105	-8685
▁(106	-8686
▁(117	-8687
▁(14)	-8688
▁(74)	-8689
▁100%	-8690
▁15.9	-8691
▁1910	-8692
▁1919	-8693
▁6–7(	-8694
▁9.14	-8695
▁Cole	-8696
▁Drew	-8697
▁Five	-8698
▁Flag	-8699
▁Jess	-8700
▁Jews	-8701
▁Juan	-8702
▁Laur	-8703
▁Mort	-8704
▁Ober	-8705
▁Odds	-8706
▁WNBA	-8707
▁died	-8708
▁dome	-8709
▁doug	-8710
▁drew	-8711
▁fiji	-8712
▁find	-8713
▁gran	-8714
▁horn	-8715
▁into	-8716
▁kang	-8717
▁laid	-8718
▁marg	-8719
▁math	-8720
▁plyf	-8721
▁rams	-8722
▁ring	-8723
▁sack	-8724
▁seve	-8725
▁stem	-8726
▁tail	-8727
▁whit	-8728
-67-69	-8729
-70=14	-8730
-73=14	-8731
0,000?	-8732
aldwin	-8733
amento	-8734
ancell	-8735
anches	-8736
annada	-8737
arsity	-8738
bayern	-8739
ceanic	-8740
closed	-8741
ective	-8742
iggins	-8743
iseach	-8744
onsors	-8745
ounced	-8746
stroke	-8747
uction	-8748
upiter	-8749
vement	-8750
ánchez	-8751
▁10.12	-8752
▁12.10	-8753
▁12.15	-8754
▁1956?	-8755
▁1972?	-8756
▁2008–	-8757
▁2012/	-8758
▁69-70	-8759
▁Alpha	-8760
▁Colts	-8761
▁Earth	-8762
▁Hanyu	-8763
▁Liter	-8764
▁Milan	-8765
▁Press	-8766
▁Sabha	-8767
▁carlo	-8768
▁chang	-8769
▁corey	-8770
▁disco	-8771
▁downs	-8772
▁elect	-8773
▁evans	-8774
▁gloss	-8775
▁heavy	-8776
▁holes	-8777
▁irwin	-8778
▁jamie	-8779
▁labor	-8780
▁liter	-8781
▁robin	-8782
▁villa	-8783
▁would	-8784
▁zhang	-8785
entials	-8786
flation	-8787
ibution	-8788
igrants	-8789
ography	-8790
pension	-8791
utenant	-8792
western	-8793
▁(2007)	-8794
▁Accred	-8795
▁Attend	-8796
▁Chiefs	-8797
▁Manila	-8798
▁Norman	-8799
▁POINTS	-8800
▁Palmer	-8801
▁Parent	-8802
▁Poland	-8803
▁Rocket	-8804
▁Safari	-8805
▁Singer	-8806
▁Soccer	-8807
▁Square	-8808
▁attack	-8809
▁cities	-8810
▁dennis	-8811
▁employ	-8812
▁marcus	-8813
▁monaco	-8814
▁native	-8815
▁pierre	-8816
▁prince	-8817
emporary	-8818
olecular	-8819
ommunist	-8820
rnambool	-8821
▁CERCLIS	-8822
▁Council	-8823
▁Cowboys	-8824
▁Economy	-8825
▁Nations	-8826
▁Players	-8827
▁Project	-8828
▁Staffel	-8829
▁canucks	-8830
▁chelsea	-8831
▁driving	-8832
▁jacques	-8833
▁kennedy	-8834
▁olivier	-8835
▁russell	-8836
▁student	-8837
▁without	-8838
ittipaldi	-8839
umberland	-8840
zbekistan	-8841
▁CONMEBOL	-8842
▁Coliseum	-8843
▁Military	-8844
▁Northern	-8845
▁Scottish	-8846
▁Stanford	-8847
▁Winnipeg	-8848
▁baseball	-8849
▁brussels	-8850
▁coliseum	-8851
▁enrolled	-8852
▁malaysia	-8853
▁military	-8854
▁northern	-8855
▁reaction	-8856
▁thursday	-8857
▁valencia	-8858
▁villages	-8859
corporated	-8860
oughriders	-8861
▁Attribute	-8862
▁Birthdate	-8863
▁McCartney	-8864
▁Recipient	-8865
▁Taoiseach	-8866
▁elections	-8867
▁finalists	-8868
▁municipal	-8869
▁nashville	-8870
▁Unaffected	-8871
▁amendments	-8872
▁background	-8873
▁casualties	-8874
▁government	-8875
▁immigrants	-8876
olverhampton	-8877
▁Acquisition	-8878
▁Premiership	-8879
▁Traditional	-8880
▁ballesteros	-8881
▁corporation	-8882
▁independent	-8883
▁termination	-8884
▁Entrepreneur	-8885
▁Metropolitan	-8886
▁Northumberland	-8887
▁Transliteration	-8888
CH	-8889
EL	-8890
TR	-8891
UB	-8892
gl	-8893
mc	-8894
yy	-8895
ün	-8896
▁ə	-8897
-33	-8898
-78	-8899
-87	-8900
.54	-8901
.70	-8902
.87	-8903
01,	-8904
01?	-8905
3.0	-8906
900	-8907
ANK	-8908
SRP	-8909
bus	-8910
des	-8911
ful	-8912
hem	-8913
iov	-8914
non	-8915
ols	-8916
ono	-8917
osp	-8918
rex	-8919
say	-8920
unk	-8921
usa	-8922
–5?	-8923
▁$7	-8924
▁+5	-8925
▁1–	-8926
▁5%	-8927
▁Ak	-8928
▁BC	-8929
▁DE	-8930
▁DW	-8931
▁FR	-8932
▁Mi	-8933
▁Ox	-8934
▁SS	-8935
▁Sr	-8936
▁Us	-8937
▁XI	-8938
▁bc	-8939
▁il	-8940
▁ip	-8941
▁om	-8942
▁os	-8943
▁ox	-8944
▁ul	-8945
▁ve	-8946
▁wa	-8947
1000	-8948
Part	-8949
Town	-8950
amas	-8951
andr	-8952
ango	-8953
elia	-8954
enko	-8955
fers	-8956
gets	-8957
imer	-8958
izon	-8959
oris	-8960
oses	-8961
team	-8962
tion	-8963
uced	-8964
uela	-8965
ujia	-8966
ynch	-8967
▁$15	-8968
▁0.3	-8969
▁1,6	-8970
▁144	-8971
▁3.4	-8972
▁39?	-8973
▁4.4	-8974
▁43?	-8975
▁5.4	-8976
▁69?	-8977
▁75,	-8978
▁75?	-8979
▁9.2	-8980
▁BMW	-8981
▁Bec	-8982
▁Bog	-8983
▁Bra	-8984
▁Cab	-8985
▁Cav	-8986
▁Cod	-8987
▁Div	-8988
▁Eth	-8989
▁Flo	-8990
▁Fra	-8991
▁Kas	-8992
▁Lif	-8993
▁Mah	-8994
▁Tot	-8995
▁UFC	-8996
▁Way	-8997
▁ave	-8998
▁bah	-8999
▁dub	-9000
▁fab	-9001
▁ice	-9002
▁lev	-9003
▁mun	-9004
▁ned	-9005
▁pct	-9006
▁sak	-9007
▁see	-9008
▁vow	-9009
Games	-9010
Trans	-9011
ansen	-9012
ctory	-9013
eland	-9014
espan	-9015
ettes	-9016
force	-9017
ianne	-9018
issue	-9019
jects	-9020
ldogs	-9021
onian	-9022
udges	-9023
▁(13)	-9024
▁(32)	-9025
▁(82)	-9026
▁(99)	-9027
▁1-1?	-9028
▁1800	-9029
▁1900	-9030
▁1932	-9031
▁1935	-9032
▁1936	-9033
▁3–6?	-9034
▁4–6?	-9035
▁9.12	-9036
▁Anne	-9037
▁Asia	-9038
▁Fern	-9039
▁Giro	-9040
▁Inns	-9041
▁Late	-9042
▁MSRP	-9043
▁Mack	-9044
▁Math	-9045
▁Page	-9046
▁RANK	-9047
▁RAtt	-9048
▁Sack	-9049
▁User	-9050
▁View	-9051
▁Wang	-9052
▁astr	-9053
▁bird	-9054
▁cand	-9055
▁copa	-9056
▁dani	-9057
▁eric	-9058
▁face	-9059
▁fast	-9060
▁four	-9061
▁give	-9062
▁hous	-9063
▁josh	-9064
▁jury	-9065
▁lyon	-9066
▁marl	-9067
▁maur	-9068
▁mika	-9069
▁odds	-9070
▁patt	-9071
▁sent	-9072
▁sher	-9073
▁wolf	-9074
Metres	-9075
aching	-9076
africa	-9077
ahawks	-9078
arding	-9079
ceeded	-9080
enship	-9081
ewable	-9082
ighter	-9083
overty	-9084
trayed	-9085
uggets	-9086
utions	-9087
▁(2000	-9088
▁1953?	-9089
▁1975?	-9090
▁70-68	-9091
▁Bruce	-9092
▁Derby	-9093
▁Human	-9094
▁Ipsos	-9095
▁Korea	-9096
▁Leafs	-9097
▁Leeds	-9098
▁Lotus	-9099
▁Mario	-9100
▁Stars	-9101
▁aaron	-9102
▁adams	-9103
▁adult	-9104
▁again	-9105
▁allen	-9106
▁along	-9107
▁based	-9108
▁bulls	-9109
▁casey	-9110
▁chile	-9111
▁condu	-9112
▁creek	-9113
▁danny	-9114
▁destr	-9115
▁early	-9116
▁force	-9117
▁holds	-9118
▁jacob	-9119
▁kraft	-9120
▁pages	-9121
▁spart	-9122
▁squad	-9123
▁tight	-9124
▁trade	-9125
imeslot	-9126
oslavia	-9127
ouettes	-9128
▁(2005)	-9129
▁(2008)	-9130
▁Aspect	-9131
▁Berlin	-9132
▁Canton	-9133
▁Choice	-9134
▁Double	-9135
▁Letter	-9136
▁Monaco	-9137
▁Royals	-9138
▁Walter	-9139
▁athens	-9140
▁dbeing	-9141
▁freder	-9142
▁galaxy	-9143
▁hewitt	-9144
▁norman	-9145
▁quebec	-9146
anguages	-9147
division	-9148
▁2004–05	-9149
▁2005-06	-9150
▁Actress	-9151
▁Airline	-9152
▁Elapsed	-9153
▁Oakland	-9154
▁Retired	-9155
▁Running	-9156
▁Special	-9157
▁Spoofed	-9158
▁advance	-9159
▁bradley	-9160
▁couples	-9161
▁knights	-9162
▁mclaren	-9163
acedonian	-9164
ugoslavia	-9165
▁1990-199	-9166
▁Currency	-9167
▁Delaware	-9168
▁Founding	-9169
▁Research	-9170
▁attempts	-9171
▁congress	-9172
▁counties	-9173
▁democrat	-9174
▁founding	-9175
▁magazine	-9176
▁platinum	-9177
▁singular	-9178
▁software	-9179
▁warriors	-9180
▁Countries	-9181
▁Equipment	-9182
▁Intergiro	-9183
▁Norwegian	-9184
▁Televotes	-9185
▁alternate	-9186
▁coulthard	-9187
▁newcastle	-9188
▁operating	-9189
▁singapore	-9190
▁Bangladesh	-9191
▁Fatalities	-9192
▁Registered	-9193
▁activities	-9194
▁commission	-9195
▁membership	-9196
ounsaturated	-9197
▁Application	-9198
▁Philippines	-9199
▁programming	-9200
▁commissioned	-9201
▁headquarters	-9202
▁transmission	-9203
▁Circumstances	-9204
▁Qualification	-9205
▁administrative	-9206
)/	-9207
MS	-9208
RY	-9209
Su	-9210
VE	-9211
nm	-9212
so	-9213
wy	-9214
ël	-9215
▁~	-9216
▁с	-9217
-7)	-9218
-89	-9219
-90	-9220
-95	-9221
.64	-9222
.69	-9223
.7,	-9224
.79	-9225
.91	-9226
.98	-9227
/14	-9228
003	-9229
06?	-9230
09?	-9231
20?	-9232
30?	-9233
6,7	-9234
Non	-9235
Per	-9236
Ret	-9237
Sim	-9238
arh	-9239
bis	-9240
bra	-9241
ebo	-9242
ibr	-9243
jhl	-9244
lez	-9245
lla	-9246
nai	-9247
oca	-9248
oms	-9249
osl	-9250
ouk	-9251
reg	-9252
rez	-9253
uno	-9254
upp	-9255
uru	-9256
wis	-9257
zer	-9258
}}}	-9259
–24	-9260
–31	-9261
▁"0	-9262
▁#3	-9263
▁#?	-9264
▁7"	-9265
▁Ay	-9266
▁Bh	-9267
▁DR	-9268
▁ET	-9269
▁FK	-9270
▁Ni	-9271
▁QB	-9272
▁aj	-9273
▁fo	-9274
▁ll	-9275
▁lo	-9276
▁od	-9277
▁td	-9278
▁ud	-9279
.197	-9280
City	-9281
agan	-9282
ahir	-9283
aily	-9284
alez	-9285
ande	-9286
anie	-9287
avor	-9288
band	-9289
endo	-9290
endy	-9291
enez	-9292
erek	-9293
ereo	-9294
feet	-9295
frac	-9296
haus	-9297
hind	-9298
iate	-9299
ibbs	-9300
ieri	-9301
ijik	-9302
ikki	-9303
into	-9304
inus	-9305
ique	-9306
isch	-9307
issa	-9308
ivia	-9309
kova	-9310
mere	-9311
mont	-9312
occo	-9313
odie	-9314
oges	-9315
olan	-9316
omes	-9317
omic	-9318
omon	-9319
onde	-9320
ovan	-9321
oyne	-9322
read	-9323
roid	-9324
room	-9325
stad	-9326
undy	-9327
urgl	-9328
vino	-9329
–196	-9330
–198	-9331
▁$2,	-9332
▁(13	-9333
▁(71	-9334
▁1,8	-9335
▁157	-9336
▁1⁄2	-9337
▁2.4	-9338
▁25:	-9339
▁46,	-9340
▁56,	-9341
▁57,	-9342
▁6.4	-9343
▁61?	-9344
▁AUS	-9345
▁Cop	-9346
▁Die	-9347
▁ESP	-9348
▁Exp	-9349
▁Fil	-9350
▁Inc	-9351
▁Lew	-9352
▁Lis	-9353
▁Moh	-9354
▁PAL	-9355
▁PCT	-9356
▁PGA	-9357
▁Pot	-9358
▁Six	-9359
▁Vel	-9360
▁cub	-9361
▁dig	-9362
▁due	-9363
▁ens	-9364
▁gun	-9365
▁len	-9366
▁lif	-9367
▁mob	-9368
▁mol	-9369
▁nav	-9370
▁sex	-9371
▁tam	-9372
▁tul	-9373
State	-9374
aches	-9375
alers	-9376
amara	-9377
angio	-9378
ateur	-9379
eeney	-9380
endan	-9381
erves	-9382
etime	-9383
iacos	-9384
icine	-9385
icted	-9386
idden	-9387
igail	-9388
ilion	-9389
inema	-9390
istor	-9391
lermo	-9392
ograp	-9393
ollow	-9394
olved	-9395
oning	-9396
onnie	-9397
regon	-9398
rones	-9399
uitar	-9400
ulton	-9401
under	-9402
▁(104	-9403
▁(107	-9404
▁(27)	-9405
▁(71)	-9406
▁(81)	-9407
▁10.5	-9408
▁1905	-9409
▁1912	-9410
▁1923	-9411
▁1937	-9412
▁1944	-9413
▁1:10	-9414
▁2400	-9415
▁3000	-9416
▁4:00	-9417
▁Abbr	-9418
▁Alan	-9419
▁Bart	-9420
▁Bear	-9421
▁Bene	-9422
▁Cred	-9423
▁FIFA	-9424
▁FLap	-9425
▁Hold	-9426
▁Kcal	-9427
▁Luis	-9428
▁MANY	-9429
▁Marg	-9430
▁Moto	-9431
▁NAME	-9432
▁Pete	-9433
▁Phon	-9434
▁Reid	-9435
▁Suns	-9436
▁Tail	-9437
▁Tale	-9438
▁Till	-9439
▁alan	-9440
▁alca	-9441
▁buch	-9442
▁cair	-9443
▁cart	-9444
▁demo	-9445
▁dual	-9446
▁each	-9447
▁gill	-9448
▁hors	-9449
▁late	-9450
▁like	-9451
▁marc	-9452
▁mich	-9453
▁moon	-9454
▁plat	-9455
▁prim	-9456
▁rosa	-9457
▁sail	-9458
▁tong	-9459
▁ward	-9460
▁your	-9461
-67=27	-9462
-68=14	-9463
Market	-9464
allara	-9465
ancock	-9466
aysian	-9467
bishop	-9468
cordia	-9469
employ	-9470
enheim	-9471
enshaw	-9472
ential	-9473
ession	-9474
ielder	-9475
ielsen	-9476
ikhail	-9477
immera	-9478
irates	-9479
irling	-9480
istory	-9481
kollen	-9482
orsche	-9483
ourney	-9484
ozilla	-9485
pencer	-9486
▁(84)?	-9487
▁12.11	-9488
▁13.14	-9489
▁1963?	-9490
▁2006/	-9491
▁2011)	-9492
▁69-68	-9493
▁70-69	-9494
▁Aaron	-9495
▁Aired	-9496
▁Beach	-9497
▁Colin	-9498
▁Crime	-9499
▁Danny	-9500
▁Effic	-9501
▁Fifth	-9502
▁Grade	-9503
▁Hanzi	-9504
▁Light	-9505
▁Lower	-9506
▁Miles	-9507
▁Rally	-9508
▁Stone	-9509
▁Tommy	-9510
▁Villa	-9511
▁colin	-9512
▁ernie	-9513
▁inaug	-9514
▁marsh	-9515
▁metal	-9516
▁notre	-9517
▁paulo	-9518
▁phase	-9519
▁phill	-9520
▁plate	-9521
▁ralph	-9522
▁spent	-9523
▁stamp	-9524
▁stock	-9525
▁tokyo	-9526
▁turbo	-9527
▁wayne	-9528
English	-9529
Oceanic	-9530
akhstan	-9531
bastian	-9532
ciation	-9533
iccardo	-9534
ijikata	-9535
izabeth	-9536
umphrey	-9537
venture	-9538
version	-9539
▁(2003)	-9540
▁Became	-9541
▁Brooks	-9542
▁Flyers	-9543
▁Kennel	-9544
▁Middle	-9545
▁Murray	-9546
▁Stakes	-9547
▁andrea	-9548
▁barrel	-9549
▁chiefs	-9550
▁cooper	-9551
▁device	-9552
▁ducati	-9553
▁ending	-9554
▁kurtis	-9555
▁ladies	-9556
▁licens	-9557
▁master	-9558
▁metric	-9559
▁palmer	-9560
▁return	-9561
▁tenure	-9562
▁tracks	-9563
Billions	-9564
Quantity	-9565
allenger	-9566
gressive	-9567
issolved	-9568
oreograp	-9569
uillermo	-9570
▁1987-88	-9571
▁2006–07	-9572
▁2008–09	-9573
▁Details	-9574
▁Francis	-9575
▁Iceland	-9576
▁Kannada	-9577
▁Maximum	-9578
▁Memphis	-9579
▁Novelty	-9580
▁Orbital	-9581
▁Program	-9582
▁Reverse	-9583
▁Tickets	-9584
▁belarus	-9585
▁defence	-9586
▁economy	-9587
▁emerson	-9588
▁herbert	-9589
▁matthew	-9590
▁monarch	-9591
▁monthly	-9592
▁reserve	-9593
▁rockets	-9594
▁theatre	-9595
▁ukraine	-9596
Communist	-9597
acramento	-9598
ferencing	-9599
▁Anderson	-9600
▁Assembly	-9601
▁Athletes	-9602
▁Chargers	-9603
▁Coverage	-9604
▁Elevator	-9605
▁Marathon	-9606
▁Meetings	-9607
▁Panthers	-9608
▁Portland	-9609
▁Recorded	-9610
▁Supplier	-9611
▁competed	-9612
▁delegate	-9613
▁marriage	-9614
▁provided	-9615
▁research	-9616
▁syracuse	-9617
▁thompson	-9618
▁thousand	-9619
▁townland	-9620
▁Committee	-9621
▁Frankfurt	-9622
▁Freestyle	-9623
▁Isolation	-9624
▁cardinals	-9625
▁chevrolet	-9626
▁grizzlies	-9627
▁platforms	-9628
▁qualifier	-9629
▁reference	-9630
▁wisconsin	-9631
▁Birmingham	-9632
▁Supporting	-9633
▁hurricanes	-9634
▁queensland	-9635
ertification	-9636
▁christopher	-9637
▁corinthians	-9638
▁development	-9639
▁metropolitan	-9640
▁participated	-9641
▁presentation	-9642
▁Transcription	-9643
▁massachusetts	-9644
AK	-9645
EE	-9646
HO	-9647
HT	-9648
LD	-9649
LL	-9650
MR	-9651
Nm	-9652
PE	-9653
PI	-9654
UE	-9655
VR	-9656
jp	-9657
kh	-9658
sm	-9659
tw	-9660
vy	-9661
ло	-9662
▁!	-9663
▁á	-9664
.1,	-9665
.53	-9666
/15	-9667
/21	-9668
03?	-9669
19?	-9670
30)	-9671
9,6	-9672
Cap	-9673
ICH	-9674
NER	-9675
Net	-9676
asa	-9677
bil	-9678
can	-9679
cla	-9680
cul	-9681
dam	-9682
erp	-9683
fol	-9684
ghz	-9685
hat	-9686
oki	-9687
pop	-9688
rer	-9689
rok	-9690
ska	-9691
top	-9692
uis	-9693
urd	-9694
var	-9695
–06	-9696
–18	-9697
▁"4	-9698
▁(€	-9699
▁+8	-9700
▁-2	-9701
▁2%	-9702
▁8:	-9703
▁FT	-9704
▁HA	-9705
▁HS	-9706
▁Ja	-9707
▁KK	-9708
▁Ku	-9709
▁QS	-9710
▁RI	-9711
▁Ta	-9712
▁gh	-9713
▁nu	-9714
-18?	-9715
.1%?	-9716
500?	-9717
:00?	-9718
ANCE	-9719
IATA	-9720
adal	-9721
alla	-9722
amig	-9723
atti	-9724
bian	-9725
book	-9726
copa	-9727
elen	-9728
hatt	-9729
iche	-9730
imes	-9731
ithu	-9732
obal	-9733
osen	-9734
quee	-9735
rear	-9736
ugby	-9737
ways	-9738
week	-9739
▁#1?	-9740
▁14:	-9741
▁17:	-9742
▁18:	-9743
▁1–1	-9744
▁2-4	-9745
▁202	-9746
▁224	-9747
▁293	-9748
▁2–1	-9749
▁3.8	-9750
▁307	-9751
▁5-4	-9752
▁5.0	-9753
▁5.6	-9754
▁50?	-9755
▁54?	-9756
▁55?	-9757
▁56?	-9758
▁6-0	-9759
▁6-1	-9760
▁68?	-9761
▁700	-9762
▁74,	-9763
▁ACC	-9764
▁AFC	-9765
▁ARE	-9766
▁AST	-9767
▁BBI	-9768
▁COM	-9769
▁Fut	-9770
▁Hel	-9771
▁Hur	-9772
▁Kle	-9773
▁Luc	-9774
▁Mun	-9775
▁Mut	-9776
▁Pay	-9777
▁Rey	-9778
▁Sag	-9779
▁Sep	-9780
▁Vic	-9781
▁Viv	-9782
▁WSU	-9783
▁cho	-9784
▁cob	-9785
▁cod	-9786
▁dnp	-9787
▁era	-9788
▁fer	-9789
▁fro	-9790
▁geo	-9791
▁kan	-9792
▁kas	-9793
▁kid	-9794
▁leb	-9795
▁lot	-9796
▁mix	-9797
▁moh	-9798
▁mut	-9799
▁ole	-9800
▁opp	-9801
▁phr	-9802
▁sid	-9803
▁sox	-9804
annes	-9805
aught	-9806
berry	-9807
enced	-9808
enses	-9809
ipoll	-9810
itled	-9811
ounds	-9812
riers	-9813
ronun	-9814
speed	-9815
uburn	-9816
ullik	-9817
unnel	-9818
▁(12)	-9819
▁(17)	-9820
▁(83)	-9821
▁(86)	-9822
▁10.6	-9823
▁15.8	-9824
▁1894	-9825
▁1902	-9826
▁1914	-9827
▁1926	-9828
▁1931	-9829
▁8.12	-9830
▁Beat	-9831
▁Cook	-9832
▁Doha	-9833
▁Farm	-9834
▁Gonz	-9835
▁Josh	-9836
▁Neil	-9837
▁Pist	-9838
▁Schw	-9839
▁Sher	-9840
▁VIII	-9841
▁WHEN	-9842
▁Wars	-9843
▁anne	-9844
▁barr	-9845
▁bits	-9846
▁dame	-9847
▁elev	-9848
▁fury	-9849
▁goes	-9850
▁mess	-9851
▁navy	-9852
▁pers	-9853
▁pred	-9854
▁scot	-9855
▁soap	-9856
▁talk	-9857
▁virt	-9858
▁walk	-9859
German	-9860
aratus	-9861
atives	-9862
ighbor	-9863
kavian	-9864
metres	-9865
porter	-9866
rexham	-9867
urning	-9868
▁1,000	-9869
▁1959?	-9870
▁1960?	-9871
▁2000,	-9872
▁Brett	-9873
▁Bryan	-9874
▁Cable	-9875
▁Creek	-9876
▁Czech	-9877
▁Disco	-9878
▁Dixon	-9879
▁Genes	-9880
▁Hindi	-9881
▁Jacob	-9882
▁Karen	-9883
▁Keith	-9884
▁Maria	-9885
▁Media	-9886
▁Minor	-9887
▁Notre	-9888
▁Plant	-9889
▁Small	-9890
▁Thurs	-9891
▁Wells	-9892
▁autom	-9893
▁delta	-9894
▁derby	-9895
▁faced	-9896
▁fifth	-9897
▁georg	-9898
▁grant	-9899
▁human	-9900
▁kenny	-9901
▁limit	-9902
▁monza	-9903
▁scale	-9904
▁separ	-9905
▁stade	-9906
▁stone	-9907
▁telev	-9908
▁watts	-9909
airdate	-9910
derland	-9911
ireless	-9912
letions	-9913
nership	-9914
urglary	-9915
▁Active	-9916
▁Arthur	-9917
▁Cancel	-9918
▁Ceased	-9919
▁Devils	-9920
▁Flight	-9921
▁Forest	-9922
▁Gordon	-9923
▁Michel	-9924
▁Mother	-9925
▁Muzzle	-9926
▁Nicole	-9927
▁Palace	-9928
▁RECNet	-9929
▁Samuel	-9930
▁Vessel	-9931
▁action	-9932
▁around	-9933
▁clarke	-9934
▁copies	-9935
▁darren	-9936
▁dynamo	-9937
▁execut	-9938
▁groups	-9939
▁marine	-9940
▁newman	-9941
▁rowers	-9942
▁stefan	-9943
families	-9944
ithuania	-9945
▁1995-96	-9946
▁2005–06	-9947
▁2011-12	-9948
▁African	-9949
▁Collins	-9950
▁Denmark	-9951
▁Express	-9952
▁Feature	-9953
▁Federal	-9954
▁Foreign	-9955
▁Leagues	-9956
▁Pioneer	-9957
▁Playoff	-9958
▁Popular	-9959
▁Scoring	-9960
▁Senator	-9961
▁Subject	-9962
▁Theatre	-9963
▁Tourism	-9964
▁Victory	-9965
▁Wimmera	-9966
▁academy	-9967
▁blazers	-9968
▁borough	-9969
▁carrier	-9970
▁complex	-9971
▁created	-9972
▁destroy	-9973
▁memphis	-9974
▁pacific	-9975
▁profits	-9976
▁roberts	-9977
▁seville	-9978
▁weightl	-9979
oslovakia	-9980
▁Comments	-9981
▁Millions	-9982
▁Slovenes	-9983
▁Speedway	-9984
▁appeared	-9985
▁medalist	-9986
▁missouri	-9987
▁olympics	-9988
▁penguins	-9989
▁reporter	-9990
▁required	-9991
▁reserved	-9992
▁saturday	-9993
▁shooting	-9994
▁stanford	-9995
▁zimbabwe	-9996
ighborhood	-9997
▁Alternate	-9998
▁Available	-9999
▁Prolonged	-10000
▁Robertson	-10001
▁arrowhead	-10002
▁athletics	-10003
▁developer	-10004
▁mandatory	-10005
▁preserved	-10006
▁rasmussen	-10007
▁rodríguez	-10008
▁Alessandro	-10009
▁Department	-10010
▁Glenferrie	-10011
▁Horizontal	-10012
▁Prefecture	-10013
▁Propulsion	-10014
▁Schumacher	-10015
▁Volleyball	-10016
▁experience	-10017
▁operations	-10018
▁registered	-10019
▁suspension	-10020
ronunciation	-10021
▁Association	-10022
▁Independent	-10023
▁elimination	-10024
▁quarterback	-10025
▁temperature	-10026
▁agricultural	-10027
▁denomination	-10028
▁Originalairdate	-10029
▁transliteration	-10030
#)	-10031
./	-10032
AB	-10033
Gr	-10034
MI	-10035
ML	-10036
Nr	-10037
PC	-10038
SA	-10039
Th	-10040
UL	-10041
ep	-10042
hc	-10043
hn	-10044
sq	-10045
sr	-10046
||	-10047
ōm	-10048
-56	-10049
-81	-10050
-99	-10051
.$)	-10052
.38	-10053
.56	-10054
.59	-10055
.9,	-10056
.90	-10057
.99	-10058
005	-10059
05?	-10060
15?	-10061
1–$	-10062
236	-10063
24?	-10064
30,	-10065
6"?	-10066
910	-10067
Mon	-10068
SEK	-10069
SOP	-10070
aca	-10071
ahe	-10072
aii	-10073
aij	-10074
apa	-10075
bas	-10076
bes	-10077
cca	-10078
chl	-10079
cho	-10080
cro	-10081
gel	-10082
gos	-10083
idg	-10084
ieu	-10085
iko	-10086
iso	-10087
iti	-10088
kje	-10089
lbf	-10090
mel	-10091
nan	-10092
ogn	-10093
pir	-10094
qqu	-10095
raf	-10096
rak	-10097
sey	-10098
sol	-10099
umm	-10100
vrs	-10101
zip	-10102
ánd	-10103
–21	-10104
▁),	-10105
▁2-	-10106
▁5/	-10107
▁BA	-10108
▁GR	-10109
▁HP	-10110
▁Ky	-10111
▁MS	-10112
▁db	-10113
▁ek	-10114
▁hi	-10115
▁ic	-10116
▁jr	-10117
▁ms	-10118
▁mt	-10119
▁må	-10120
▁sv	-10121
▁va	-10122
▁wo	-10123
▁—,	-10124
-16?	-10125
-22?	-10126
Song	-10127
[|]]	-10128
abil	-10129
alay	-10130
aled	-10131
alon	-10132
amba	-10133
anca	-10134
anka	-10135
atan	-10136
atas	-10137
cept	-10138
eaux	-10139
ecil	-10140
enos	-10141
essa	-10142
etan	-10143
eves	-10144
heng	-10145
icit	-10146
ient	-10147
ilas	-10148
ilde	-10149
imos	-10150
jack	-10151
jana	-10152
lent	-10153
lest	-10154
mary	-10155
nell	-10156
nold	-10157
ofen	-10158
ollo	-10159
olly	-10160
onne	-10161
ooth	-10162
opot	-10163
otti	-10164
qqud	-10165
rese	-10166
ried	-10167
rien	-10168
roma	-10169
scri	-10170
star	-10171
uffy	-10172
ugen	-10173
vada	-10174
vine	-10175
–197	-10176
▁(#)	-10177
▁(33	-10178
▁(34	-10179
▁(95	-10180
▁160	-10181
▁162	-10182
▁167	-10183
▁169	-10184
▁171	-10185
▁1–6	-10186
▁214	-10187
▁217	-10188
▁222	-10189
▁228	-10190
▁240	-10191
▁248	-10192
▁2–2	-10193
▁305	-10194
▁310	-10195
▁47?	-10196
▁53?	-10197
▁6-4	-10198
▁67,	-10199
▁7.5	-10200
▁80?	-10201
▁Are	-10202
▁Bab	-10203
▁Cub	-10204
▁Fab	-10205
▁Fis	-10206
▁Had	-10207
▁Ign	-10208
▁Kel	-10209
▁Kil	-10210
▁Lav	-10211
▁Leo	-10212
▁PAR	-10213
▁Rev	-10214
▁Sav	-10215
▁TFR	-10216
▁TNS	-10217
▁Tag	-10218
▁Tax	-10219
▁Tun	-10220
▁ank	-10221
▁aor	-10222
▁aus	-10223
▁bos	-10224
▁bou	-10225
▁eps	-10226
▁gan	-10227
▁gro	-10228
▁hap	-10229
▁kap	-10230
▁leo	-10231
▁mul	-10232
▁mus	-10233
▁nan	-10234
▁nec	-10235
▁pun	-10236
▁rnd	-10237
▁spa	-10238
▁veh	-10239
▁wan	-10240
-2010	-10241
-65=2	-10242
/2009	-10243
ERAGE	-10244
Place	-10245
Score	-10246
alled	-10247
alton	-10248
anova	-10249
apest	-10250
asman	-10251
atics	-10252
atine	-10253
brook	-10254
combe	-10255
corer	-10256
endor	-10257
hello	-10258
ichel	-10259
idens	-10260
ierry	-10261
ilian	-10262
indon	-10263
ixels	-10264
liani	-10265
light	-10266
miles	-10267
ohang	-10268
ottom	-10269
ovich	-10270
oyama	-10271
raham	-10272
union	-10273
verde	-10274
yrkje	-10275
ébast	-10276
▁(114	-10277
▁(15)	-10278
▁(19)	-10279
▁(26)	-10280
▁(55)	-10281
▁(69)	-10282
▁(72)	-10283
▁(80)	-10284
▁(87)	-10285
▁(89)	-10286
▁(98)	-10287
▁0.16	-10288
▁1-3?	-10289
▁1200	-10290
▁1906	-10291
▁1907	-10292
▁1911	-10293
▁1938	-10294
▁1:01	-10295
▁1:16	-10296
▁1–6,	-10297
▁2–6?	-10298
▁4:30	-10299
▁7.13	-10300
▁9.11	-10301
▁Anna	-10302
▁Buck	-10303
▁Cars	-10304
▁Cash	-10305
▁Colt	-10306
▁Dame	-10307
▁Dist	-10308
▁Dual	-10309
▁Fair	-10310
▁Firm	-10311
▁Flat	-10312
▁Four	-10313
▁Fumb	-10314
▁Hend	-10315
▁Horn	-10316
▁Karl	-10317
▁Lang	-10318
▁PICK	-10319
▁Pens	-10320
▁Seed	-10321
▁Sold	-10322
▁Trim	-10323
▁Vert	-10324
▁WSOP	-10325
▁cham	-10326
▁circ	-10327
▁cork	-10328
▁debt	-10329
▁desk	-10330
▁dive	-10331
▁drum	-10332
▁flag	-10333
▁heir	-10334
▁hend	-10335
▁hull	-10336
▁jama	-10337
▁luis	-10338
▁mall	-10339
▁mead	-10340
▁mora	-10341
▁orth	-10342
▁pair	-10343
▁phon	-10344
▁rose	-10345
▁save	-10346
▁sche	-10347
▁shar	-10348
▁shel	-10349
▁soph	-10350
▁trin	-10351
▁vale	-10352
▁wang	-10353
▁yang	-10354
-71-70	-10355
-71=27	-10356
-73=21	-10357
Metric	-10358
Suited	-10359
ailand	-10360
ailure	-10361
alifax	-10362
alties	-10363
ancial	-10364
anghai	-10365
dalena	-10366
driver	-10367
endoza	-10368
essels	-10369
gative	-10370
hauser	-10371
iantes	-10372
imajor	-10373
indian	-10374
irchen	-10375
izards	-10376
jandro	-10377
kinson	-10378
linder	-10379
linton	-10380
onesia	-10381
ossein	-10382
oulder	-10383
tonnes	-10384
venson	-10385
verted	-10386
▁(74)?	-10387
▁0-6-0	-10388
▁10.10	-10389
▁11.15	-10390
▁11.18	-10391
▁12.12	-10392
▁12.14	-10393
▁13.12	-10394
▁13.13	-10395
▁13.5-	-10396
▁14.14	-10397
▁14.15	-10398
▁1957?	-10399
▁1958?	-10400
▁2005/	-10401
▁2009)	-10402
▁68-70	-10403
▁68-71	-10404
▁70-72	-10405
▁71-69	-10406
▁Appro	-10407
▁Argon	-10408
▁Basin	-10409
▁Begin	-10410
▁Chern	-10411
▁Egypt	-10412
▁Ellis	-10413
▁Evans	-10414
▁Fight	-10415
▁Geoff	-10416
▁Going	-10417
▁Honor	-10418
▁Jerry	-10419
▁Kenny	-10420
▁Linda	-10421
▁Metal	-10422
▁Moves	-10423
▁Nixon	-10424
▁Ralph	-10425
▁Santa	-10426
▁Seans	-10427
▁Tower	-10428
▁Trail	-10429
▁[[|]]	-10430
▁buses	-10431
▁contr	-10432
▁damon	-10433
▁donor	-10434
▁eagle	-10435
▁floyd	-10436
▁forsy	-10437
▁girls	-10438
▁hydra	-10439
▁knock	-10440
▁leeds	-10441
▁lewis	-10442
▁orbit	-10443
▁pablo	-10444
▁payne	-10445
▁quest	-10446
▁recap	-10447
▁sacks	-10448
▁seoul	-10449
▁serve	-10450
▁shell	-10451
▁solar	-10452
▁speak	-10453
▁truck	-10454
▁twist	-10455
▁tyres	-10456
▁valid	-10457
amiglia	-10458
atorial	-10459
ennings	-10460
ersburg	-10461
fielder	-10462
holding	-10463
inburgh	-10464
intendo	-10465
lestick	-10466
lington	-10467
mediate	-10468
punches	-10469
ranking	-10470
terbury	-10471
▁Arabic	-10472
▁Before	-10473
▁Branch	-10474
▁Bullet	-10475
▁Colour	-10476
▁Duncan	-10477
▁Graham	-10478
▁Harris	-10479
▁Indoor	-10480
▁Lakers	-10481
▁Manuel	-10482
▁Mobile	-10483
▁Modern	-10484
▁Oregon	-10485
▁Plural	-10486
▁Riding	-10487
▁Sabres	-10488
▁Wheels	-10489
▁Willis	-10490
▁Zodiac	-10491
▁assemb	-10492
▁avenue	-10493
▁battle	-10494
▁behind	-10495
▁caller	-10496
▁ensign	-10497
▁failed	-10498
▁flames	-10499
▁flyers	-10500
▁forces	-10501
▁handle	-10502
▁health	-10503
▁hunter	-10504
▁libert	-10505
▁mechan	-10506
▁models	-10507
▁morgan	-10508
▁muzzle	-10509
▁patent	-10510
▁rogers	-10511
▁sergio	-10512
▁sharks	-10513
▁singer	-10514
▁spirit	-10515
▁stages	-10516
▁sunday	-10517
▁suzuki	-10518
▁tennis	-10519
▁trains	-10520
▁virgin	-10521
▁wheels	-10522
Location	-10523
cheduled	-10524
enezuela	-10525
iancarlo	-10526
ilometer	-10527
ituation	-10528
richello	-10529
udiantes	-10530
ébastien	-10531
▁1991-92	-10532
▁1993-94	-10533
▁2010-11	-10534
▁AVERAGE	-10535
▁COUNTRY	-10536
▁Creator	-10537
▁Crystal	-10538
▁Hungary	-10539
▁Indians	-10540
▁Lorenzo	-10541
▁Members	-10542
▁Private	-10543
▁Tackles	-10544
▁century	-10545
▁damaged	-10546
▁decimal	-10547
▁deleted	-10548
▁janeiro	-10549
▁leonard	-10550
▁machine	-10551
▁reading	-10552
▁shooter	-10553
▁skipper	-10554
iguration	-10555
menkollen	-10556
ockenheim	-10557
ortsmouth	-10558
ownsville	-10559
▁Bulgaria	-10560
▁Campbell	-10561
▁Channels	-10562
▁Counties	-10563
▁Failures	-10564
▁Lyricist	-10565
▁Receipts	-10566
▁Reported	-10567
▁Software	-10568
▁Televote	-10569
▁Upstream	-10570
▁acquired	-10571
▁audience	-10572
▁breakers	-10573
▁campbell	-10574
▁departed	-10575
▁function	-10576
▁halfback	-10577
▁identity	-10578
▁internet	-10579
▁nicklaus	-10580
▁portugal	-10581
▁promoted	-10582
employment	-10583
ographical	-10584
▁Chevrolet	-10585
▁Defensive	-10586
▁Direction	-10587
▁Icelandic	-10588
▁Investing	-10589
▁Liverpool	-10590
▁Relations	-10591
▁Supercopa	-10592
▁Territory	-10593
▁direction	-10594
▁institute	-10595
▁moorabbin	-10596
▁questions	-10597
▁Amerindian	-10598
▁Discipline	-10599
▁Motorsport	-10600
▁completion	-10601
▁identifier	-10602
▁incumbents	-10603
▁parliament	-10604
▁professors	-10605
▁volleyball	-10606
▁Commentator	-10607
▁Prefectural	-10608
▁Probability	-10609
▁Represented	-10610
▁Silverstone	-10611
▁information	-10612
▁manufacture	-10613
▁Architecture	-10614
▁Certification	-10615
▁corresponding	-10616
*)	-10617
+1	-10618
3%	-10619
DA	-10620
DC	-10621
DT	-10622
FT	-10623
MT	-10624
lm	-10625
po	-10626
qm	-10627
ка	-10628
ле	-10629
▁ž	-10630
-82	-10631
.24	-10632
.3,	-10633
.4,	-10634
.88	-10635
/20	-10636
007	-10637
01)	-10638
10,	-10639
177	-10640
18?	-10641
22?	-10642
24,	-10643
3),	-10644
330	-10645
5),	-10646
512	-10647
:40	-10648
Pro	-10649
abb	-10650
agr	-10651
atu	-10652
cur	-10653
emi	-10654
gir	-10655
iab	-10656
iza	-10657
lit	-10658
mil	-10659
ohl	-10660
oti	-10661
oya	-10662
uet	-10663
vil	-10664
viv	-10665
voy	-10666
zon	-10667
–7?	-10668
–8)	-10669
▁+7	-10670
▁Cu	-10671
▁Da	-10672
▁HI	-10673
▁QF	-10674
▁RA	-10675
▁RF	-10676
▁SF	-10677
▁SO	-10678
▁TI	-10679
▁fw	-10680
▁ib	-10681
▁ji	-10682
▁lg	-10683
▁mn	-10684
▁pc	-10685
▁sb	-10686
▁sd	-10687
▁tc	-10688
▁–2	-10689
-105	-10690
From	-10691
NAME	-10692
anji	-10693
asts	-10694
born	-10695
cise	-10696
clay	-10697
emen	-10698
hart	-10699
iffe	-10700
imed	-10701
isse	-10702
ming	-10703
scar	-10704
ught	-10705
uton	-10706
with	-10707
yard	-10708
▁"19	-10709
▁$11	-10710
▁$12	-10711
▁(17	-10712
▁000	-10713
▁0:2	-10714
▁12"	-10715
▁182	-10716
▁213	-10717
▁235	-10718
▁23:	-10719
▁25%	-10720
▁266	-10721
▁3-3	-10722
▁325	-10723
▁3–1	-10724
▁3–2	-10725
▁4,6	-10726
▁4.2	-10727
▁5-1	-10728
▁57?	-10729
▁59?	-10730
▁6.6	-10731
▁60?	-10732
▁61,	-10733
▁67?	-10734
▁7-0	-10735
▁71,	-10736
▁Bat	-10737
▁Cer	-10738
▁Dru	-10739
▁Dub	-10740
▁Ern	-10741
▁Eur	-10742
▁Fer	-10743
▁Fle	-10744
▁Gol	-10745
▁IMR	-10746
▁Len	-10747
▁Meg	-10748
▁Ott	-10749
▁Psy	-10750
▁Qat	-10751
▁Reb	-10752
▁Rhe	-10753
▁TDs	-10754
▁WHO	-10755
▁WJC	-10756
▁alt	-10757
▁ana	-10758
▁bog	-10759
▁cut	-10760
▁deg	-10761
▁det	-10762
▁dow	-10763
▁dun	-10764
▁guy	-10765
▁hon	-10766
▁luc	-10767
▁lud	-10768
▁mog	-10769
▁mom	-10770
▁mph	-10771
▁nar	-10772
▁neg	-10773
▁ngc	-10774
▁rip	-10775
▁sor	-10776
▁teh	-10777
▁von	-10778
▁way	-10779
ality	-10780
bines	-10781
eders	-10782
elena	-10783
enroe	-10784
ewish	-10785
iment	-10786
inder	-10787
istry	-10788
oking	-10789
ought	-10790
ounts	-10791
point	-10792
rient	-10793
utton	-10794
▁(18)	-10795
▁(198	-10796
▁(21)	-10797
▁(50)	-10798
▁(66)	-10799
▁(68)	-10800
▁(76)	-10801
▁1-2?	-10802
▁1.12	-10803
▁13.9	-10804
▁16:9	-10805
▁1857	-10806
▁1898	-10807
▁1949	-10808
▁4000	-10809
▁9.13	-10810
▁Dirk	-10811
▁GNIS	-10812
▁Lisa	-10813
▁Mans	-10814
▁Mick	-10815
▁Reds	-10816
▁Reed	-10817
▁Sunk	-10818
▁Thai	-10819
▁Todd	-10820
▁Zach	-10821
▁audi	-10822
▁axis	-10823
▁cann	-10824
▁cash	-10825
▁espn	-10826
▁gave	-10827
▁grey	-10828
▁ivan	-10829
▁kent	-10830
▁lola	-10831
▁neil	-10832
▁news	-10833
▁owns	-10834
▁prod	-10835
▁rang	-10836
▁rice	-10837
▁spot	-10838
▁step	-10839
▁tone	-10840
▁vall	-10841
▁wine	-10842
▁youn	-10843
ademic	-10844
airman	-10845
boards	-10846
donald	-10847
earson	-10848
endish	-10849
hattan	-10850
igator	-10851
rewers	-10852
venues	-10853
▁(7–5)	-10854
▁09-10	-10855
▁13.11	-10856
▁18:00	-10857
▁1943?	-10858
▁1950?	-10859
▁1994,	-10860
▁Acres	-10861
▁Analy	-10862
▁Autom	-10863
▁Blues	-10864
▁Bulls	-10865
▁Colon	-10866
▁Cores	-10867
▁Drama	-10868
▁Eagle	-10869
▁FLaps	-10870
▁Giant	-10871
▁Glenn	-10872
▁McDon	-10873
▁Paper	-10874
▁Spart	-10875
▁Treas	-10876
▁angle	-10877
▁aston	-10878
▁baker	-10879
▁barry	-10880
▁brett	-10881
▁brows	-10882
▁byron	-10883
▁cause	-10884
▁chuck	-10885
▁crist	-10886
▁denis	-10887
▁expos	-10888
▁films	-10889
▁fired	-10890
▁floor	-10891
▁geoff	-10892
▁glass	-10893
▁glenn	-10894
▁going	-10895
▁greek	-10896
▁hindi	-10897
▁intro	-10898
▁luigi	-10899
▁opera	-10900
▁pride	-10901
▁raced	-10902
▁rural	-10903
▁serie	-10904
▁sixth	-10905
▁stand	-10906
▁usage	-10907
▁woman	-10908
episode	-10909
essions	-10910
estlers	-10911
ibility	-10912
ignment	-10913
issions	-10914
legated	-10915
legates	-10916
tension	-10917
▁(0-1)?	-10918
▁Afghan	-10919
▁Athens	-10920
▁Bolton	-10921
▁Curtis	-10922
▁Danish	-10923
▁Dragon	-10924
▁Locale	-10925
▁Louise	-10926
▁Medium	-10927
▁Miguel	-10928
▁MotoGP	-10929
▁Newman	-10930
▁Oblast	-10931
▁Output	-10932
▁Prefix	-10933
▁Proper	-10934
▁Recopa	-10935
▁Riders	-10936
▁Rogers	-10937
▁Rovers	-10938
▁Sprint	-10939
▁Versus	-10940
▁Victor	-10941
▁Vuelta	-10942
▁affili	-10943
▁albion	-10944
▁alonso	-10945
▁aspect	-10946
▁combat	-10947
▁equals	-10948
▁guests	-10949
▁invest	-10950
▁issues	-10951
▁jackie	-10952
▁jeremy	-10953
▁kicker	-10954
▁killed	-10955
▁knicks	-10956
▁labour	-10957
▁loaned	-10958
▁nicole	-10959
▁norton	-10960
▁object	-10961
▁orange	-10962
▁panama	-10963
▁rovers	-10964
▁santos	-10965
▁shield	-10966
▁showed	-10967
▁spring	-10968
▁stuart	-10969
▁summit	-10970
▁symbol	-10971
▁temple	-10972
▁transl	-10973
▁versus	-10974
▁voting	-10975
▁vowels	-10976
▁worked	-10977
▁wright	-10978
Finalist	-10979
Millions	-10980
omotives	-10981
stressed	-10982
thousand	-10983
▁1989-90	-10984
▁2003-04	-10985
▁2008-09	-10986
▁2009–10	-10987
▁2012–13	-10988
▁Address	-10989
▁Batsmen	-10990
▁Burnley	-10991
▁Charlie	-10992
▁Charter	-10993
▁Chelsea	-10994
▁Chester	-10995
▁Entries	-10996
▁Madison	-10997
▁Mozilla	-10998
▁Numbers	-10999
▁Pacific	-11000
▁Russell	-11001
▁Turnout	-11002
▁Virtual	-11003
▁Workers	-11004
▁Wounded	-11005
▁acceler	-11006
▁celtics	-11007
▁charlie	-11008
▁colbert	-11009
▁collins	-11010
▁correct	-11011
▁dallara	-11012
▁dollars	-11013
▁dominik	-11014
▁express	-11015
▁hamburg	-11016
▁initial	-11017
▁mansell	-11018
▁matchup	-11019
▁mcenroe	-11020
▁ontario	-11021
▁pageant	-11022
▁penalty	-11023
▁pennant	-11024
▁pentium	-11025
▁protein	-11026
▁skating	-11027
▁sources	-11028
▁tackles	-11029
▁vietnam	-11030
▁wallace	-11031
▁watford	-11032
▁windows	-11033
finalists	-11034
velopment	-11035
▁Accolade	-11036
▁Andretti	-11037
▁Dolphins	-11038
▁Fernando	-11039
▁Fraction	-11040
▁Franklin	-11041
▁Jonathan	-11042
▁Mitchell	-11043
▁Nebraska	-11044
▁Security	-11045
▁Swimming	-11046
▁Thompson	-11047
▁Tropical	-11048
▁adjusted	-11049
▁andretti	-11050
▁brooklyn	-11051
▁browsers	-11052
▁colonial	-11053
▁complete	-11054
▁composer	-11055
▁dolphins	-11056
▁economic	-11057
▁entrants	-11058
▁families	-11059
▁fullback	-11060
▁giuseppe	-11061
▁included	-11062
▁increase	-11063
▁independ	-11064
▁industry	-11065
▁jennifer	-11066
▁material	-11067
▁mitchell	-11068
▁nebraska	-11069
▁proposed	-11070
▁redskins	-11071
▁regional	-11072
▁relative	-11073
▁riccardo	-11074
▁sporting	-11075
▁vladimir	-11076
▁Islanders	-11077
▁Nashville	-11078
▁bandwidth	-11079
▁collision	-11080
▁decreased	-11081
▁frederick	-11082
▁guillermo	-11083
▁nordiques	-11084
▁recording	-11085
▁secondary	-11086
▁southeast	-11087
▁technical	-11088
▁Cancelable	-11089
▁Investment	-11090
▁Macedonian	-11091
▁Simplified	-11092
▁Spacecraft	-11093
▁Winchester	-11094
▁birmingham	-11095
▁centerfold	-11096
▁christophe	-11097
▁convention	-11098
▁electorate	-11099
▁fittipaldi	-11100
▁occupation	-11101
▁preference	-11102
▁schumacher	-11103
▁villeneuve	-11104
▁weightlift	-11105
▁Electricity	-11106
▁locomotives	-11107
▁morgenstern	-11108
▁traditional	-11109
International	-11110
▁Peterborough	-11111
▁Relationship	-11112
▁spokesperson	-11113
▁Preliminaries	-11114
▁configuration	-11115
▁middlesbrough	-11116
▁classifications	-11117
)"	-11118
.-	-11119
CM	-11120
EA	-11121
En	-11122
Ex	-11123
IL	-11124
[2	-11125
dh	-11126
du	-11127
dv	-11128
ea	-11129
ič	-11130
kk	-11131
ml	-11132
nc	-11133
pc	-11134
qv	-11135
wi	-11136
zc	-11137
éd	-11138
én	-11139
és	-11140
ín	-11141
öl	-11142
ön	-11143
ат	-11144
он	-11145
மி	-11146
-51	-11147
-52	-11148
-79	-11149
-9?	-11150
.2,	-11151
.34	-11152
.92	-11153
.97	-11154
/00	-11155
/01	-11156
/13	-11157
015	-11158
04?	-11159
103	-11160
170	-11161
333	-11162
40?	-11163
443	-11164
50?	-11165
562	-11166
6,2	-11167
980	-11168
:26	-11169
ACX	-11170
Car	-11171
Con	-11172
ENT	-11173
Off	-11174
Sof	-11175
Sub	-11176
aba	-11177
aku	-11178
alm	-11179
aus	-11180
bia	-11181
cet	-11182
cht	-11183
chy	-11184
cko	-11185
eli	-11186
evi	-11187
gor	-11188
gow	-11189
idi	-11190
imn	-11191
jay	-11192
kes	-11193
kok	-11194
lef	-11195
mal	-11196
max	-11197
mes	-11198
mio	-11199
nia	-11200
obe	-11201
oir	-11202
oko	-11203
psi	-11204
rig	-11205
ril	-11206
rin	-11207
san	-11208
sch	-11209
thy	-11210
ueb	-11211
uku	-11212
uld	-11213
vic	-11214
wig	-11215
ótt	-11216
–23	-11217
–34	-11218
–49	-11219
▁"3	-11220
▁%)	-11221
▁(%	-11222
▁AB	-11223
▁Ah	-11224
▁Ax	-11225
▁DF	-11226
▁DN	-11227
▁Dj	-11228
▁Ga	-11229
▁HK	-11230
▁Jr	-11231
▁Ot	-11232
▁Pi	-11233
▁Si	-11234
▁UC	-11235
▁Wu	-11236
▁aw	-11237
▁bi	-11238
▁bp	-11239
▁dw	-11240
▁og	-11241
▁rl	-11242
▁rs	-11243
▁tu	-11244
▁ug	-11245
▁yi	-11246
▁yr	-11247
▁£3	-11248
▁−9	-11249
-19?	-11250
.22%	-11251
.255	-11252
.8%?	-11253
200?	-11254
ICAO	-11255
Open	-11256
SION	-11257
Sogn	-11258
Week	-11259
alie	-11260
allo	-11261
amac	-11262
amal	-11263
anni	-11264
arro	-11265
aska	-11266
auts	-11267
away	-11268
azor	-11269
bass	-11270
bins	-11271
bull	-11272
chus	-11273
colm	-11274
dome	-11275
enia	-11276
ensk	-11277
este	-11278
etty	-11279
eyer	-11280
ffen	-11281
good	-11282
hine	-11283
hire	-11284
holm	-11285
ibbe	-11286
icap	-11287
ikes	-11288
iman	-11289
inda	-11290
iner	-11291
ingu	-11292
ipei	-11293
ises	-11294
isha	-11295
itsu	-11296
lago	-11297
lied	-11298
lock	-11299
mans	-11300
mate	-11301
melo	-11302
mens	-11303
obyl	-11304
ofia	-11305
ogne	-11306
oner	-11307
ongo	-11308
onte	-11309
oril	-11310
ović	-11311
pads	-11312
para	-11313
pert	-11314
riff	-11315
shaw	-11316
sing	-11317
uala	-11318
uary	-11319
ubes	-11320
ucin	-11321
uilt	-11322
ulse	-11323
uras	-11324
ursk	-11325
vale	-11326
wait	-11327
yram	-11328
zhou	-11329
zone	-11330
▁#16	-11331
▁$10	-11332
▁(96	-11333
▁+13	-11334
▁0–3	-11335
▁13:	-11336
▁159	-11337
▁164	-11338
▁168	-11339
▁172	-11340
▁2.8	-11341
▁227	-11342
▁231	-11343
▁245	-11344
▁270	-11345
▁281	-11346
▁3-4	-11347
▁348	-11348
▁4–0	-11349
▁59,	-11350
▁640	-11351
▁64?	-11352
▁7-6	-11353
▁7.0	-11354
▁7.7	-11355
▁70?	-11356
▁71?	-11357
▁73?	-11358
▁79?	-11359
▁81?	-11360
▁9.3	-11361
▁Bos	-11362
▁DOB	-11363
▁Deb	-11364
▁Det	-11365
▁FLT	-11366
▁HDR	-11367
▁Hul	-11368
▁Ian	-11369
▁Ira	-11370
▁Kor	-11371
▁Lor	-11372
▁Nak	-11373
▁PRO	-11374
▁PTS	-11375
▁Pld	-11376
▁Pun	-11377
▁SFC	-11378
▁Sea	-11379
▁Sig	-11380
▁Sri	-11381
▁Tac	-11382
▁Vis	-11383
▁Vit	-11384
▁Yds	-11385
▁alc	-11386
▁ayr	-11387
▁bac	-11388
▁ban	-11389
▁cbr	-11390
▁cha	-11391
▁deb	-11392
▁fps	-11393
▁gay	-11394
▁god	-11395
▁hir	-11396
▁ign	-11397
▁jin	-11398
▁job	-11399
▁kor	-11400
▁kre	-11401
▁mcm	-11402
▁mis	-11403
▁nsw	-11404
▁pad	-11405
▁pga	-11406
▁rca	-11407
▁som	-11408
▁son	-11409
▁tag	-11410
▁tan	-11411
▁tob	-11412
▁vas	-11413
▁wad	-11414
-2003	-11415
-2012	-11416
Brien	-11417
Night	-11418
Tahir	-11419
aheen	-11420
amine	-11421
amous	-11422
apoli	-11423
aroos	-11424
cible	-11425
croft	-11426
cules	-11427
empty	-11428
enzie	-11429
error	-11430
exans	-11431
front	-11432
illon	-11433
incts	-11434
issan	-11435
itsub	-11436
leman	-11437
marks	-11438
meara	-11439
ocate	-11440
odome	-11441
oller	-11442
omore	-11443
ondiw	-11444
onnor	-11445
opold	-11446
ordin	-11447
osion	-11448
qvist	-11449
ricia	-11450
rizio	-11451
steps	-11452
ugene	-11453
umpur	-11454
óttir	-11455
▁(0–1	-11456
▁(1)?	-11457
▁(109	-11458
▁(125	-11459
▁(23)	-11460
▁(45)	-11461
▁(56)	-11462
▁(73)	-11463
▁(88)	-11464
▁10.9	-11465
▁100,	-11466
▁100?	-11467
▁12.5	-11468
▁18.9	-11469
▁1924	-11470
▁1925	-11471
▁1:17	-11472
▁26–2	-11473
▁4-0?	-11474
▁6.12	-11475
▁6–1?	-11476
▁7.14	-11477
▁8.14	-11478
▁89.3	-11479
▁9.16	-11480
▁ASTC	-11481
▁Bars	-11482
▁Brig	-11483
▁Card	-11484
▁Dale	-11485
▁Does	-11486
▁Edge	-11487
▁Fare	-11488
▁Fitz	-11489
▁Kind	-11490
▁Lanc	-11491
▁Magn	-11492
▁Moon	-11493
▁Neon	-11494
▁Pinn	-11495
▁Pont	-11496
▁Rebs	-11497
▁Salv	-11498
▁Sell	-11499
▁Shin	-11500
▁Stop	-11501
▁Verm	-11502
▁WHat	-11503
▁Wine	-11504
▁Wing	-11505
▁Your	-11506
▁airs	-11507
▁bolt	-11508
▁carr	-11509
▁case	-11510
▁cass	-11511
▁cher	-11512
▁dean	-11513
▁fair	-11514
▁flat	-11515
▁food	-11516
▁here	-11517
▁iata	-11518
▁iron	-11519
▁liga	-11520
▁lord	-11521
▁lynn	-11522
▁mach	-11523
▁nova	-11524
▁ober	-11525
▁pens	-11526
▁pine	-11527
▁rail	-11528
▁rudy	-11529
▁sach	-11530
▁sang	-11531
▁sean	-11532
▁sell	-11533
▁slot	-11534
▁stay	-11535
▁tank	-11536
▁toll	-11537
▁ucla	-11538
▁vert	-11539
-70-71	-11540
-72-68	-11541
-74-71	-11542
Engine	-11543
Rating	-11544
Sofres	-11545
aliers	-11546
ampden	-11547
atures	-11548
azzoni	-11549
engine	-11550
estamp	-11551
ibbons	-11552
ievers	-11553
iridae	-11554
istics	-11555
linger	-11556
market	-11557
naught	-11558
neider	-11559
number	-11560
option	-11561
oshiba	-11562
rected	-11563
rellas	-11564
ricane	-11565
ritory	-11566
roatia	-11567
tender	-11568
tenham	-11569
thorpe	-11570
trover	-11571
ubbles	-11572
vinces	-11573
▁(103)	-11574
▁(110)	-11575
▁(71)?	-11576
▁(72)?	-11577
▁(99)?	-11578
▁10:30	-11579
▁11.10	-11580
▁11.16	-11581
▁12.13	-11582
▁12.19	-11583
▁14.12	-11584
▁14.19	-11585
▁15.14	-11586
▁15.16	-11587
▁17.13	-11588
▁18.16	-11589
▁1962?	-11590
▁1992,	-11591
▁1999,	-11592
▁68-73	-11593
▁69-71	-11594
▁71-66	-11595
▁72-68	-11596
▁978-1	-11597
▁Baker	-11598
▁Cards	-11599
▁Casey	-11600
▁Floor	-11601
▁Force	-11602
▁Glass	-11603
▁Harry	-11604
▁Image	-11605
▁Inaug	-11606
▁Joint	-11607
▁Khmer	-11608
▁Kursk	-11609
▁Laura	-11610
▁Levin	-11611
▁Lewis	-11612
▁Lites	-11613
▁Logan	-11614
▁Marsh	-11615
▁Metro	-11616
▁Moore	-11617
▁Nepal	-11618
▁Offer	-11619
▁PLACE	-11620
▁Pitch	-11621
▁Plate	-11622
▁Singh	-11623
▁Spect	-11624
▁Stand	-11625
▁Stuff	-11626
▁Tokyo	-11627
▁Turbo	-11628
▁Until	-11629
▁Valid	-11630
▁WHICH	-11631
▁Whose	-11632
▁alvin	-11633
▁belle	-11634
▁catag	-11635
▁chand	-11636
▁child	-11637
▁earth	-11638
▁genes	-11639
▁harry	-11640
▁heinz	-11641
▁hosts	-11642
▁imper	-11643
▁irish	-11644
▁julie	-11645
▁keith	-11646
▁kerry	-11647
▁laura	-11648
▁lines	-11649
▁mason	-11650
▁obese	-11651
▁rated	-11652
▁sites	-11653
▁solid	-11654
▁trail	-11655
▁upper	-11656
▁vinyl	-11657
▁voter	-11658
▁worst	-11659
ancesco	-11660
arrator	-11661
asmania	-11662
athalie	-11663
avorite	-11664
centric	-11665
ensboro	-11666
illiams	-11667
jection	-11668
letcher	-11669
odeship	-11670
onduras	-11671
ordeaux	-11672
rashers	-11673
ucinich	-11674
▁(2013)	-11675
▁Arrang	-11676
▁Carter	-11677
▁Equity	-11678
▁Galaxy	-11679
▁Gallup	-11680
▁Hunter	-11681
▁Lineup	-11682
▁Madrid	-11683
▁Museum	-11684
▁Pierre	-11685
▁Planet	-11686
▁Puerto	-11687
▁Rookie	-11688
▁Screen	-11689
▁Sergio	-11690
▁Temple	-11691
▁Toyota	-11692
▁Travis	-11693
▁Vivian	-11694
▁anders	-11695
▁arrows	-11696
▁ballet	-11697
▁bryant	-11698
▁cairns	-11699
▁campus	-11700
▁charge	-11701
▁confed	-11702
▁devils	-11703
▁duncan	-11704
▁father	-11705
▁forest	-11706
▁friday	-11707
▁herman	-11708
▁lakers	-11709
▁laredo	-11710
▁michel	-11711
▁murphy	-11712
▁police	-11713
▁signed	-11714
▁steven	-11715
▁turner	-11716
▁venues	-11717
▁yellow	-11718
electric	-11719
ervation	-11720
isclosed	-11721
pendence	-11722
ronesian	-11723
strument	-11724
▁100,000	-11725
▁1992-93	-11726
▁Account	-11727
▁Alberto	-11728
▁Allison	-11729
▁Archive	-11730
▁Beijing	-11731
▁Bennett	-11732
▁Brother	-11733
▁Deleted	-11734
▁Injured	-11735
▁Kennedy	-11736
▁Leonard	-11737
▁Liscumb	-11738
▁Machine	-11739
▁Married	-11740
▁Nigeria	-11741
▁Officer	-11742
▁Opinion	-11743
▁Persian	-11744
▁Phillip	-11745
▁Regions	-11746
▁Remixed	-11747
▁Renault	-11748
▁Simpson	-11749
▁Started	-11750
▁Transit	-11751
▁Webcast	-11752
▁affairs	-11753
▁alberto	-11754
▁belgian	-11755
▁carroll	-11756
▁chapter	-11757
▁classes	-11758
▁defense	-11759
▁display	-11760
▁element	-11761
▁failure	-11762
▁francis	-11763
▁gymnast	-11764
▁indians	-11765
▁mention	-11766
▁neutral	-11767
▁pattern	-11768
▁philipp	-11769
▁porsche	-11770
▁purpose	-11771
▁spanish	-11772
▁squared	-11773
▁stadion	-11774
▁systems	-11775
▁sánchez	-11776
▁turnout	-11777
▁varsity	-11778
▁viewing	-11779
itational	-11780
itsubishi	-11781
territory	-11782
troverted	-11783
unanimous	-11784
▁Alliance	-11785
▁Columbus	-11786
▁Constant	-11787
▁Croatian	-11788
▁Delivery	-11789
▁Dominant	-11790
▁Friendly	-11791
▁Interact	-11792
▁Kitmaker	-11793
▁McNamara	-11794
▁Schedule	-11795
▁Scuderia	-11796
▁Sideline	-11797
▁Sullivan	-11798
▁Trailing	-11799
▁airlines	-11800
▁anderson	-11801
▁argument	-11802
▁athletes	-11803
▁brighton	-11804
▁coverage	-11805
▁designer	-11806
▁downhill	-11807
▁exchange	-11808
▁garfield	-11809
▁marlboro	-11810
▁ordinary	-11811
▁playmate	-11812
▁rainfall	-11813
▁robinson	-11814
▁softball	-11815
▁vehicles	-11816
▁visitors	-11817
oivodeship	-11818
▁2000-2005	-11819
▁Accession	-11820
▁Apparatus	-11821
▁Assembled	-11822
▁Barcelona	-11823
▁Continent	-11824
▁Microsoft	-11825
▁Newcastle	-11826
▁Platforms	-11827
▁Portrayed	-11828
▁Reference	-11829
▁Technical	-11830
▁Thickness	-11831
▁beginning	-11832
▁cambridge	-11833
▁leicester	-11834
▁mickelson	-11835
▁plurality	-11836
▁political	-11837
▁timestamp	-11838
ancellation	-11839
oreographer	-11840
▁Characters	-11841
▁Complement	-11842
▁Dismissals	-11843
▁Downstream	-11844
▁Equatorial	-11845
▁Government	-11846
▁Queensland	-11847
▁bodyweight	-11848
▁buccaneers	-11849
▁louisville	-11850
▁olympiacos	-11851
▁Attendances	-11852
▁Elimination	-11853
▁Expenditure	-11854
▁Publication	-11855
▁Termination	-11856
▁association	-11857
ockenheimring	-11858
▁Participants	-11859
▁contemporary	-11860
▁inauguration	-11861
▁saskatchewan	-11862
▁wolverhampton	-11863
▁Polyunsaturated	-11864
▁polyunsaturated	-11865
AJ	-11866
AP	-11867
Al	-11868
Br	-11869
EC	-11870
Fr	-11871
IR	-11872
KO	-11873
NC	-11874
Ne	-11875
Pe	-11876
SL	-11877
Sp	-11878
WC	-11879
WU	-11880
fj	-11881
kc	-11882
mg	-11883
mt	-11884
sv	-11885
бе	-11886
▁š	-11887
▁а	-11888
▁д	-11889
▁п	-11890
-32	-11891
-36	-11892
-47	-11893
-5,	-11894
-61	-11895
-63	-11896
-97	-11897
.68	-11898
.94	-11899
020	-11900
060	-11901
14?	-11902
183	-11903
252	-11904
308	-11905
310	-11906
5"?	-11907
705	-11908
901	-11909
:46	-11910
ALS	-11911
And	-11912
Cmp	-11913
DSL	-11914
Day	-11915
EAR	-11916
FOR	-11917
IDS	-11918
Ind	-11919
OND	-11920
abe	-11921
ahn	-11922
bul	-11923
caa	-11924
dez	-11925
far	-11926
hey	-11927
ija	-11928
lat	-11929
new	-11930
nez	-11931
nov	-11932
oid	-11933
okn	-11934
oso	-11935
ror	-11936
tor	-11937
zel	-11938
–4?	-11939
–62	-11940
▁('	-11941
▁+9	-11942
▁0.	-11943
▁7%	-11944
▁Bi	-11945
▁Gi	-11946
▁Il	-11947
▁KR	-11948
▁LW	-11949
▁MP	-11950
▁OS	-11951
▁PC	-11952
▁TC	-11953
▁Ts	-11954
▁Ve	-11955
▁Yi	-11956
▁Yr	-11957
▁bb	-11958
▁cj	-11959
▁dh	-11960
▁dj	-11961
▁dl	-11962
▁kw	-11963
▁lw	-11964
▁oz	-11965
▁pg	-11966
▁vy	-11967
▁wt	-11968
▁yv	-11969
▁zx	-11970
▁–1	-11971
-03?	-11972
-23?	-11973
.22?	-11974
.4%?	-11975
.40?	-11976
100)	-11977
=137	-11978
Cats	-11979
July	-11980
Play	-11981
Time	-11982
WEST	-11983
aman	-11984
aran	-11985
ayan	-11986
borg	-11987
card	-11988
cean	-11989
ding	-11990
dock	-11991
enso	-11992
eric	-11993
etic	-11994
fast	-11995
igor	-11996
izes	-11997
jung	-11998
lana	-11999
mmol	-12000
mslm	-12001
ocus	-12002
oken	-12003
open	-12004
oval	-12005
park	-12006
pics	-12007
swer	-12008
unes	-12009
vere	-12010
wchl	-12011
–12?	-12012
–49)	-12013
▁"15	-12014
▁#2?	-12015
▁(-1	-12016
▁(65	-12017
▁1-6	-12018
▁1/2	-12019
▁15:	-12020
▁2,5	-12021
▁203	-12022
▁208	-12023
▁21'	-12024
▁212	-12025
▁225	-12026
▁247	-12027
▁256	-12028
▁260	-12029
▁276	-12030
▁284	-12031
▁285	-12032
▁289	-12033
▁296	-12034
▁2:3	-12035
▁2–3	-12036
▁312	-12037
▁320	-12038
▁340	-12039
▁37%	-12040
▁4.0	-12041
▁450	-12042
▁49?	-12043
▁52?	-12044
▁627	-12045
▁66?	-12046
▁7-1	-12047
▁72,	-12048
▁734	-12049
▁8.3	-12050
▁80,	-12051
▁93,	-12052
▁Arc	-12053
▁Bag	-12054
▁Bri	-12055
▁Dim	-12056
▁Din	-12057
▁Dup	-12058
▁Eli	-12059
▁Els	-12060
▁Era	-12061
▁Fur	-12062
▁GPU	-12063
▁God	-12064
▁Heb	-12065
▁Jer	-12066
▁Joh	-12067
▁Kaw	-12068
▁LAN	-12069
▁Lam	-12070
▁Lar	-12071
▁Lib	-12072
▁Mom	-12073
▁NVR	-12074
▁PPV	-12075
▁RET	-12076
▁Tar	-12077
▁Tau	-12078
▁USC	-12079
▁UTC	-12080
▁aik	-12081
▁ast	-12082
▁bag	-12083
▁cbf	-12084
▁div	-12085
▁dob	-12086
▁eit	-12087
▁fen	-12088
▁fir	-12089
▁gab	-12090
▁itv	-12091
▁kel	-12092
▁kil	-12093
▁kur	-12094
▁lay	-12095
▁lib	-12096
▁obl	-12097
▁pie	-12098
▁pir	-12099
▁put	-12100
▁qld	-12101
▁reb	-12102
▁rol	-12103
▁rot	-12104
▁rou	-12105
▁saf	-12106
▁sco	-12107
▁são	-12108
▁tat	-12109
▁ted	-12110
▁usc	-12111
,000?	-12112
-74=2	-12113
2,000	-12114
3,000	-12115
=100)	-12116
aders	-12117
allan	-12118
arius	-12119
chers	-12120
edian	-12121
eters	-12122
flict	-12123
folio	-12124
gbast	-12125
gilvy	-12126
ibson	-12127
iform	-12128
ighth	-12129
ingen	-12130
ombia	-12131
otein	-12132
state	-12133
total	-12134
umped	-12135
ustom	-12136
vered	-12137
▁(2)?	-12138
▁(54)	-12139
▁(57)	-12140
▁(65)	-12141
▁(70)	-12142
▁(79)	-12143
▁(8)?	-12144
▁(90)	-12145
▁0-1?	-12146
▁109?	-12147
▁11.1	-12148
▁14.8	-12149
▁1853	-12150
▁1866	-12151
▁1872	-12152
▁1884	-12153
▁1891	-12154
▁1–0?	-12155
▁2–0?	-12156
▁3-0?	-12157
▁3-1?	-12158
▁4-2?	-12159
▁4-3?	-12160
▁6:30	-12161
▁8.11	-12162
▁9.15	-12163
▁ARWU	-12164
▁Bids	-12165
▁Bloc	-12166
▁Boys	-12167
▁Dark	-12168
▁ESPN	-12169
▁Epic	-12170
▁Erik	-12171
▁Ever	-12172
▁Fury	-12173
▁Golf	-12174
▁HOME	-12175
▁Hull	-12176
▁Iran	-12177
▁Iron	-12178
▁Jill	-12179
▁Joan	-12180
▁Kirk	-12181
▁LNER	-12182
▁LPGA	-12183
▁Lank	-12184
▁Lett	-12185
▁Mole	-12186
▁Paid	-12187
▁Pier	-12188
▁Rory	-12189
▁Scot	-12190
▁Side	-12191
▁Spir	-12192
▁Stra	-12193
▁THAT	-12194
▁Trip	-12195
▁Wolf	-12196
▁auto	-12197
▁bars	-12198
▁brit	-12199
▁gamb	-12200
▁gimn	-12201
▁gray	-12202
▁hans	-12203
▁jump	-12204
▁litt	-12205
▁mack	-12206
▁mbit	-12207
▁mind	-12208
▁moss	-12209
▁next	-12210
▁para	-12211
▁plan	-12212
▁prec	-12213
▁rash	-12214
▁rory	-12215
▁sept	-12216
▁supp	-12217
▁sylv	-12218
▁tram	-12219
▁trip	-12220
▁wals	-12221
-69=27	-12222
School	-12223
Winner	-12224
athlon	-12225
cliffe	-12226
enario	-12227
encies	-12228
enthal	-12229
ershot	-12230
ideast	-12231
iplier	-12232
letter	-12233
lewood	-12234
meters	-12235
ougars	-12236
ration	-12237
ulture	-12238
▁(105)	-12239
▁(65)?	-12240
▁(66)?	-12241
▁(70)?	-12242
▁(82)?	-12243
▁(88)?	-12244
▁(90)?	-12245
▁1,200	-12246
▁15.15	-12247
▁1942?	-12248
▁1984,	-12249
▁1993,	-12250
▁2002,	-12251
▁71-71	-12252
▁Again	-12253
▁Brent	-12254
▁Canal	-12255
▁Chile	-12256
▁Condu	-12257
▁Curry	-12258
▁Early	-12259
▁Fresh	-12260
▁Gabri	-12261
▁Genus	-12262
▁Georg	-12263
▁Geust	-12264
▁Giles	-12265
▁Girls	-12266
▁Grace	-12267
▁Krist	-12268
▁Lines	-12269
▁Loans	-12270
▁Marco	-12271
▁Mayor	-12272
▁Monte	-12273
▁Pedro	-12274
▁Polit	-12275
▁Pride	-12276
▁Rapid	-12277
▁Recap	-12278
▁Ryuji	-12279
▁Shell	-12280
▁Sound	-12281
▁Truck	-12282
▁Tujia	-12283
▁Types	-12284
▁Wheat	-12285
▁Yield	-12286
▁agent	-12287
▁aires	-12288
▁areas	-12289
▁daily	-12290
▁faldo	-12291
▁fedex	-12292
▁hayes	-12293
▁honor	-12294
▁idaho	-12295
▁krist	-12296
▁lakes	-12297
▁marty	-12298
▁metro	-12299
▁naked	-12300
▁natal	-12301
▁perry	-12302
▁plane	-12303
▁popul	-12304
▁quick	-12305
▁rugby	-12306
▁sight	-12307
▁silva	-12308
▁trent	-12309
▁vocal	-12310
▁watch	-12311
▁write	-12312
▁yield	-12313
artered	-12314
gbaston	-12315
olished	-12316
regular	-12317
station	-12318
ulation	-12319
umption	-12320
vericks	-12321
▁12,000	-12322
▁25,000	-12323
▁Actors	-12324
▁Alison	-12325
▁Behind	-12326
▁Clarke	-12327
▁Dynamo	-12328
▁Editor	-12329
▁Jeremy	-12330
▁LOWEST	-12331
▁Newton	-12332
▁Podium	-12333
▁Sample	-12334
▁Saturn	-12335
▁Shield	-12336
▁Steven	-12337
▁Suburb	-12338
▁Totals	-12339
▁Turner	-12340
▁Warren	-12341
▁Yellow	-12342
▁angels	-12343
▁arthur	-12344
▁ashley	-12345
▁barnes	-12346
▁border	-12347
▁bottom	-12348
▁browns	-12349
▁buenos	-12350
▁calcul	-12351
▁castle	-12352
▁chosen	-12353
▁closed	-12354
▁dollar	-12355
▁either	-12356
▁fought	-12357
▁guitar	-12358
▁hubert	-12359
▁italia	-12360
▁listen	-12361
▁louise	-12362
▁monday	-12363
▁months	-12364
▁podium	-12365
▁prefix	-12366
▁purdue	-12367
▁rachel	-12368
▁robbie	-12369
▁rocket	-12370
▁rookie	-12371
▁sabres	-12372
▁samuel	-12373
▁server	-12374
▁sloven	-12375
▁spread	-12376
▁sprint	-12377
▁stereo	-12378
▁tariff	-12379
▁travis	-12380
▁valent	-12381
▁wicket	-12382
atherine	-12383
ulliksen	-12384
▁(18–49)	-12385
▁1986-87	-12386
▁1988-89	-12387
▁2001-02	-12388
▁2007/08	-12389
▁2008/09	-12390
▁Academy	-12391
▁Arsenal	-12392
▁Assumed	-12393
▁Baseman	-12394
▁Bengals	-12395
▁Blazers	-12396
▁Brabham	-12397
▁Chapter	-12398
▁Gregory	-12399
▁Imports	-12400
▁Knights	-12401
▁Letters	-12402
▁Lincoln	-12403
▁Marques	-12404
▁Nuggets	-12405
▁Packers	-12406
▁Picture	-12407
▁Profess	-12408
▁Profile	-12409
▁Rushing	-12410
▁Swedish	-12411
▁Ukraine	-12412
▁Univers	-12413
▁Variant	-12414
▁alfieri	-12415
▁allowed	-12416
▁attempt	-12417
▁bengals	-12418
▁bernard	-12419
▁brandon	-12420
▁carries	-12421
▁chester	-12422
▁coaster	-12423
▁covered	-12424
▁duchess	-12425
▁federal	-12426
▁flights	-12427
▁holland	-12428
▁leagues	-12429
▁limited	-12430
▁littler	-12431
▁minardi	-12432
▁perfect	-12433
▁phillip	-12434
▁reissue	-12435
▁rushing	-12436
▁sampled	-12437
▁spencer	-12438
▁storage	-12439
▁swedish	-12440
▁variant	-12441
▁variety	-12442
▁virtual	-12443
▁younger	-12444
▁2004-05?	-12445
▁Audition	-12446
▁Bulldogs	-12447
▁Catholic	-12448
▁Downhill	-12449
▁Exchange	-12450
▁External	-12451
▁Function	-12452
▁Hijikata	-12453
▁Independ	-12454
▁Launches	-12455
▁McDonald	-12456
▁Services	-12457
▁Singular	-12458
▁Steelers	-12459
▁Students	-12460
▁Userpics	-12461
▁Warriors	-12462
▁analysis	-12463
▁apparent	-12464
▁belgrade	-12465
▁capitals	-12466
▁catholic	-12467
▁clippers	-12468
▁conquest	-12469
▁contract	-12470
▁currency	-12471
▁delivery	-12472
▁dominant	-12473
▁download	-12474
▁equation	-12475
▁fixtures	-12476
▁franklin	-12477
▁hereford	-12478
▁humphrey	-12479
▁kawasaki	-12480
▁lawrence	-12481
▁lyricist	-12482
▁meetings	-12483
▁millwall	-12484
▁nacional	-12485
▁negative	-12486
▁officine	-12487
▁sequence	-12488
▁services	-12489
▁specific	-12490
▁speedway	-12491
▁swimming	-12492
▁tropical	-12493
troductory	-12494
▁Bandwidth	-12495
▁Canadiens	-12496
▁Divisions	-12497
▁Finalists	-12498
▁Hampshire	-12499
▁Precincts	-12500
▁Reporters	-12501
▁Romanised	-12502
▁Southeast	-12503
▁Victories	-12504
▁celebrity	-12505
▁connaught	-12506
▁elizabeth	-12507
▁emissions	-12508
▁estimated	-12509
▁financial	-12510
▁finishing	-12511
▁inflation	-12512
▁installed	-12513
▁malaysian	-12514
▁passenger	-12515
▁selection	-12516
▁statistic	-12517
ustronesian	-12518
▁Commission	-12519
▁Experience	-12520
▁Households	-12521
▁Individual	-12522
▁Restaurant	-12523
▁downstream	-12524
▁fatalities	-12525
▁goalkeeper	-12526
▁horizontal	-12527
▁industrial	-12528
▁recipients	-12529
▁simplified	-12530
▁sunderland	-12531
▁technology	-12532
▁Compression	-12533
▁Governorate	-12534
▁Progressive	-12535
▁Roughriders	-12536
▁achievement	-12537
▁citizenship	-12538
▁compression	-12539
▁connecticut	-12540
▁credentials	-12541
▁declination	-12542
▁expenditure	-12543
▁heavyweight	-12544
▁measurement	-12545
▁warrnambool	-12546
▁Distribution	-12547
▁Holmenkollen	-12548
▁Premierships	-12549
▁Sudamericana	-12550
▁manufactured	-12551
▁organisation	-12552
▁temperatures	-12553
▁Quarterfinals	-12554
▁panathinaikos	-12555
▁transcription	-12556
/-	-12557
AZ	-12558
Af	-12559
Bl	-12560
LC	-12561
LZ	-12562
NE	-12563
OD	-12564
TA	-12565
dc	-12566
ej	-12567
fi	-12568
fo	-12569
pb	-12570
yü	-12571
ád	-12572
ám	-12573
ça	-12574
ée	-12575
öz	-12576
ún	-12577
üd	-12578
ša	-12579
ин	-12580
ро	-12581
ம்	-12582
▁é	-12583
▁م	-12584
-37	-12585
-4)	-12586
-86	-12587
/26	-12588
0,7	-12589
1,7	-12590
102	-12591
150	-12592
187	-12593
20,	-12594
220	-12595
242	-12596
244	-12597
254	-12598
267	-12599
290	-12600
292	-12601
362	-12602
377	-12603
44?	-12604
551	-12605
568	-12606
763	-12607
878	-12608
ADA	-12609
CAF	-12610
CAL	-12611
GRT	-12612
IGH	-12613
LES	-12614
LZH	-12615
Rec	-12616
SWR	-12617
San	-12618
Sec	-12619
WAY	-12620
WGR	-12621
acs	-12622
agg	-12623
agi	-12624
ahu	-12625
akk	-12626
avo	-12627
aze	-12628
bed	-12629
cap	-12630
cen	-12631
chk	-12632
cts	-12633
cyl	-12634
dot	-12635
ely	-12636
flu	-12637
fus	-12638
ibe	-12639
ije	-12640
imi	-12641
inu	-12642
iud	-12643
ián	-12644
ión	-12645
jas	-12646
jin	-12647
kWp	-12648
kwp	-12649
lde	-12650
lio	-12651
log	-12652
ojo	-12653
omy	-12654
orc	-12655
ovd	-12656
ovo	-12657
ovs	-12658
owr	-12659
rat	-12660
uct	-12661
uli	-12662
urz	-12663
uya	-12664
xxx	-12665
you	-12666
yut	-12667
zig	-12668
–22	-12669
–93	-12670
–95	-12671
▁"—	-12672
▁$8	-12673
▁$9	-12674
▁4-	-12675
▁5-	-12676
▁AL	-12677
▁AO	-12678
▁DS	-12679
▁DY	-12680
▁EB	-12681
▁FO	-12682
▁GV	-12683
▁GW	-12684
▁Ju	-12685
▁KM	-12686
▁Ko	-12687
▁MF	-12688
▁MI	-12689
▁MV	-12690
▁MX	-12691
▁Nu	-12692
▁Ri	-12693
▁SG	-12694
▁Vo	-12695
▁WI	-12696
▁WO	-12697
▁au	-12698
▁bs	-12699
▁fi	-12700
▁fu	-12701
▁gw	-12702
▁mj	-12703
▁mw	-12704
▁pf	-12705
▁rc	-12706
▁rr	-12707
▁sä	-12708
▁tx	-12709
▁−0	-12710
-196	-12711
-595	-12712
-7)?	-12713
.5%?	-12714
.6%?	-12715
.73?	-12716
1,97	-12717
Cold	-12718
FORM	-12719
GEGN	-12720
Life	-12721
Qual	-12722
West	-12723
abad	-12724
abit	-12725
acey	-12726
addy	-12727
adec	-12728
aeed	-12729
aina	-12730
anay	-12731
anaz	-12732
arno	-12733
asha	-12734
atsu	-12735
auge	-12736
axon	-12737
berw	-12738
ceed	-12739
ceph	-12740
chin	-12741
city	-12742
clus	-12743
dais	-12744
dsor	-12745
edal	-12746
edom	-12747
ends	-12748
erez	-12749
eron	-12750
eton	-12751
etti	-12752
ević	-12753
geki	-12754
gham	-12755
gnum	-12756
iane	-12757
iasi	-12758
iddi	-12759
iden	-12760
iele	-12761
iery	-12762
iful	-12763
ihar	-12764
ilar	-12765
ilia	-12766
inaw	-12767
inez	-12768
inki	-12769
inol	-12770
ledo	-12771
lene	-12772
loom	-12773
lyph	-12774
mart	-12775
nett	-12776
nian	-12777
none	-12778
ocod	-12779
odaf	-12780
ogee	-12781
olid	-12782
ombe	-12783
onds	-12784
orte	-12785
osta	-12786
oton	-12787
ovny	-12788
oxet	-12789
oyuz	-12790
pine	-12791
plus	-12792
pska	-12793
ract	-12794
rine	-12795
rova	-12796
rust	-12797
tees	-12798
tias	-12799
toto	-12800
tyre	-12801
ueva	-12802
uits	-12803
ulia	-12804
urai	-12805
usch	-12806
usta	-12807
usty	-12808
vian	-12809
xemb	-12810
ylan	-12811
ynam	-12812
ynne	-12813
yril	-12814
ález	-12815
ères	-12816
önen	-12817
▁$29	-12818
▁$5,	-12819
▁(38	-12820
▁(62	-12821
▁(7,	-12822
▁+11	-12823
▁+44	-12824
▁-98	-12825
▁...	-12826
▁0-3	-12827
▁1)"	-12828
▁1,3	-12829
▁10-	-12830
▁161	-12831
▁2-5	-12832
▁2-6	-12833
▁22'	-12834
▁226	-12835
▁23'	-12836
▁230	-12837
▁236	-12838
▁268	-12839
▁288	-12840
▁336	-12841
▁368	-12842
▁392	-12843
▁3–3	-12844
▁4.7	-12845
▁405	-12846
▁410	-12847
▁428	-12848
▁4–3	-12849
▁5.1	-12850
▁5.2	-12851
▁5.3	-12852
▁5/2	-12853
▁512	-12854
▁546	-12855
▁572	-12856
▁6-7	-12857
▁602	-12858
▁62?	-12859
▁650	-12860
▁66,	-12861
▁7-2	-12862
▁7-3	-12863
▁7.2	-12864
▁714	-12865
▁76?	-12866
▁8.0	-12867
▁82?	-12868
▁9-4	-12869
▁Ayr	-12870
▁Bal	-12871
▁Bet	-12872
▁Bye	-12873
▁DAR	-12874
▁DID	-12875
▁Daw	-12876
▁Esp	-12877
▁GFL	-12878
▁Gay	-12879
▁HDI	-12880
▁Jar	-12881
▁Kay	-12882
▁LHA	-12883
▁Liz	-12884
▁Lot	-12885
▁Mol	-12886
▁Mul	-12887
▁Nav	-12888
▁Opp	-12889
▁Pad	-12890
▁Poc	-12891
▁QLD	-12892
▁Rah	-12893
▁Rud	-12894
▁Rus	-12895
▁Rōm	-12896
▁Sax	-12897
▁Sil	-12898
▁Sue	-12899
▁WHo	-12900
▁Why	-12901
▁Wit	-12902
▁Yan	-12903
▁aqu	-12904
▁bhp	-12905
▁bug	-12906
▁cad	-12907
▁dor	-12908
▁dos	-12909
▁ing	-12910
▁ins	-12911
▁ist	-12912
▁jae	-12913
▁jer	-12914
▁kay	-12915
▁kra	-12916
▁lex	-12917
▁lig	-12918
▁lmp	-12919
▁lor	-12920
▁ltd	-12921
▁lun	-12922
▁meg	-12923
▁pin	-12924
▁ric	-12925
▁rit	-12926
▁rup	-12927
▁sie	-12928
▁sig	-12929
▁tau	-12930
▁urs	-12931
▁£1,	-12932
-1990	-12933
6,000	-12934
80607	-12935
91037	-12936
Urban	-12937
acchi	-12938
adesh	-12939
adler	-12940
agram	-12941
ahiro	-12942
aiwan	-12943
akley	-12944
alami	-12945
aling	-12946
ambay	-12947
amela	-12948
andre	-12949
annis	-12950
antes	-12951
arest	-12952
ascar	-12953
astas	-12954
ately	-12955
atore	-12956
banon	-12957
corch	-12958
dated	-12959
edith	-12960
elman	-12961
emble	-12962
ename	-12963
ensor	-12964
erals	-12965
ergus	-12966
erial	-12967
erick	-12968
esley	-12969
ethyl	-12970
first	-12971
garve	-12972
geria	-12973
gomer	-12974
haust	-12975
ianza	-12976
impia	-12977
imsby	-12978
imson	-12979
iscal	-12980
isele	-12981
isenh	-12982
ising	-12983
islav	-12984
jamin	-12985
klasa	-12986
nikov	-12987
okker	-12988
omina	-12989
opoul	-12990
oresi	-12991
orley	-12992
osest	-12993
owski	-12994
rador	-12995
raven	-12996
resno	-12997
riest	-12998
rique	-12999
stars	-13000
trict	-13001
udson	-13002
ungle	-13003
villa	-13004
viron	-13005
wagen	-13006
ández	-13007
▁$25,	-13008
▁(108	-13009
▁(116	-13010
▁(118	-13011
▁(196	-13012
▁(29)	-13013
▁(48)	-13014
▁(63)	-13015
▁(64)	-13016
▁(7)?	-13017
▁(75)	-13018
▁(92)	-13019
▁.308	-13020
▁0.14	-13021
▁01.0	-13022
▁0–1?	-13023
▁11.9	-13024
▁13,6	-13025
▁14.2	-13026
▁155?	-13027
▁18,6	-13028
▁18.8	-13029
▁1860	-13030
▁1880	-13031
▁1897	-13032
▁1899	-13033
▁1921	-13034
▁1922	-13035
▁1933	-13036
▁1:09	-13037
▁1:23	-13038
▁1:44	-13039
▁1:53	-13040
▁2.61	-13041
▁2395	-13042
▁2:05	-13043
▁6–0,	-13044
▁6–7,	-13045
▁8.13	-13046
▁9.10	-13047
▁9.17	-13048
▁9.22	-13049
▁AWAY	-13050
▁Agst	-13051
▁Army	-13052
▁Bass	-13053
▁Book	-13054
▁Bore	-13055
▁Buch	-13056
▁Cann	-13057
▁Chip	-13058
▁Dean	-13059
▁Dogs	-13060
▁Ener	-13061
▁FIPS	-13062
▁Feet	-13063
▁Gore	-13064
▁Gran	-13065
▁HIGH	-13066
▁Herb	-13067
▁Hero	-13068
▁Ibis	-13069
▁Inch	-13070
▁José	-13071
▁LWAT	-13072
▁Lans	-13073
▁Like	-13074
▁Loan	-13075
▁Luke	-13076
▁Mall	-13077
▁Mare	-13078
▁Mbit	-13079
▁Mess	-13080
▁Mich	-13081
▁NTFS	-13082
▁Nova	-13083
▁OVER	-13084
▁OWGR	-13085
▁Pali	-13086
▁Peru	-13087
▁Phys	-13088
▁Plat	-13089
▁Poor	-13090
▁Punt	-13091
▁RIAA	-13092
▁ReFS	-13093
▁Rice	-13094
▁Rosa	-13095
▁Safe	-13096
▁Soph	-13097
▁That	-13098
▁Well	-13099
▁ajax	-13100
▁bats	-13101
▁bold	-13102
▁bour	-13103
▁comb	-13104
▁duty	-13105
▁este	-13106
▁fate	-13107
▁flow	-13108
▁intr	-13109
▁karl	-13110
▁leip	-13111
▁load	-13112
▁mild	-13113
▁mole	-13114
▁noel	-13115
▁pale	-13116
▁peru	-13117
▁pont	-13118
▁pool	-13119
▁rage	-13120
▁reps	-13121
▁sara	-13122
▁seed	-13123
▁shin	-13124
▁tree	-13125
▁tway	-13126
▁verd	-13127
▁viii	-13128
-59582	-13129
-70-75	-13130
-70=28	-13131
-73-68	-13132
00,000	-13133
Number	-13134
achlan	-13135
alogue	-13136
ansson	-13137
apters	-13138
armbar	-13139
ayette	-13140
bering	-13141
chener	-13142
cozone	-13143
enberg	-13144
endall	-13145
ercise	-13146
ibbean	-13147
iccoli	-13148
idfeld	-13149
illery	-13150
incham	-13151
includ	-13152
iolent	-13153
ionale	-13154
ksandr	-13155
listed	-13156
meiras	-13157
offman	-13158
onioli	-13159
opping	-13160
ospect	-13161
osters	-13162
others	-13163
otspur	-13164
ousavi	-13165
pierre	-13166
puties	-13167
rapped	-13168
regnum	-13169
reruns	-13170
ssalon	-13171
usalem	-13172
wealth	-13173
writer	-13174
▁(0–62	-13175
▁(104)	-13176
▁(115)	-13177
▁(117)	-13178
▁(80)?	-13179
▁(83)?	-13180
▁(89)?	-13181
▁(91)?	-13182
▁(92)?	-13183
▁(98)?	-13184
▁11.17	-13185
▁12.16	-13186
▁12:00	-13187
▁13.10	-13188
▁15.20	-13189
▁18.12	-13190
▁18.14	-13191
▁18.17	-13192
▁1940?	-13193
▁1951?	-13194
▁1952?	-13195
▁1982,	-13196
▁1983,	-13197
▁2007(	-13198
▁2008/	-13199
▁67-71	-13200
▁68-66	-13201
▁71-68	-13202
▁72-67	-13203
▁72-69	-13204
▁73-69	-13205
▁8:30?	-13206
▁Basic	-13207
▁Board	-13208
▁Bruno	-13209
▁Cause	-13210
▁Citiz	-13211
▁Colle	-13212
▁Court	-13213
▁Crown	-13214
▁Cycle	-13215
▁Eddie	-13216
▁Elect	-13217
▁Front	-13218
▁Gecko	-13219
▁Grant	-13220
▁Gregg	-13221
▁Heart	-13222
▁Irwin	-13223
▁Julie	-13224
▁Lucas	-13225
▁Males	-13226
▁Marty	-13227
▁Mater	-13228
▁Pairs	-13229
▁Pleas	-13230
▁Psych	-13231
▁Queen	-13232
▁Reign	-13233
▁Rhein	-13234
▁Ricky	-13235
▁Rings	-13236
▁Serge	-13237
▁Serie	-13238
▁Squad	-13239
▁Stamp	-13240
▁Tracy	-13241
▁Units	-13242
▁Unser	-13243
▁Wings	-13244
▁Youth	-13245
▁andré	-13246
▁anton	-13247
▁autos	-13248
▁balls	-13249
▁blues	-13250
▁brent	-13251
▁bryan	-13252
▁diana	-13253
▁dutch	-13254
▁egypt	-13255
▁elgin	-13256
▁error	-13257
▁float	-13258
▁forum	-13259
▁grade	-13260
▁invol	-13261
▁lived	-13262
▁logan	-13263
▁modes	-13264
▁mover	-13265
▁pavin	-13266
▁petro	-13267
▁rabat	-13268
▁racer	-13269
▁rosso	-13270
▁sarah	-13271
▁shape	-13272
▁snake	-13273
▁verde	-13274
-73=211	-13275
/03/200	-13276
achelor	-13277
alsiasi	-13278
angzhou	-13279
anzania	-13280
arative	-13281
autiful	-13282
averley	-13283
clusive	-13284
esville	-13285
fluence	-13286
herents	-13287
ichella	-13288
ioneers	-13289
iovanni	-13290
odafone	-13291
opoulos	-13292
ortmund	-13293
owlands	-13294
oxetine	-13295
sterdam	-13296
ucation	-13297
uchovny	-13298
▁(2004)	-13299
▁1996[2	-13300
▁Apogee	-13301
▁Bailey	-13302
▁Binary	-13303
▁Closed	-13304
▁Compan	-13305
▁Dakota	-13306
▁Dayton	-13307
▁Ekstra	-13308
▁Fiscal	-13309
▁Hadeda	-13310
▁Hebrew	-13311
▁Hughes	-13312
▁Judges	-13313
▁Person	-13314
▁Purdue	-13315
▁Rafael	-13316
▁Rōmaji	-13317
▁SECOND	-13318
▁Sector	-13319
▁Spirit	-13320
▁Spring	-13321
▁Titans	-13322
▁Turkey	-13323
▁UNGEGN	-13324
▁Vander	-13325
▁Wonder	-13326
▁Yamaha	-13327
▁adrian	-13328
▁adults	-13329
▁agency	-13330
▁albums	-13331
▁austin	-13332
▁bailey	-13333
▁barton	-13334
▁branch	-13335
▁breast	-13336
▁brooks	-13337
▁bullet	-13338
▁ceased	-13339
▁charts	-13340
▁demons	-13341
▁digits	-13342
▁dublin	-13343
▁graeme	-13344
▁grants	-13345
▁harold	-13346
▁harris	-13347
▁heaven	-13348
▁israel	-13349
▁juvent	-13350
▁legion	-13351
▁marino	-13352
▁mccain	-13353
▁mobile	-13354
▁mongol	-13355
▁nathan	-13356
▁nissan	-13357
▁passed	-13358
▁pohang	-13359
▁polite	-13360
▁rafael	-13361
▁ration	-13362
▁review	-13363
▁riding	-13364
▁rights	-13365
▁sacked	-13366
▁sample	-13367
▁screen	-13368
▁shares	-13369
▁spiral	-13370
▁string	-13371
▁strong	-13372
▁submar	-13373
▁titans	-13374
▁vacuum	-13375
▁weapon	-13376
▁willie	-13377
Timeslot	-13378
adecimal	-13379
amboanga	-13380
enhauser	-13381
jekavian	-13382
material	-13383
ochester	-13384
ocodiles	-13385
scribers	-13386
trincham	-13387
xembourg	-13388
▁0091037	-13389
▁1990-91	-13390
▁2010/11	-13391
▁2010–11	-13392
▁Affairs	-13393
▁Analyst	-13394
▁Belgian	-13395
▁Brendan	-13396
▁Calling	-13397
▁Canucks	-13398
▁Catches	-13399
▁Display	-13400
▁Douglas	-13401
▁Emerson	-13402
▁Exports	-13403
▁Goondiw	-13404
▁Higgins	-13405
▁Inaugur	-13406
▁Islands	-13407
▁Janeiro	-13408
▁Maidens	-13409
▁Manning	-13410
▁Marquee	-13411
▁Meeting	-13412
▁Minimum	-13413
▁Nepalis	-13414
▁Nominal	-13415
▁OVERALL	-13416
▁PERFORM	-13417
▁Pistons	-13418
▁Pregame	-13419
▁Samples	-13420
▁Section	-13421
▁Shuttle	-13422
▁Sprints	-13423
▁Swimmer	-13424
▁Without	-13425
▁bombers	-13426
▁bullets	-13427
▁cardiff	-13428
▁catches	-13429
▁cluster	-13430
▁coached	-13431
▁cyclist	-13432
▁edwards	-13433
▁evicted	-13434
▁exhaust	-13435
▁footage	-13436
▁gearbox	-13437
▁imaging	-13438
▁lengths	-13439
▁maurice	-13440
▁medical	-13441
▁mideast	-13442
▁minimal	-13443
▁opinion	-13444
▁orlando	-13445
▁passing	-13446
▁poverty	-13447
▁prefect	-13448
▁pregame	-13449
▁process	-13450
▁revival	-13451
▁rockies	-13452
▁samples	-13453
▁shuttle	-13454
▁skinner	-13455
▁trainer	-13456
▁trevino	-13457
▁valpara	-13458
▁wrexham	-13459
▁yankees	-13460
Returning	-13461
berwolves	-13462
continent	-13463
corchamps	-13464
inguished	-13465
mittances	-13466
quartered	-13467
riculture	-13468
vironment	-13469
▁1990–199	-13470
▁Airlines	-13471
▁Atlantic	-13472
▁Checkout	-13473
▁Civilian	-13474
▁Clippers	-13475
▁Collison	-13476
▁Cyclones	-13477
▁Estimate	-13478
▁Galician	-13479
▁Kucinich	-13480
▁Manitoba	-13481
▁Mariners	-13482
▁Ordained	-13483
▁Ordinary	-13484
▁Particle	-13485
▁Pavilion	-13486
▁Programs	-13487
▁Rankings	-13488
▁Religion	-13489
▁Robinson	-13490
▁Valencia	-13491
▁citation	-13492
▁competit	-13493
▁cultural	-13494
▁facility	-13495
▁famiglia	-13496
▁forsythe	-13497
▁gimnasia	-13498
▁licensed	-13499
▁manitoba	-13500
▁namesake	-13501
▁ordained	-13502
▁pensions	-13503
▁phillies	-13504
▁rankings	-13505
▁recently	-13506
▁relation	-13507
▁reserves	-13508
▁sanskrit	-13509
▁schedule	-13510
▁scottish	-13511
▁stirling	-13512
▁sullivan	-13513
▁tagliani	-13514
▁trinidad	-13515
Qualifying	-13516
contestant	-13517
penditures	-13518
▁1985-1990	-13519
▁1995-2000	-13520
▁2006-2007	-13521
▁Argentina	-13522
▁Armstrong	-13523
▁Assistant	-13524
▁Cardinals	-13525
▁Chernobyl	-13526
▁Christine	-13527
▁Corrected	-13528
▁Effective	-13529
▁Estimated	-13530
▁Inglewood	-13531
▁Marquesan	-13532
▁Northeast	-13533
▁Political	-13534
▁Presenter	-13535
▁Satellite	-13536
▁Semimajor	-13537
▁Stevenson	-13538
▁accession	-13539
▁alouettes	-13540
▁armstrong	-13541
▁bulgarian	-13542
▁commander	-13543
▁concordia	-13544
▁contested	-13545
▁delivered	-13546
▁divisions	-13547
▁frankfurt	-13548
▁headphone	-13549
▁lithuania	-13550
▁marriages	-13551
▁mechanism	-13552
▁microsoft	-13553
▁renewable	-13554
▁ridership	-13555
▁sebastian	-13556
▁socialist	-13557
▁submitted	-13558
▁sébastien	-13559
▁worldwide	-13560
achelorette	-13561
▁Accredited	-13562
▁Aggressive	-13563
▁Appearance	-13564
▁Casualties	-13565
▁Goalkeeper	-13566
▁Kazakhstan	-13567
▁Motorcycle	-13568
▁Postseason	-13569
▁Wellington	-13570
▁Wheelchair	-13571
▁Yugoslavia	-13572
▁catagories	-13573
▁categories	-13574
▁competitor	-13575
▁cosponsors	-13576
▁department	-13577
▁investment	-13578
▁lieutenant	-13579
▁motorcycle	-13580
▁petersburg	-13581
▁propulsion	-13582
▁restaurant	-13583
▁unstressed	-13584
▁uzbekistan	-13585
▁wheelchair	-13586
▁978-1-59582	-13587
▁Alternative	-13588
▁Comparative	-13589
▁Composition	-13590
▁Corporation	-13591
▁Ekstraklasa	-13592
▁Goondiwindi	-13593
▁Partnership	-13594
▁dbeingtrict	-13595
▁estudiantes	-13596
▁transmitter	-13597
▁Abbreviation	-13598
▁Cancellation	-13599
▁Conservative	-13600
▁Incorporated	-13601
▁Shareholding	-13602
▁Spokesperson	-13603
▁jacksonville	-13604
▁measurements	-13605
▁participants	-13606
▁Psychological	-13607
▁semifinalists	-13608
▁Monounsaturated	-13609
*?	-13610
1%	-13611
:8	-13612
?"	-13613
Bo	-13614
Cl	-13615
GB	-13616
GF	-13617
HP	-13618
He	-13619
MC	-13620
PG	-13621
Ph	-13622
SN	-13623
bu	-13624
dl	-13625
hk	-13626
ku	-13627
lp	-13628
mb	-13629
oi	-13630
uf	-13631
yo	-13632
ōh	-13633
▁ɪ	-13634
%)?	-13635
)",	-13636
-45	-13637
-5)	-13638
-58	-13639
-6)	-13640
-98	-13641
.39	-13642
.55	-13643
062	-13644
109	-13645
116	-13646
127	-13647
16?	-13648
175	-13649
199	-13650
212	-13651
223	-13652
227	-13653
287	-13654
3,9	-13655
321	-13656
335	-13657
35?	-13658
36)	-13659
378	-13660
381	-13661
4),	-13662
502	-13663
520	-13664
536	-13665
557	-13666
571	-13667
575	-13668
585	-13669
6,8	-13670
7),	-13671
863	-13672
911	-13673
997	-13674
:12	-13675
:20	-13676
:22	-13677
:50	-13678
ACK	-13679
ARB	-13680
Air	-13681
CED	-13682
New	-13683
OHA	-13684
One	-13685
Out	-13686
Pre	-13687
Res	-13688
aar	-13689
alh	-13690
arc	-13691
col	-13692
dec	-13693
deg	-13694
fri	-13695
had	-13696
hol	-13697
hon	-13698
igs	-13699
mie	-13700
mos	-13701
nie	-13702
nis	-13703
pre	-13704
sha	-13705
tas	-13706
tic	-13707
yes	-13708
–2)	-13709
–29	-13710
–3)	-13711
–3,	-13712
–92	-13713
–9?	-13714
▁#,	-13715
▁(>	-13716
▁4%	-13717
▁6+	-13718
▁CL	-13719
▁CR	-13720
▁CU	-13721
▁DB	-13722
▁GM	-13723
▁JO	-13724
▁LB	-13725
▁MU	-13726
▁OR	-13727
▁Ok	-13728
▁PS	-13729
▁SB	-13730
▁TT	-13731
▁UM	-13732
▁Vi	-13733
▁bh	-13734
▁ew	-13735
▁mr	-13736
▁mv	-13737
▁oh	-13738
▁op	-13739
▁pp	-13740
▁rp	-13741
▁wu	-13742
▁–4	-13743
-07?	-13744
-08?	-13745
-100	-13746
-106	-13747
-24?	-13748
-27?	-13749
-28?	-13750
-29?	-13751
-34?	-13752
.00%	-13753
.16?	-13754
.47%	-13755
.75%	-13756
03)?	-13757
2007	-13758
2008	-13759
8,29	-13760
High	-13761
Lost	-13762
MBER	-13763
appy	-13764
araj	-13765
area	-13766
bill	-13767
clip	-13768
comp	-13769
dorf	-13770
egas	-13771
host	-13772
icon	-13773
iker	-13774
iler	-13775
ilio	-13776
iron	-13777
iton	-13778
lena	-13779
lles	-13780
ooch	-13781
oody	-13782
oten	-13783
ping	-13784
ting	-13785
verk	-13786
yaar	-13787
–102	-13788
–10?	-13789
–118	-13790
–15?	-13791
▁"14	-13792
▁+14	-13793
▁+15	-13794
▁+1?	-13795
▁-16	-13796
▁0–0	-13797
▁1-5	-13798
▁1:2	-13799
▁211	-13800
▁215	-13801
▁238	-13802
▁244	-13803
▁251	-13804
▁257	-13805
▁272	-13806
▁273	-13807
▁279	-13808
▁28%	-13809
▁280	-13810
▁295	-13811
▁303	-13812
▁304	-13813
▁318	-13814
▁322	-13815
▁342	-13816
▁345	-13817
▁369	-13818
▁374	-13819
▁37?	-13820
▁385	-13821
▁404	-13822
▁417	-13823
▁47%	-13824
▁479	-13825
▁4:3	-13826
▁5-2	-13827
▁5-3	-13828
▁5/1	-13829
▁501	-13830
▁51?	-13831
▁54%	-13832
▁6-9	-13833
▁76,	-13834
▁77,	-13835
▁77?	-13836
▁82,	-13837
▁85,	-13838
▁850	-13839
▁90?	-13840
▁99,	-13841
▁99?	-13842
▁BIG	-13843
▁Bun	-13844
▁Cob	-13845
▁Dom	-13846
▁Dow	-13847
▁Dra	-13848
▁EVA	-13849
▁Ens	-13850
▁Fro	-13851
▁GRT	-13852
▁Hon	-13853
▁KCL	-13854
▁Lau	-13855
▁Lev	-13856
▁Lim	-13857
▁MVP	-13858
▁Mak	-13859
▁McL	-13860
▁McM	-13861
▁Mcl	-13862
▁Mik	-13863
▁Nam	-13864
▁Oil	-13865
▁PPP	-13866
▁Som	-13867
▁Sox	-13868
▁Tog	-13869
▁Tul	-13870
▁USL	-13871
▁WIN	-13872
▁Wel	-13873
▁abc	-13874
▁boh	-13875
▁bon	-13876
▁dia	-13877
▁dnf	-13878
▁dom	-13879
▁esc	-13880
▁fou	-13881
▁fun	-13882
▁fur	-13883
▁fus	-13884
▁fut	-13885
▁han	-13886
▁hey	-13887
▁hus	-13888
▁jud	-13889
▁kad	-13890
▁lag	-13891
▁lam	-13892
▁liv	-13893
▁log	-13894
▁lsu	-13895
▁mcw	-13896
▁meh	-13897
▁mes	-13898
▁mik	-13899
▁nat	-13900
▁nik	-13901
▁nsr	-13902
▁pon	-13903
▁sel	-13904
▁suc	-13905
▁sug	-13906
▁suk	-13907
▁tip	-13908
▁tuc	-13909
▁vit	-13910
▁wer	-13911
▁xii	-13912
▁yak	-13913
-2001	-13914
-76=2	-13915
/2000	-13916
=139?	-13917
=210?	-13918
CACAF	-13919
agons	-13920
arine	-13921
arita	-13922
astic	-13923
aters	-13924
backs	-13925
casts	-13926
ellar	-13927
etary	-13928
giate	-13929
istol	-13930
izing	-13931
osaur	-13932
rafts	-13933
reece	-13934
restr	-13935
roken	-13936
stead	-13937
track	-13938
ucose	-13939
▁%200	-13940
▁(1.5	-13941
▁(25)	-13942
▁(34)	-13943
▁(42)	-13944
▁(49)	-13945
▁(60)	-13946
▁(61)	-13947
▁(67)	-13948
▁1.7%	-13949
▁101,	-13950
▁103?	-13951
▁108?	-13952
▁12.6	-13953
▁13.8	-13954
▁15.5	-13955
▁16.5	-13956
▁161,	-13957
▁1861	-13958
▁1874	-13959
▁1876	-13960
▁1885	-13961
▁19.4	-13962
▁1913	-13963
▁1918	-13964
▁1:02	-13965
▁1:15	-13966
▁1:24	-13967
▁1:25	-13968
▁1:34	-13969
▁1:46	-13970
▁1:55	-13971
▁2-3?	-13972
▁28.5	-13973
▁2:20	-13974
▁3-2?	-13975
▁3:50	-13976
▁4-1?	-13977
▁5-7,	-13978
▁5000	-13979
▁6-2?	-13980
▁Alfa	-13981
▁Asts	-13982
▁Bark	-13983
▁Bird	-13984
▁Boyd	-13985
▁Chin	-13986
▁Coal	-13987
▁Drug	-13988
▁EBIT	-13989
▁Earl	-13990
▁Fame	-13991
▁Flor	-13992
▁GRID	-13993
▁Gray	-13994
▁Gulf	-13995
▁Hans	-13996
▁Heir	-13997
▁Held	-13998
▁Ifop	-13999
▁Kana	-14000
▁Kent	-14001
▁Kern	-14002
▁Kick	-14003
▁Kost	-14004
▁MEPs	-14005
▁Maur	-14006
▁Mind	-14007
▁Neal	-14008
▁Noah	-14009
▁None	-14010
▁Note	-14011
▁Ovrs	-14012
▁Prop	-14013
▁Rail	-14014
▁Stay	-14015
▁TOUR	-14016
▁This	-14017
▁Twin	-14018
▁UCLA	-14019
▁Viet	-14020
▁Ward	-14021
▁Wkts	-14022
▁YEAR	-14023
▁adri	-14024
▁antw	-14025
▁atcc	-14026
▁bath	-14027
▁beer	-14028
▁bert	-14029
▁cage	-14030
▁cant	-14031
▁chad	-14032
▁clar	-14033
▁coal	-14034
▁cour	-14035
▁firm	-14036
▁friz	-14037
▁gard	-14038
▁gaut	-14039
▁gets	-14040
▁gior	-14041
▁guns	-14042
▁gust	-14043
▁haas	-14044
▁help	-14045
▁hits	-14046
▁joan	-14047
▁lips	-14048
▁mann	-14049
▁mask	-14050
▁mast	-14051
▁oran	-14052
▁pace	-14053
▁pain	-14054
▁pate	-14055
▁roma	-14056
▁schw	-14057
▁soul	-14058
▁sung	-14059
▁terr	-14060
▁troy	-14061
▁user	-14062
▁yong	-14063
▁zhou	-14064
Africa	-14065
NAMENT	-14066
ablish	-14067
alence	-14068
clipse	-14069
drawal	-14070
ervoir	-14071
gerald	-14072
immons	-14073
ingrad	-14074
latest	-14075
odcast	-14076
stonia	-14077
undred	-14078
▁(1-1)	-14079
▁(10)?	-14080
▁(100)	-14081
▁(106)	-14082
▁(107)	-14083
▁(112)	-14084
▁(120)	-14085
▁(2005	-14086
▁(2011	-14087
▁(2013	-14088
▁(50)?	-14089
▁(55)?	-14090
▁(61)?	-14091
▁(62)?	-14092
▁(76)?	-14093
▁(7–3)	-14094
▁(87)?	-14095
▁(>500	-14096
▁10.16	-14097
▁102.3	-14098
▁16-17	-14099
▁16.16	-14100
▁18–49	-14101
▁19.15	-14102
▁1926?	-14103
▁1929?	-14104
▁1932?	-14105
▁1966,	-14106
▁1981,	-14107
▁1997,	-14108
▁1998,	-14109
▁2009/	-14110
▁2012-	-14111
▁3,000	-14112
▁5,000	-14113
▁67-70	-14114
▁9:00?	-14115
▁Adams	-14116
▁Arrow	-14117
▁Crist	-14118
▁Decay	-14119
▁Denis	-14120
▁Discs	-14121
▁Downs	-14122
▁Faith	-14123
▁Gloss	-14124
▁Hills	-14125
▁Hydro	-14126
▁Intra	-14127
▁Jesse	-14128
▁Johns	-14129
▁Kanji	-14130
▁Katie	-14131
▁Lakes	-14132
▁Mills	-14133
▁Perry	-14134
▁Potts	-14135
▁Rules	-14136
▁Sepal	-14137
▁Seven	-14138
▁Solar	-14139
▁Stade	-14140
▁Throw	-14141
▁Towns	-14142
▁Usage	-14143
▁Venus	-14144
▁Vista	-14145
▁angel	-14146
▁blank	-14147
▁boris	-14148
▁canal	-14149
▁carol	-14150
▁derek	-14151
▁dixon	-14152
▁dubai	-14153
▁duffy	-14154
▁ethan	-14155
▁forti	-14156
▁garry	-14157
▁genus	-14158
▁hills	-14159
▁hutch	-14160
▁jamar	-14161
▁jesse	-14162
▁lilly	-14163
▁magic	-14164
▁marie	-14165
▁means	-14166
▁obama	-14167
▁pairs	-14168
▁paper	-14169
▁parts	-14170
▁pavel	-14171
▁rally	-14172
▁randy	-14173
▁ridge	-14174
▁rings	-14175
▁rubin	-14176
▁sammy	-14177
▁sepal	-14178
▁shock	-14179
▁sofia	-14180
▁songs	-14181
▁steam	-14182
▁stein	-14183
▁suwon	-14184
▁taxes	-14185
▁tomas	-14186
▁twins	-14187
▁until	-14188
▁warsz	-14189
▁worth	-14190
▁zabel	-14191
actions	-14192
adition	-14193
apanese	-14194
eseason	-14195
ineyard	-14196
rawford	-14197
▁(115)?	-14198
▁2008"?	-14199
▁Andrea	-14200
▁Around	-14201
▁BIGGER	-14202
▁Barnes	-14203
▁Barrow	-14204
▁Campus	-14205
▁Cinema	-14206
▁Ethnic	-14207
▁Factor	-14208
▁Filing	-14209
▁Foster	-14210
▁Freder	-14211
▁Greece	-14212
▁Growth	-14213
▁Holden	-14214
▁Jackie	-14215
▁Javier	-14216
▁Knicks	-14217
▁Milton	-14218
▁Muslim	-14219
▁Nature	-14220
▁Norris	-14221
▁Reader	-14222
▁Senate	-14223
▁Signed	-14224
▁Sorted	-14225
▁Stefan	-14226
▁Stroke	-14227
▁Telugu	-14228
▁Temper	-14229
▁Tracks	-14230
▁Triple	-14231
▁Vacuum	-14232
▁Virtue	-14233
▁accred	-14234
▁actors	-14235
▁arabic	-14236
▁autumn	-14237
▁barang	-14238
▁bolton	-14239
▁comedy	-14240
▁counts	-14241
▁davies	-14242
▁donald	-14243
▁dragon	-14244
▁fangio	-14245
▁filing	-14246
▁franch	-14247
▁grades	-14248
▁grande	-14249
▁hughes	-14250
▁javier	-14251
▁julius	-14252
▁knight	-14253
▁langer	-14254
▁lehman	-14255
▁longer	-14256
▁marina	-14257
▁monica	-14258
▁munich	-14259
▁nature	-14260
▁needed	-14261
▁option	-14262
▁oxford	-14263
▁petrol	-14264
▁phrase	-14265
▁pierce	-14266
▁planet	-14267
▁powell	-14268
▁reader	-14269
▁rivers	-14270
▁rubens	-14271
▁saturn	-14272
▁spoken	-14273
▁spouse	-14274
▁stoner	-14275
▁throne	-14276
▁travel	-14277
▁trevor	-14278
▁triple	-14279
▁vienna	-14280
▁viewer	-14281
▁weighs	-14282
▁within	-14283
Province	-14284
neapolis	-14285
ouchdown	-14286
verkusen	-14287
▁1996[2]	-14288
▁2009-10	-14289
▁Amateur	-14290
▁Aprilia	-14291
▁Awardee	-14292
▁Belarus	-14293
▁Bernard	-14294
▁Brandon	-14295
▁Brewers	-14296
▁Bubbles	-14297
▁Carrier	-14298
▁Consort	-14299
▁Covered	-14300
▁Cyclist	-14301
▁Derrick	-14302
▁Estonia	-14303
▁Finland	-14304
▁Fischer	-14305
▁Freight	-14306
▁Greater	-14307
▁Gymnast	-14308
▁Hamburg	-14309
▁Holland	-14310
▁Initial	-14311
▁Jessica	-14312
▁Mikhail	-14313
▁Minardi	-14314
▁Norwood	-14315
▁Ontario	-14316
▁Penalty	-14317
▁Pentium	-14318
▁Revival	-14319
▁Stewart	-14320
▁Viewing	-14321
▁alberta	-14322
▁archive	-14323
▁assumed	-14324
▁baldwin	-14325
▁clemson	-14326
▁clinton	-14327
▁collect	-14328
▁comment	-14329
▁consort	-14330
▁contest	-14331
▁estonia	-14332
▁everton	-14333
▁freleng	-14334
▁friends	-14335
▁garrett	-14336
▁gregory	-14337
▁hermann	-14338
▁history	-14339
▁jamaica	-14340
▁jessica	-14341
▁mallala	-14342
▁missing	-14343
▁nielsen	-14344
▁ongoing	-14345
▁patrese	-14346
▁reverse	-14347
▁ricardo	-14348
▁showing	-14349
▁studios	-14350
▁swindon	-14351
▁transit	-14352
▁various	-14353
▁wyoming	-14354
September	-14355
including	-14356
thousands	-14357
utherford	-14358
▁Acquired	-14359
▁Bernhard	-14360
▁Brooklyn	-14361
▁CONCACAF	-14362
▁Chemical	-14363
▁Complete	-14364
▁Cosworth	-14365
▁Ensemble	-14366
▁Finishes	-14367
▁Harrison	-14368
▁Identity	-14369
▁Internal	-14370
▁Jennifer	-14371
▁Jennings	-14372
▁Lifespan	-14373
▁Mercedes	-14374
▁Nicklaus	-14375
▁Parallel	-14376
▁Penguins	-14377
▁Petacchi	-14378
▁Pressure	-14379
▁Rainfall	-14380
▁Retitled	-14381
▁Senators	-14382
▁Starting	-14383
▁Straight	-14384
▁Villains	-14385
▁Vladimir	-14386
▁Wireless	-14387
▁alliance	-14388
▁analysts	-14389
▁averaged	-14390
▁ballarat	-14391
▁bernhard	-14392
▁builders	-14393
▁caroline	-14394
▁checkout	-14395
▁conflict	-14396
▁constitu	-14397
▁delaware	-14398
▁fighting	-14399
▁fraction	-14400
▁kitmaker	-14401
▁leonardo	-14402
▁mariners	-14403
▁parishes	-14404
▁peterson	-14405
▁seahawks	-14406
▁shoulder	-14407
▁sideline	-14408
▁slovakia	-14409
▁specimen	-14410
▁terrestr	-14411
▁vertical	-14412
Simplified	-14413
attendance	-14414
istrations	-14415
▁1999-2000	-14416
▁Announced	-14417
▁Communist	-14418
▁Conductor	-14419
▁Delivered	-14420
▁Headphone	-14421
▁Ijekavian	-14422
▁Leicester	-14423
▁Leningrad	-14424
▁Magnitude	-14425
▁Manhattan	-14426
▁Placement	-14427
▁Portfolio	-14428
▁Processor	-14429
▁Resources	-14430
▁Saturated	-14431
▁Secondary	-14432
▁abolished	-14433
▁adherents	-14434
▁assistant	-14435
▁bucharest	-14436
▁buildings	-14437
▁component	-14438
▁defending	-14439
▁dissolved	-14440
▁explosion	-14441
▁extension	-14442
▁giancarlo	-14443
▁hampshire	-14444
▁katherine	-14445
▁languages	-14446
▁macdonald	-14447
▁publisher	-14448
▁qualsiasi	-14449
▁recipient	-14450
▁resulting	-14451
▁saturated	-14452
▁universal	-14453
▁villanova	-14454
▁weighting	-14455
▁wrestlers	-14456
inhabitants	-14457
▁Basketball	-14458
▁Canterbury	-14459
▁Challenger	-14460
▁Completion	-14461
▁Divisional	-14462
▁Landesliga	-14463
▁Oberbayern	-14464
▁Operations	-14465
▁Pakistanis	-14466
▁Sacramento	-14467
▁TOURNAMENT	-14468
▁affiliated	-14469
▁archbishop	-14470
▁dismissals	-14471
▁foundation	-14472
▁gillingham	-14473
▁instrument	-14474
▁politician	-14475
▁statistics	-14476
Austronesian	-14477
▁Inaugurated	-14478
▁Information	-14479
▁Interregnum	-14480
▁Operational	-14481
▁PERFORMANCE	-14482
▁barrichello	-14483
▁dominikovic	-14484
▁educational	-14485
▁nominations	-14486
▁operational	-14487
▁prohibition	-14488
▁subdivision	-14489
▁undisclosed	-14490
▁Broadcasting	-14491
▁Presentation	-14492
▁breaststroke	-14493
▁commonwealth	-14494
▁libertadores	-14495
▁relationship	-14496
▁Choreographer	-14497
▁Panathinaikos	-14498
▁participation	-14499
▁pronunciation	-14500
▁weightlifting	-14501
▁administration	-14502
▁czechoslovakia	-14503
)(	-14504
//	-14505
2%	-14506
5-	-14507
6%	-14508
7-	-14509
AG	-14510
BI	-14511
Bn	-14512
GH	-14513
Go	-14514
KE	-14515
KL	-14516
LO	-14517
Me	-14518
NA	-14519
OC	-14520
Pl	-14521
Sm	-14522
bj	-14523
dd	-14524
ev	-14525
iš	-14526
ló	-14527
¢)	-14528
¥)	-14529
är	-14530
öm	-14531
ús	-14532
ūn	-14533
ки	-14534
ци	-14535
▁č	-14536
▁ו	-14537
(1)	-14538
-0)	-14539
-50	-14540
-62	-14541
-80	-14542
-9)	-14543
/50	-14544
/7?	-14545
002	-14546
025	-14547
040	-14548
049	-14549
099	-14550
118	-14551
11?	-14552
123	-14553
137	-14554
149	-14555
160	-14556
164	-14557
176	-14558
185	-14559
225	-14560
233	-14561
256	-14562
264	-14563
265	-14564
268	-14565
280	-14566
291	-14567
3"?	-14568
3,7	-14569
350	-14570
355	-14571
386	-14572
406	-14573
423	-14574
462	-14575
481	-14576
491	-14577
566	-14578
591	-14579
671	-14580
675	-14581
7,2	-14582
761	-14583
779	-14584
851	-14585
865	-14586
880	-14587
891	-14588
92?	-14589
968	-14590
://	-14591
:11	-14592
:17	-14593
:18	-14594
:31	-14595
:33	-14596
:38	-14597
AJN	-14598
Act	-14599
BGN	-14600
DSZ	-14601
IES	-14602
ITY	-14603
JGP	-14604
Jør	-14605
LPM	-14606
Mar	-14607
May	-14608
Min	-14609
Red	-14610
Yds	-14611
abh	-14612
acx	-14613
afa	-14614
alz	-14615
api	-14616
asl	-14617
aub	-14618
aud	-14619
ayu	-14620
aza	-14621
azu	-14622
bam	-14623
bel	-14624
bik	-14625
cam	-14626
cat	-14627
cci	-14628
cey	-14629
cía	-14630
dvd	-14631
ebu	-14632
eca	-14633
emo	-14634
eno	-14635
etz	-14636
ffi	-14637
fly	-14638
gem	-14639
gia	-14640
has	-14641
hur	-14642
iak	-14643
ijn	-14644
ikt	-14645
isl	-14646
isn	-14647
itr	-14648
iva	-14649
izz	-14650
kar	-14651
kia	-14652
kir	-14653
lob	-14654
loe	-14655
lop	-14656
mat	-14657
meb	-14658
nal	-14659
nat	-14660
nsk	-14661
olk	-14662
olt	-14663
omo	-14664
ooo	-14665
opf	-14666
oru	-14667
oye	-14668
pac	-14669
pov	-14670
qui	-14671
rix	-14672
rup	-14673
ryn	-14674
shu	-14675
tpb	-14676
try	-14677
tte	-14678
ttp	-14679
uge	-14680
uko	-14681
umi	-14682
usc	-14683
uso	-14684
uto	-14685
vio	-14686
www	-14687
xic	-14688
yah	-14689
zcz	-14690
zek	-14691
zzi	-14692
áng	-14693
ötz	-14694
ğlu	-14695
тон	-14696
–8?	-14697
–94	-14698
–96	-14699
′′?	-14700
▁"$	-14701
▁"6	-14702
▁"7	-14703
▁#8	-14704
▁%?	-14705
▁-6	-14706
▁.5	-14707
▁.6	-14708
▁0%	-14709
▁3/	-14710
▁8+	-14711
▁AP	-14712
▁Az	-14713
▁CC	-14714
▁CN	-14715
▁FB	-14716
▁Fu	-14717
▁HR	-14718
▁Io	-14719
▁Km	-14720
▁Ll	-14721
▁PD	-14722
▁SA	-14723
▁SZ	-14724
▁TX	-14725
▁VI	-14726
▁WP	-14727
▁Wo	-14728
▁ai	-14729
▁bj	-14730
▁cu	-14731
▁dt	-14732
[...]
